{
  "version": "1.0",
  "truncation": null,
  "padding": null,
  "added_tokens": [
    {
      "id": 0,
      "content": "<|pad|>",
      "single_word": false,
      "lstrip": false,
      "rstrip": false,
      "normalized": false,
      "special": true
    },
    {
      "id": 1,
      "content": "<|bos|>",
      "single_word": false,
      "lstrip": false,
      "rstrip": false,
      "normalized": false,
      "special": true
    },
    {
      "id": 2,
      "content": "<|eos|>",
      "single_word": false,
      "lstrip": false,
      "rstrip": false,
      "normalized": false,
      "special": true
    },
    {
      "id": 3,
      "content": "<|unk|>",
      "single_word": false,
      "lstrip": false,
      "rstrip": false,
      "normalized": false,
      "special": true
    },
    {
      "id": 4,
      "content": "<|im_start|>",
      "single_word": false,
      "lstrip": false,
      "rstrip": false,
      "normalized": false,
      "special": true
    },
    {
      "id": 5,
      "content": "<|im_end|>",
      "single_word": false,
      "lstrip": false,
      "rstrip": false,
      "normalized": false,
      "special": true
    },
    {
      "id": 6,
      "content": "<|system|>",
      "single_word": false,
      "lstrip": false,
      "rstrip": false,
      "normalized": false,
      "special": true
    },
    {
      "id": 7,
      "content": "<|user|>",
      "single_word": false,
      "lstrip": false,
      "rstrip": false,
      "normalized": false,
      "special": true
    },
    {
      "id": 8,
      "content": "<|assistant|>",
      "single_word": false,
      "lstrip": false,
      "rstrip": false,
      "normalized": false,
      "special": true
    },
    {
      "id": 9,
      "content": "<|think|>",
      "single_word": false,
      "lstrip": false,
      "rstrip": false,
      "normalized": false,
      "special": true
    },
    {
      "id": 10,
      "content": "<|/think|>",
      "single_word": false,
      "lstrip": false,
      "rstrip": false,
      "normalized": false,
      "special": true
    },
    {
      "id": 11,
      "content": "<|answer|>",
      "single_word": false,
      "lstrip": false,
      "rstrip": false,
      "normalized": false,
      "special": true
    },
    {
      "id": 12,
      "content": "<|/answer|>",
      "single_word": false,
      "lstrip": false,
      "rstrip": false,
      "normalized": false,
      "special": true
    },
    {
      "id": 13,
      "content": "<|tool_call|>",
      "single_word": false,
      "lstrip": false,
      "rstrip": false,
      "normalized": false,
      "special": true
    },
    {
      "id": 14,
      "content": "<|/tool_call|>",
      "single_word": false,
      "lstrip": false,
      "rstrip": false,
      "normalized": false,
      "special": true
    },
    {
      "id": 15,
      "content": "<|tool_result|>",
      "single_word": false,
      "lstrip": false,
      "rstrip": false,
      "normalized": false,
      "special": true
    },
    {
      "id": 16,
      "content": "<|/tool_result|>",
      "single_word": false,
      "lstrip": false,
      "rstrip": false,
      "normalized": false,
      "special": true
    },
    {
      "id": 17,
      "content": "<|image|>",
      "single_word": false,
      "lstrip": false,
      "rstrip": false,
      "normalized": false,
      "special": true
    },
    {
      "id": 18,
      "content": "<|/image|>",
      "single_word": false,
      "lstrip": false,
      "rstrip": false,
      "normalized": false,
      "special": true
    },
    {
      "id": 19,
      "content": "<|patch|>",
      "single_word": false,
      "lstrip": false,
      "rstrip": false,
      "normalized": false,
      "special": true
    },
    {
      "id": 20,
      "content": "<|fim_prefix|>",
      "single_word": false,
      "lstrip": false,
      "rstrip": false,
      "normalized": false,
      "special": true
    },
    {
      "id": 21,
      "content": "<|fim_middle|>",
      "single_word": false,
      "lstrip": false,
      "rstrip": false,
      "normalized": false,
      "special": true
    },
    {
      "id": 22,
      "content": "<|fim_suffix|>",
      "single_word": false,
      "lstrip": false,
      "rstrip": false,
      "normalized": false,
      "special": true
    },
    {
      "id": 23,
      "content": "<|alpha|>",
      "single_word": false,
      "lstrip": false,
      "rstrip": false,
      "normalized": false,
      "special": true
    },
    {
      "id": 24,
      "content": "<|beta|>",
      "single_word": false,
      "lstrip": false,
      "rstrip": false,
      "normalized": false,
      "special": true
    },
    {
      "id": 25,
      "content": "<|reserved_0|>",
      "single_word": false,
      "lstrip": false,
      "rstrip": false,
      "normalized": false,
      "special": true
    },
    {
      "id": 26,
      "content": "<|reserved_1|>",
      "single_word": false,
      "lstrip": false,
      "rstrip": false,
      "normalized": false,
      "special": true
    },
    {
      "id": 27,
      "content": "<|reserved_2|>",
      "single_word": false,
      "lstrip": false,
      "rstrip": false,
      "normalized": false,
      "special": true
    },
    {
      "id": 28,
      "content": "<|reserved_3|>",
      "single_word": false,
      "lstrip": false,
      "rstrip": false,
      "normalized": false,
      "special": true
    },
    {
      "id": 29,
      "content": "<|reserved_4|>",
      "single_word": false,
      "lstrip": false,
      "rstrip": false,
      "normalized": false,
      "special": true
    },
    {
      "id": 30,
      "content": "<|reserved_5|>",
      "single_word": false,
      "lstrip": false,
      "rstrip": false,
      "normalized": false,
      "special": true
    },
    {
      "id": 31,
      "content": "<|reserved_6|>",
      "single_word": false,
      "lstrip": false,
      "rstrip": false,
      "normalized": false,
      "special": true
    }
  ],
  "normalizer": {
    "type": "NFC"
  },
  "pre_tokenizer": {
    "type": "Sequence",
    "pretokenizers": [
      {
        "type": "Split",
        "pattern": {
          "Regex": "(?i:'s|'t|'re|'ve|'m|'ll|'d)|[^\\r\\n\\p{L}\\p{N}]?+\\p{L}+|\\p{N}{1,3}| ?[^\\s\\p{L}\\p{N}]++[\\r\\n]*|\\s*[\\r\\n]|\\s+(?!\\S)|\\s+"
        },
        "behavior": "Isolated",
        "invert": false
      },
      {
        "type": "ByteLevel",
        "add_prefix_space": false,
        "trim_offsets": true,
        "use_regex": false
      }
    ]
  },
  "post_processor": null,
  "decoder": {
    "type": "ByteLevel",
    "add_prefix_space": true,
    "trim_offsets": true,
    "use_regex": true
  },
  "model": {
    "type": "BPE",
    "dropout": null,
    "unk_token": "<|unk|>",
    "continuing_subword_prefix": null,
    "end_of_word_suffix": null,
    "fuse_unk": false,
    "byte_fallback": false,
    "ignore_merges": false,
    "vocab": {
      "<|pad|>": 0,
      "<|bos|>": 1,
      "<|eos|>": 2,
      "<|unk|>": 3,
      "<|im_start|>": 4,
      "<|im_end|>": 5,
      "<|system|>": 6,
      "<|user|>": 7,
      "<|assistant|>": 8,
      "<|think|>": 9,
      "<|/think|>": 10,
      "<|answer|>": 11,
      "<|/answer|>": 12,
      "<|tool_call|>": 13,
      "<|/tool_call|>": 14,
      "<|tool_result|>": 15,
      "<|/tool_result|>": 16,
      "<|image|>": 17,
      "<|/image|>": 18,
      "<|patch|>": 19,
      "<|fim_prefix|>": 20,
      "<|fim_middle|>": 21,
      "<|fim_suffix|>": 22,
      "<|alpha|>": 23,
      "<|beta|>": 24,
      "<|reserved_0|>": 25,
      "<|reserved_1|>": 26,
      "<|reserved_2|>": 27,
      "<|reserved_3|>": 28,
      "<|reserved_4|>": 29,
      "<|reserved_5|>": 30,
      "<|reserved_6|>": 31,
      "!": 32,
      "\"": 33,
      "#": 34,
      "$": 35,
      "%": 36,
      "&": 37,
      "'": 38,
      "(": 39,
      ")": 40,
      "*": 41,
      "+": 42,
      ",": 43,
      "-": 44,
      ".": 45,
      "/": 46,
      "0": 47,
      "1": 48,
      "2": 49,
      "3": 50,
      "4": 51,
      "5": 52,
      "6": 53,
      "7": 54,
      "8": 55,
      "9": 56,
      ":": 57,
      ";": 58,
      "<": 59,
      "=": 60,
      ">": 61,
      "?": 62,
      "@": 63,
      "A": 64,
      "B": 65,
      "C": 66,
      "D": 67,
      "E": 68,
      "F": 69,
      "G": 70,
      "H": 71,
      "I": 72,
      "J": 73,
      "K": 74,
      "L": 75,
      "M": 76,
      "N": 77,
      "O": 78,
      "P": 79,
      "Q": 80,
      "R": 81,
      "S": 82,
      "T": 83,
      "U": 84,
      "V": 85,
      "W": 86,
      "X": 87,
      "Y": 88,
      "Z": 89,
      "[": 90,
      "\\": 91,
      "]": 92,
      "^": 93,
      "_": 94,
      "`": 95,
      "a": 96,
      "b": 97,
      "c": 98,
      "d": 99,
      "e": 100,
      "f": 101,
      "g": 102,
      "h": 103,
      "i": 104,
      "j": 105,
      "k": 106,
      "l": 107,
      "m": 108,
      "n": 109,
      "o": 110,
      "p": 111,
      "q": 112,
      "r": 113,
      "s": 114,
      "t": 115,
      "u": 116,
      "v": 117,
      "w": 118,
      "x": 119,
      "y": 120,
      "z": 121,
      "{": 122,
      "|": 123,
      "}": 124,
      "~": 125,
      "¡": 126,
      "¢": 127,
      "£": 128,
      "¤": 129,
      "¥": 130,
      "¦": 131,
      "§": 132,
      "¨": 133,
      "©": 134,
      "ª": 135,
      "«": 136,
      "¬": 137,
      "®": 138,
      "¯": 139,
      "°": 140,
      "±": 141,
      "²": 142,
      "³": 143,
      "´": 144,
      "µ": 145,
      "¶": 146,
      "·": 147,
      "¸": 148,
      "¹": 149,
      "º": 150,
      "»": 151,
      "¼": 152,
      "½": 153,
      "¾": 154,
      "¿": 155,
      "À": 156,
      "Á": 157,
      "Â": 158,
      "Ã": 159,
      "Ä": 160,
      "Å": 161,
      "Æ": 162,
      "Ç": 163,
      "È": 164,
      "É": 165,
      "Ê": 166,
      "Ë": 167,
      "Ì": 168,
      "Í": 169,
      "Î": 170,
      "Ï": 171,
      "Ð": 172,
      "Ñ": 173,
      "Ò": 174,
      "Ó": 175,
      "Ô": 176,
      "Õ": 177,
      "Ö": 178,
      "×": 179,
      "Ø": 180,
      "Ù": 181,
      "Ú": 182,
      "Û": 183,
      "Ü": 184,
      "Ý": 185,
      "Þ": 186,
      "ß": 187,
      "à": 188,
      "á": 189,
      "â": 190,
      "ã": 191,
      "ä": 192,
      "å": 193,
      "æ": 194,
      "ç": 195,
      "è": 196,
      "é": 197,
      "ê": 198,
      "ë": 199,
      "ì": 200,
      "í": 201,
      "î": 202,
      "ï": 203,
      "ð": 204,
      "ñ": 205,
      "ò": 206,
      "ó": 207,
      "ô": 208,
      "õ": 209,
      "ö": 210,
      "÷": 211,
      "ø": 212,
      "ù": 213,
      "ú": 214,
      "û": 215,
      "ü": 216,
      "ý": 217,
      "þ": 218,
      "ÿ": 219,
      "Ā": 220,
      "ā": 221,
      "Ă": 222,
      "ă": 223,
      "Ą": 224,
      "ą": 225,
      "Ć": 226,
      "ć": 227,
      "Ĉ": 228,
      "ĉ": 229,
      "Ċ": 230,
      "ċ": 231,
      "Č": 232,
      "č": 233,
      "Ď": 234,
      "ď": 235,
      "Đ": 236,
      "đ": 237,
      "Ē": 238,
      "ē": 239,
      "Ĕ": 240,
      "ĕ": 241,
      "Ė": 242,
      "ė": 243,
      "Ę": 244,
      "ę": 245,
      "Ě": 246,
      "ě": 247,
      "Ĝ": 248,
      "ĝ": 249,
      "Ğ": 250,
      "ğ": 251,
      "Ġ": 252,
      "ġ": 253,
      "Ģ": 254,
      "ģ": 255,
      "Ĥ": 256,
      "ĥ": 257,
      "Ħ": 258,
      "ħ": 259,
      "Ĩ": 260,
      "ĩ": 261,
      "Ī": 262,
      "ī": 263,
      "Ĭ": 264,
      "ĭ": 265,
      "Į": 266,
      "į": 267,
      "İ": 268,
      "ı": 269,
      "Ĳ": 270,
      "ĳ": 271,
      "Ĵ": 272,
      "ĵ": 273,
      "Ķ": 274,
      "ķ": 275,
      "ĸ": 276,
      "Ĺ": 277,
      "ĺ": 278,
      "Ļ": 279,
      "ļ": 280,
      "Ľ": 281,
      "ľ": 282,
      "Ŀ": 283,
      "ŀ": 284,
      "Ł": 285,
      "ł": 286,
      "Ń": 287,
      "Ġt": 288,
      "ĠĠ": 289,
      "Ġa": 290,
      "in": 291,
      "he": 292,
      "on": 293,
      "er": 294,
      "Ġs": 295,
      "re": 296,
      "Ġthe": 297,
      "at": 298,
      "Ġc": 299,
      "or": 300,
      "en": 301,
      "is": 302,
      "es": 303,
      "al": 304,
      "Ġp": 305,
      "Ġw": 306,
      "it": 307,
      "Ġ=": 308,
      "Ġf": 309,
      "an": 310,
      "Ġo": 311,
      "Ġb": 312,
      "ĠĠĠĠ": 313,
      "Ġ(": 314,
      "ion": 315,
      "ed": 316,
      "Ġm": 317,
      "Ġan": 318,
      "ar": 319,
      "le": 320,
      "Ġd": 321,
      "Ġin": 322,
      "ing": 323,
      "Ġof": 324,
      "ct": 325,
      "ro": 326,
      ".Ċ": 327,
      "Ġn": 328,
      "Ġto": 329,
      "ic": 330,
      "Ġ-": 331,
      "Ġe": 332,
      "Ġis": 333,
      "ut": 334,
      "us": 335,
      "Ġand": 336,
      "ĠS": 337,
      "ent": 338,
      "et": 339,
      "Ġth": 340,
      "as": 341,
      "Ġ+": 342,
      "ly": 343,
      "om": 344,
      "ve": 345,
      "Ġl": 346,
      "Ġre": 347,
      "im": 348,
      ".ĊĊ": 349,
      "Ġh": 350,
      "ĠA": 351,
      "ĠT": 352,
      "ou": 353,
      "ot": 354,
      "ac": 355,
      "id": 356,
      "ation": 357,
      "st": 358,
      "Ġfor": 359,
      "um": 360,
      "ig": 361,
      "il": 362,
      "ĠĠĠ": 363,
      "ol": 364,
      "Ġg": 365,
      "ce": 366,
      "Ġbe": 367,
      "ow": 368,
      "Ġwe": 369,
      "if": 370,
      "Ġcon": 371,
      "os": 372,
      "Ġthat": 373,
      "ĠC": 374,
      "Ġ\\": 375,
      "ver": 376,
      "qu": 377,
      "ĠB": 378,
      "ra": 379,
      "ĠSo": 380,
      "ul": 381,
      "**": 382,
      "Ġon": 383,
      ").": 384,
      "ter": 385,
      "ĠI": 386,
      "Ġst": 387,
      "ith": 388,
      "ur": 389,
      "ĠĠĠĠĠĠĠĠ": 390,
      "un": 391,
      "ĊĊ": 392,
      "el": 393,
      "ĠThe": 394,
      "Ġâ": 395,
      "ir": 396,
      "am": 397,
      "Ġy": 398,
      "Ġwith": 399,
      "od": 400,
      "Ġpro": 401,
      "Ġex": 402,
      "Ġ$": 403,
      "Ġal": 404,
      "ay": 405,
      "Ġor": 406,
      "ist": 407,
      "ri": 408,
      "ch": 409,
      "Ġare": 410,
      "Ġas": 411,
      "Ġv": 412,
      "Ġne": 413,
      "Ġx": 414,
      "ĠL": 415,
      "Ġcan": 416,
      "'s": 417,
      "ect": 418,
      "ĠP": 419,
      "ate": 420,
      "ive": 421,
      "Ġat": 422,
      "ad": 423,
      "te": 424,
      "int": 425,
      "Ġr": 426,
      "res": 427,
      "ge": 428,
      "iv": 429,
      "Ġcom": 430,
      "ble": 431,
      "ĠD": 432,
      "th": 433,
      "pp": 434,
      "ĠM": 435,
      "Ġ\"": 436,
      "ĠF": 437,
      "rom": 438,
      ":Ċ": 439,
      "ally": 440,
      "Ġit": 441,
      "igh": 442,
      "Ġde": 443,
      "ity": 444,
      "ine": 445,
      "--": 446,
      "se": 447,
      "ment": 448,
      "ers": 449,
      "her": 450,
      "Ġnot": 451,
      "Ġby": 452,
      "est": 453,
      "Ġsu": 454,
      "Ġk": 455,
      "ĠN": 456,
      "Ġwh": 457,
      "ave": 458,
      "00": 459,
      "ant": 460,
      ")Ċ": 461,
      "end": 462,
      "ess": 463,
      "ĠĠĠĠĠĠĠ": 464,
      "Ġus": 465,
      "ĠR": 466,
      "ction": 467,
      "Ġfrom": 468,
      "art": 469,
      "lo": 470,
      "ld": 471,
      "ĠH": 472,
      "Th": 473,
      "pt": 474,
      "oun": 475,
      "ĠE": 476,
      "ight": 477,
      "Ġhave": 478,
      "pe": 479,
      "Ġse": 480,
      "Ġpo": 481,
      "ĠO": 482,
      "ang": 483,
      "and": 484,
      "ies": 485,
      "ĠW": 486,
      "iz": 487,
      "de": 488,
      "),": 489,
      "ple": 490,
      "^{": 491,
      "pl": 492,
      "ain": 493,
      "ore": 494,
      "em": 495,
      "Ġle": 496,
      "ach": 497,
      "Thus": 498,
      "ĠÎ": 499,
      "Ġneed": 500,
      "_{": 501,
      "Ġif": 502,
      "Ġch": 503,
      "Ġ**": 504,
      "ould": 505,
      "Ġ*": 506,
      "ctu": 507,
      "Ġsh": 508,
      "âĢ": 509,
      "put": 510,
      "ke": 511,
      "ition": 512,
      "Ġâī": 513,
      "act": 514,
      "10": 515,
      "all": 516,
      "ust": 517,
      "Ġnum": 518,
      "ide": 519,
      "Ġun": 520,
      "rt": 521,
      "ial": 522,
      "ab": 523,
      "ck": 524,
      "ult": 525,
      "Ġall": 526,
      "ĠTh": 527,
      "Ġhe": 528,
      "Ġu": 529,
      "ort": 530,
      "ass": 531,
      "ĠG": 532,
      "ill": 533,
      "cl": 534,
      "ĠIn": 535,
      "ĠLet": 536,
      "ich": 537,
      "Ġ/": 538,
      "Ġwhe": 539,
      "ds": 540,
      "Ġma": 541,
      "du": 542,
      "Ġinter": 543,
      "ical": 544,
      "Ġpoint": 545,
      "per": 546,
      "Ġper": 547,
      "der": 548,
      "Ġtr": 549,
      "bo": 550,
      "Ġbut": 551,
      "qrt": 552,
      "ans": 553,
      "Ġnumb": 554,
      "==": 555,
      "so": 556,
      "ase": 557,
      "Ġsum": 558,
      "are": 559,
      "og": 560,
      "ps": 561,
      "ure": 562,
      "ue": 563,
      "our": 564,
      "Ġthis": 565,
      "ince": 566,
      "ag": 567,
      "Ġ>": 568,
      "ff": 569,
      "ite": 570,
      "12": 571,
      "Ġfin": 572,
      "Ġme": 573,
      "Ġpos": 574,
      "rac": 575,
      "ĠBut": 576,
      "ome": 577,
      "ĠâĪ": 578,
      "Ġver": 579,
      "Ġeach": 580,
      "Ġim": 581,
      "ctually": 582,
      "gh": 583,
      "erm": 584,
      "Ġwhich": 585,
      "ence": 586,
      ")/": 587,
      "ire": 588,
      "xt": 589,
      "Ġ`": 590,
      "Ġso": 591,
      "ame": 592,
      "ative": 593,
      "Ġequ": 594,
      "ations": 595,
      "Ġco": 596,
      "The": 597,
      "ud": 598,
      "ĠU": 599,
      "orm": 600,
      "Ġres": 601,
      "Ġpl": 602,
      "Ġro": 603,
      "Ġcont": 604,
      "_i": 605,
      ")^": 606,
      "|>": 607,
      "ph": 608,
      "Ġmay": 609,
      "<|": 610,
      "ution": 611,
      "Ġ=>": 612,
      "ath": 613,
      "Ġen": 614,
      "ther": 615,
      "..": 616,
      "Ġthey": 617,
      "Ġany": 618,
      "rou": 619,
      "Ġ'": 620,
      "(x": 621,
      "}{": 622,
      "ĠĠĠĠĠĠĠĠĠĠĠ": 623,
      "frac": 624,
      "Ġapp": 625,
      "wer": 626,
      "Ġ{": 627,
      "ime": 628,
      "Ġad": 629,
      "to": 630,
      "age": 631,
      "fer": 632,
      "Ġmod": 633,
      "ance": 634,
      "Ġtri": 635,
      "ru": 636,
      "Ġline": 637,
      "20": 638,
      "ated": 639,
      "ard": 640,
      "be": 641,
      "ary": 642,
      "----": 643,
      "ĠFor": 644,
      ":ĊĊ": 645,
      "ast": 646,
      "Ġqu": 647,
      "ree": 648,
      "Ġone": 649,
      "Ġtw": 650,
      "Ġar": 651,
      "angle": 652,
      "Ġhas": 653,
      "ĠActually": 654,
      "ace": 655,
      "Ġexp": 656,
      "Ġcl": 657,
      "19": 658,
      "Ġsol": 659,
      "Ġ|": 660,
      "Ġsqrt": 661,
      "sion": 662,
      "Ġ$\\": 663,
      "Ġwor": 664,
      "con": 665,
      "ous": 666,
      "Ġdist": 667,
      "cess": 668,
      "si": 669,
      "ign": 670,
      "aus": 671,
      "Ġthere": 672,
      "Ġ<": 673,
      "ack": 674,
      "able": 675,
      "Ġalso": 676,
      "ose": 677,
      "elf": 678,
      "``": 679,
      "Ġwas": 680,
      "ger": 681,
      "Ġtwo": 682,
      "Ġmo": 683,
      "ound": 684,
      "Ġdo": 685,
      "ates": 686,
      "Ġ[": 687,
      "Ġpr": 688,
      "Ġsy": 689,
      "swer": 690,
      "Ġval": 691,
      "ors": 692,
      "Ġnumber": 693,
      "Ġsp": 694,
      "we": 695,
      "Ġabo": 696,
      "pute": 697,
      "dition": 698,
      "tern": 699,
      "Ġi": 700,
      "Ġconst": 701,
      "ific": 702,
      "ari": 703,
      "urn": 704,
      "irc": 705,
      "Ġac": 706,
      "Ġli": 707,
      "ount": 708,
      "Ġother": 709,
      "Ġanswer": 710,
      "ll": 711,
      "ĠĊ": 712,
      "Ġwhere": 713,
      "Ġbet": 714,
      "Ġz": 715,
      "pec": 716,
      "Ġang": 717,
      "ep": 718,
      "ren": 719,
      "ip": 720,
      "Ġyou": 721,
      "Ġ\\(": 722,
      "Ġj": 723,
      "Ġcol": 724,
      "ong": 725,
      "own": 726,
      "ft": 727,
      "Ġbec": 728,
      "16": 729,
      "Ġcons": 730,
      "Ġthen": 731,
      "Ġsuch": 732,
      "âĪ": 733,
      ".,": 734,
      "ient": 735,
      "Ġinte": 736,
      "Ġform": 737,
      "Ġlo": 738,
      "ces": 739,
      "Ġev": 740,
      "Ġsin": 741,
      "ĠThis": 742,
      "Ġfun": 743,
      "ĠJ": 744,
      "ear": 745,
      "Ġmust": 746,
      "ory": 747,
      "les": 748,
      "Ġout": 749,
      "ink": 750,
      "ord": 751,
      "heck": 752,
      "Ġsc": 753,
      "eth": 754,
      "Ġset": 755,
      "Â°": 756,
      "25": 757,
      "Ġpart": 758,
      "ile": 759,
      "ĠThen": 760,
      "ry": 761,
      "ater": 762,
      "Ġsome": 763,
      "form": 764,
      "Ġpre": 765,
      "Now": 766,
      "ween": 767,
      "Ġdis": 768,
      "ap": 769,
      "Ġterm": 770,
      "li": 771,
      "Ġdif": 772,
      "18": 773,
      "av": 774,
      "Ġmore": 775,
      "_n": 776,
      "ĠV": 777,
      "ize": 778,
      "))": 779,
      "Ġbetween": 780,
      "iel": 781,
      "ew": 782,
      "Ġdef": 783,
      "Ġfind": 784,
      "Ġcomp": 785,
      "oth": 786,
      "ause": 787,
      "ular": 788,
      "low": 789,
      "}$": 790,
      "##": 791,
      "ak": 792,
      "ice": 793,
      "port": 794,
      "rough": 795,
      "cre": 796,
      "âĢĻ": 797,
      "Ġsub": 798,
      "11": 799,
      "ub": 800,
      "Ġprodu": 801,
      "Ġmin": 802,
      "text": 803,
      "ĠK": 804,
      "Ġcos": 805,
      "Ġabout": 806,
      "ĠAB": 807,
      "Ġman": 808,
      "Ġonly": 809,
      "ĠÏ": 810,
      "Ġret": 811,
      "Ġ#": 812,
      "ection": 813,
      "one": 814,
      "15": 815,
      "Ġno": 816,
      "ĠY": 817,
      "13": 818,
      "Ġfunction": 819,
      "We": 820,
      "ring": 821,
      "ks": 822,
      "Ġpoints": 823,
      "Ġthan": 824,
      "Ġkn": 825,
      "Ġangle": 826,
      "Ġlike": 827,
      "the": 828,
      "ail": 829,
      "**:": 830,
      "Ġtriangle": 831,
      "blem": 832,
      "eng": 833,
      "ĠSince": 834,
      "ents": 835,
      "Ġspec": 836,
      "ress": 837,
      "ator": 838,
      "Ġwill": 839,
      "ider": 840,
      "====": 841,
      "Ġits": 842,
      "ices": 843,
      "ener": 844,
      "Ġthrough": 845,
      "ĠIf": 846,
      "/(": 847,
      "Ġtheir": 848,
      "irst": 849,
      "Ġsm": 850,
      "pend": 851,
      "di": 852,
      ";Ċ": 853,
      "Ġdiffer": 854,
      "ĠâīĪ": 855,
      "ays": 856,
      "cur": 857,
      "Ġproblem": 858,
      "Ġmaybe": 859,
      "Ġreg": 860,
      "Ġcor": 861,
      "cy": 862,
      "Ġra": 863,
      "ĠX": 864,
      "ens": 865,
      "Ġsolution": 866,
      "ĠSt": 867,
      "_st": 868,
      "iven": 869,
      "Ġup": 870,
      "Ġuse": 871,
      "Ġcondition": 872,
      "Ġusing": 873,
      "Ġdiv": 874,
      "14": 875,
      "ere": 876,
      "Ġcirc": 877,
      "Ġreturn": 878,
      "Ġshould": 879,
      "ric": 880,
      "ys": 881,
      "ell": 882,
      "|>Ċ": 883,
      "Ġcompute": 884,
      "Ġincl": 885,
      "Ġwould": 886,
      "imes": 887,
      "ia": 888,
      "Ġpar": 889,
      "air": 890,
      "ments": 891,
      "als": 892,
      "Ġside": 893,
      "Ġover": 894,
      "itive": 895,
      "ength": 896,
      "Ġdi": 897,
      "Ġsim": 898,
      "ues": 899,
      "Ġsqu": 900,
      "ever": 901,
      "sible": 902,
      "ma": 903,
      "Ġed": 904,
      "Ġgo": 905,
      "But": 906,
      "Ġboth": 907,
      "ise": 908,
      "Ġte": 909,
      "ram": 910,
      "Ġmat": 911,
      "ĠThat": 912,
      "ok": 913,
      "ata": 914,
      ".e": 915,
      "ject": 916,
      "Ġsmall": 917,
      "\"Ċ": 918,
      ",Ċ": 919,
      "its": 920,
      "Ġlar": 921,
      "xed": 922,
      "tal": 923,
      "erv": 924,
      "Ġrem": 925,
      "100": 926,
      "Ġwhen": 927,
      "Ġrel": 928,
      "ode": 929,
      "Ġfact": 930,
      "Ġappro": 931,
      "Ġ}": 932,
      "Ġinde": 933,
      "Ġinto": 934,
      "ait": 935,
      "math": 936,
      "Ġele": 937,
      "Ġcheck": 938,
      "ption": 939,
      "ides": 940,
      "stem": 941,
      "Let": 942,
      "Ġcomm": 943,
      "ange": 944,
      "ating": 945,
      "ĠQ": 946,
      "rib": 947,
      "Ġtrans": 948,
      "ĠâĢ": 949,
      "Ġdire": 950,
      "Ġsame": 951,
      "ĠĠĠĠĊ": 952,
      "ify": 953,
      "Ġbecause": 954,
      "âĪļ": 955,
      "_start": 956,
      "Ġrequ": 957,
      "_end": 958,
      "Ġtime": 959,
      "Ġthem": 960,
      "com": 961,
      "cal": 962,
      "cent": 963,
      "Ġq": 964,
      "ild": 965,
      "In": 966,
      "und": 967,
      "out": 968,
      "Ġconsider": 969,
      "ta": 970,
      "xim": 971,
      "Ġph": 972,
      "Ġcould": 973,
      "Ġfirst": 974,
      "âĢĻs": 975,
      "Ġcent": 976,
      "(n": 977,
      ").ĊĊ": 978,
      "ind": 979,
      "ci": 980,
      "ility": 981,
      "Ġinteger": 982,
      "Ġty": 983,
      "ational": 984,
      "Ġlength": 985,
      "Ġinters": 986,
      "200": 987,
      "op": 988,
      "ower": 989,
      ")$": 990,
      "Ġnumbers": 991,
      "Ġthese": 992,
      "fter": 993,
      "row": 994,
      "not": 995,
      "Ġprov": 996,
      "Ġself": 997,
      "ĠĠĠĠĠĠĠĠĠĠĠĠĠĠĠ": 998,
      "ines": 999,
      "owever": 1000,
      "oint": 1001,
      "24": 1002,
      "ĠÎ±": 1003,
      "val": 1004,
      "Ġ(-": 1005,
      "Ġtry": 1006,
      "Ġmight": 1007,
      "}\\": 1008,
      "ss": 1009,
      "Ġvert": 1010,
      "dd": 1011,
      "Ġob": 1012,
      "',": 1013,
      "17": 1014,
      "):Ċ": 1015,
      "ality": 1016,
      "ĠCon": 1017,
      "Ġnon": 1018,
      "ne": 1019,
      "Ġresult": 1020,
      "Ġâī¤": 1021,
      "--------": 1022,
      "ero": 1023,
      "pro": 1024,
      "Ġmost": 1025,
      "Ġexam": 1026,
      "Ġcount": 1027,
      "Ġright": 1028,
      "Ġbound": 1029,
      "Ġget": 1030,
      "app": 1031,
      "get": 1032,
      "yth": 1033,
      "hes": 1034,
      "Ġwere": 1035,
      "pon": 1036,
      "30": 1037,
      "olog": 1038,
      "since": 1039,
      "Ġgener": 1040,
      "Ġpossible": 1041,
      "'t": 1042,
      "ful": 1043,
      "aps": 1044,
      "Ġnew": 1045,
      "Ġem": 1046,
      "Ġyour": 1047,
      "ĠBC": 1048,
      "ĠIt": 1049,
      "Ġass": 1050,
      "Ġag": 1051,
      "ÏĢ": 1052,
      "Ġdet": 1053,
      "Ġcomple": 1054,
      "Ġchar": 1055,
      "Ġproduct": 1056,
      "ields": 1057,
      "ffect": 1058,
      "ish": 1059,
      "Ġthree": 1060,
      "ude": 1061,
      "ething": 1062,
      "omething": 1063,
      "ics": 1064,
      "ĠAn": 1065,
      "Ġtra": 1066,
      "ber": 1067,
      "Ġ>=": 1068,
      "Ġdes": 1069,
      "Ġpair": 1070,
      "vers": 1071,
      "resent": 1072,
      "Ġdoes": 1073,
      "ĠCom": 1074,
      "hed": 1075,
      "Ġexact": 1076,
      "ities": 1077,
      "Ġgra": 1078,
      "rit": 1079,
      "Ġsystem": 1080,
      "ian": 1081,
      ":**": 1082,
      "Ġeven": 1083,
      "Ġab": 1084,
      "36": 1085,
      "Ġunder": 1086,
      "arly": 1087,
      "fore": 1088,
      "```": 1089,
      "ty": 1090,
      "ency": 1091,
      "Ġtest": 1092,
      "Ġdifferent": 1093,
      "hen": 1094,
      "sqrt": 1095,
      "Ġclass": 1096,
      "Ġpositive": 1097,
      "Ġmult": 1098,
      "Ġsign": 1099,
      "^{-": 1100,
      ")(": 1101,
      "Ġwho": 1102,
      "Ġvari": 1103,
      "ost": 1104,
      "Ġcur": 1105,
      "ie": 1106,
      "Ġhis": 1107,
      "Ġmany": 1108,
      "ron": 1109,
      "ists": 1110,
      "ĠCh": 1111,
      "Ġwant": 1112,
      "Ġext": 1113,
      "Ġminim": 1114,
      "ror": 1115,
      "Ġam": 1116,
      "$,": 1117,
      "ough": 1118,
      "Al": 1119,
      "ĠHowever": 1120,
      "Ġstud": 1121,
      "inal": 1122,
      "ically": 1123,
      "Ġcircle": 1124,
      "Ġwork": 1125,
      "000": 1126,
      "ract": 1127,
      "(s": 1128,
      "ization": 1129,
      "Ġorder": 1130,
      "io": 1131,
      "reat": 1132,
      "lock": 1133,
      "Ġve": 1134,
      "gy": 1135,
      "ood": 1136,
      "Ġins": 1137,
      "gative": 1138,
      "pos": 1139,
      "Ġgiven": 1140,
      "__": 1141,
      "ĠWe": 1142,
      "Ġinf": 1143,
      "ffic": 1144,
      "ined": 1145,
      "Ġknown": 1146,
      "cd": 1147,
      "Ġspecific": 1148,
      "read": 1149,
      "Ġsat": 1150,
      "Ġtotal": 1151,
      "...": 1152,
      "]Ċ": 1153,
      "ible": 1154,
      "{\\": 1155,
      "Ġsomething": 1156,
      "ĠRe": 1157,
      "(\\": 1158,
      "ings": 1159,
      "Ġafter": 1160,
      "ior": 1161,
      ")ĊĊ": 1162,
      "ython": 1163,
      "Ġke": 1164,
      "ced": 1165,
      "rent": 1166,
      "Ġsa": 1167,
      "Ġcre": 1168,
      "ert": 1169,
      "Ġvalue": 1170,
      "Ġpe": 1171,
      "ross": 1172,
      "Ġstate": 1173,
      "Ġterms": 1174,
      "ctor": 1175,
      "Ġinclud": 1176,
      "vel": 1177,
      "*(": 1178,
      "ased": 1179,
      "ute": 1180,
      "Ġinv": 1181,
      "Ġfinal": 1182,
      "ident": 1183,
      "cept": 1184,
      "[Ċ": 1185,
      "Ġbo": 1186,
      "ges": 1187,
      "Ġ->": 1188,
      "ention": 1189,
      "cture": 1190,
      "lic": 1191,
      "201": 1192,
      "Ġleft": 1193,
      "Ġint": 1194,
      "isf": 1195,
      "Ġequation": 1196,
      "Ġused": 1197,
      "Ġden": 1198,
      ")=": 1199,
      "27": 1200,
      "ib": 1201,
      "ears": 1202,
      "Ġexactly": 1203,
      "50": 1204,
      "()": 1205,
      "Ġend": 1206,
      "Ġlog": 1207,
      "\\)": 1208,
      "Ġyields": 1209,
      "Ġcontain": 1210,
      "ism": 1211,
      "60": 1212,
      "Ġadd": 1213,
      "Ġrat": 1214,
      "met": 1215,
      "Ġsatisf": 1216,
      "ĨĴ": 1217,
      "Ġthink": 1218,
      "plic": 1219,
      "Ġdistance": 1220,
      "Ġinteg": 1221,
      "ec": 1222,
      "40": 1223,
      "ases": 1224,
      "Ġincre": 1225,
      "ĠUn": 1226,
      "Ġ{Ċ": 1227,
      "Ġent": 1228,
      "28": 1229,
      "set": 1230,
      "rite": 1231,
      "Ġvertices": 1232,
      "Ġind": 1233,
      "ternative": 1234,
      "ĠAl": 1235,
      "):": 1236,
      "haps": 1237,
      "Ġcorre": 1238,
      "point": 1239,
      "Ġvalues": 1240,
      "ures": 1241,
      "omin": 1242,
      "33": 1243,
      ").Ċ": 1244,
      "Ġsym": 1245,
      "Ġsquare": 1246,
      "ives": 1247,
      "cul": 1248,
      "Ġodd": 1249,
      "âĢĿ": 1250,
      "Ġâī¡": 1251,
      "Ġimport": 1252,
      "Ġequal": 1253,
      "Ġpat": 1254,
      "Ġel": 1255,
      "boxed": 1256,
      "Ġcannot": 1257,
      "old": 1258,
      "(t": 1259,
      "co": 1260,
      "ĠWait": 1261,
      "Ġstring": 1262,
      "ake": 1263,
      "ĠPro": 1264,
      "ves": 1265,
      "Ġleast": 1266,
      "ral": 1267,
      "ick": 1268,
      "equ": 1269,
      "Ġhad": 1270,
      "Ġsur": 1271,
      "Ġstr": 1272,
      "ual": 1273,
      "ied": 1274,
      "Ġarea": 1275,
      "Ġregion": 1276,
      "}}": 1277,
      "Ġjust": 1278,
      "Ġorig": 1279,
      "round": 1280,
      "Ġprocess": 1281,
      "raint": 1282,
      "ized": 1283,
      "-b": 1284,
      "user": 1285,
      "ex": 1286,
      "ning": 1287,
      "Ġstru": 1288,
      "Ġconf": 1289,
      "Ġsee": 1290,
      "Ġfactor": 1291,
      "Ġpass": 1292,
      "32": 1293,
      "Ġdata": 1294,
      "icular": 1295,
      "up": 1296,
      "Ġrep": 1297,
      "arch": 1298,
      "mathb": 1299,
      "Ġuser": 1300,
      "Î¸": 1301,
      "Ġlet": 1302,
      "Ġfe": 1303,
      "Ġhand": 1304,
      "pect": 1305,
      "$$": 1306,
      "vi": 1307,
      "Ġlarge": 1308,
      "Ġcase": 1309,
      "right": 1310,
      "mod": 1311,
      "Ġder": 1312,
      "Ġwhat": 1313,
      "Ġbeen": 1314,
      "Ġdivis": 1315,
      "ctions": 1316,
      "line": 1317,
      "Ġzero": 1318,
      "========": 1319,
      "Ġrow": 1320,
      "Ġinst": 1321,
      "Ġmaxim": 1322,
      "Ġmulti": 1323,
      "Ġhow": 1324,
      "ople": 1325,
      "ons": 1326,
      "here": 1327,
      "cond": 1328,
      "ature": 1329,
      "]ĊĊ": 1330,
      "-s": 1331,
      "Ġsize": 1332,
      "ĠNot": 1333,
      "Ġear": 1334,
      "ethod": 1335,
      "tex": 1336,
      "Ġthose": 1337,
      "fficient": 1338,
      "ĠAC": 1339,
      "ĠâĪļ": 1340,
      "Ġstep": 1341,
      "Ġremain": 1342,
      "90": 1343,
      "uring": 1344,
      "ield": 1345,
      "Ġtyp": 1346,
      "formation": 1347,
      "istant": 1348,
      "par": 1349,
      "yn": 1350,
      "64": 1351,
      "Ġnegative": 1352,
      "}.": 1353,
      "Ġhel": 1354,
      "ved": 1355,
      "\",": 1356,
      "aw": 1357,
      "estion": 1358,
      "Ġopp": 1359,
      "Ġconstant": 1360,
      "Ġshow": 1361,
      "ane": 1362,
      "cos": 1363,
      "lect": 1364,
      "lop": 1365,
      "Ġflo": 1366,
      "mer": 1367,
      "ĠInde": 1368,
      "Ġdig": 1369,
      "Ġhigh": 1370,
      "ef": 1371,
      "Ġgrou": 1372,
      "ĠâĪĪ": 1373,
      "Ġprint": 1374,
      "inct": 1375,
      "ression": 1376,
      "king": 1377,
      "Ġour": 1378,
      "ĠEx": 1379,
      "âĶ": 1380,
      "ten": 1381,
      "log": 1382,
      "ĠĠĠĠĠĠĠĠĊ": 1383,
      "(y": 1384,
      "Ġreal": 1385,
      "iqu": 1386,
      "Ġallow": 1387,
      "Ġredu": 1388,
      "Ġcall": 1389,
      "(a": 1390,
      "oc": 1391,
      "atic": 1392,
      "Ġconstraint": 1393,
      "Ġperhaps": 1394,
      "(\"": 1395,
      "ordin": 1396,
      "Ġless": 1397,
      "Ġer": 1398,
      "Ġvertex": 1399,
      "ually": 1400,
      "ters": 1401,
      "Ġfl": 1402,
      "Ġsides": 1403,
      "alcul": 1404,
      "99": 1405,
      "Ġrequire": 1406,
      "Ġdeg": 1407,
      "Alternative": 1408,
      "ark": 1409,
      "Ġeffect": 1410,
      "Ġpeople": 1411,
      "uc": 1412,
      "umn": 1413,
      "ward": 1414,
      "uth": 1415,
      "Ġoper": 1416,
      "ting": 1417,
      "22": 1418,
      "Ġdirect": 1419,
      "Ġatt": 1420,
      "ĠâĢľ": 1421,
      "_c": 1422,
      "Ġ<=": 1423,
      "Ġrec": 1424,
      "ner": 1425,
      "ension": 1426,
      "Ġroot": 1427,
      "ural": 1428,
      "cdot": 1429,
      "(f": 1430,
      "ĠâĨĴ": 1431,
      "ull": 1432,
      "gg": 1433,
      "ability": 1434,
      "ples": 1435,
      "Ġmon": 1436,
      "ares": 1437,
      "ins": 1438,
      "Ġpoly": 1439,
      "45": 1440,
      "Alternatively": 1441,
      "Ġdistinct": 1442,
      "Ġsupp": 1443,
      "Ġfol": 1444,
      "very": 1445,
      "Ġ\"\"": 1446,
      "omet": 1447,
      "Ġbu": 1448,
      "hat": 1449,
      "St": 1450,
      "Ġstart": 1451,
      "\")Ċ": 1452,
      "tep": 1453,
      "ix": 1454,
      "Î±": 1455,
      "ĠOr": 1456,
      "Ġfound": 1457,
      "ĠÏĨ": 1458,
      "Ġwhile": 1459,
      "âĢĳ": 1460,
      "Ġradi": 1461,
      "})": 1462,
      "Ġproper": 1463,
      "ape": 1464,
      "Ġprog": 1465,
      "-c": 1466,
      "ving": 1467,
      "Ġmodel": 1468,
      "onal": 1469,
      "velop": 1470,
      "}Ċ": 1471,
      "Ġmake": 1472,
      "_t": 1473,
      "Ġquestion": 1474,
      "Ġoff": 1475,
      "Ġlines": 1476,
      "assistant": 1477,
      "osite": 1478,
      "HS": 1479,
      "ĠZ": 1480,
      "Ġbl": 1481,
      "think": 1482,
      "âĶĢ": 1483,
      "ĠÎ¸": 1484,
      "Ġchild": 1485,
      "Ġmem": 1486,
      "26": 1487,
      "ited": 1488,
      "Ġet": 1489,
      "pi": 1490,
      "pr": 1491,
      "ork": 1492,
      "Ġblock": 1493,
      "Ġ&": 1494,
      "Ġexample": 1495,
      "Ġcell": 1496,
      "Ġback": 1497,
      "Ġposition": 1498,
      "_k": 1499,
      "adr": 1500,
      "Ġcharact": 1501,
      "_s": 1502,
      ",b": 1503,
      "pre": 1504,
      "Ġintersect": 1505,
      "\\[Ċ": 1506,
      "Ġknow": 1507,
      "Ġref": 1508,
      "Ġhelp": 1509,
      "Ġintersection": 1510,
      "Ġpol": 1511,
      "Ġav": 1512,
      "Ġcode": 1513,
      "ences": 1514,
      "75": 1515,
      "ĠNo": 1516,
      "oid": 1517,
      ")/(": 1518,
      "21": 1519,
      "Ġdec": 1520,
      "sin": 1521,
      "Ġwithin": 1522,
      "ness": 1523,
      "uch": 1524,
      "ptim": 1525,
      "Ġact": 1526,
      "Ġcorrect": 1527,
      "Ġmethod": 1528,
      "alth": 1529,
      "ĠThere": 1530,
      "Ġconn": 1531,
      "23": 1532,
      ".\"": 1533,
      "Ġsecond": 1534,
      "Ġderiv": 1535,
      "Ġlim": 1536,
      "Ġcare": 1537,
      "Ġinc": 1538,
      "ĠHe": 1539,
      "66": 1540,
      "Ġfollow": 1541,
      "Ġwell": 1542,
      "ts": 1543,
      "Ġmid": 1544,
      "ential": 1545,
      "Ġcho": 1546,
      "ĠIndeed": 1547,
      "Ġ)": 1548,
      "Ġratio": 1549,
      "ob": 1550,
      "Ġcar": 1551,
      "_j": 1552,
      "Ġident": 1553,
      "sing": 1554,
      "amet": 1555,
      "ĠâĪł": 1556,
      "Ġlist": 1557,
      "ages": 1558,
      "Ġedges": 1559,
      "Ġquadr": 1560,
      "Com": 1561,
      "chn": 1562,
      "Ġcenter": 1563,
      ">Ċ": 1564,
      "},": 1565,
      "Ġsquares": 1566,
      "ĠEn": 1567,
      "ĠÎ²": 1568,
      "Ġnumer": 1569,
      "ax": 1570,
      "Ġsequ": 1571,
      "Ġdepend": 1572,
      "Ġcontin": 1573,
      "py": 1574,
      "Ġapproach": 1575,
      "Ġoc": 1576,
      "sib": 1577,
      "Ġcomb": 1578,
      "Ġcolumn": 1579,
      "Ġstand": 1580,
      "80": 1581,
      "(-": 1582,
      "alle": 1583,
      "min": 1584,
      "ug": 1585,
      "+b": 1586,
      "Ġpath": 1587,
      "Ġcurrent": 1588,
      "ily": 1589,
      "Ġcy": 1590,
      "Ġdiag": 1591,
      "less": 1592,
      "This": 1593,
      "tem": 1594,
      "hem": 1595,
      "29": 1596,
      "Ġener": 1597,
      "Ġearli": 1598,
      "Ġlead": 1599,
      "Ġ//": 1600,
      "Ġagain": 1601,
      "Ġinterior": 1602,
      "âĶĢâĶĢ": 1603,
      "Ġpattern": 1604,
      "Ġgraph": 1605,
      "Ġcoordin": 1606,
      "Ġdevelop": 1607,
      "ĠAD": 1608,
      "35": 1609,
      "Ġtop": 1610,
      "Ġanal": 1611,
      "ology": 1612,
      "Ġsymmet": 1613,
      "_d": 1614,
      "ted": 1615,
      "Ġdeterm": 1616,
      "Ġacc": 1617,
      "Ġrepresent": 1618,
      "Ġbefore": 1619,
      "Ġarg": 1620,
      "Ġopposite": 1621,
      "Ġmaximum": 1622,
      "Ġdown": 1623,
      "}^{": 1624,
      "Ġmeas": 1625,
      "For": 1626,
      "Ġstructure": 1627,
      "for": 1628,
      "plement": 1629,
      "###": 1630,
      "Ġearlier": 1631,
      "ĠĠĠĠĠĠĠĠĠĠĠĠĠĠĠĠ": 1632,
      "ÃĹ": 1633,
      "imil": 1634,
      "Ġcle": 1635,
      "cri": 1636,
      ");Ċ": 1637,
      "Ġadj": 1638,
      "Ġens": 1639,
      "Ġsolutions": 1640,
      "iod": 1641,
      "Ġfloor": 1642,
      "Ġgu": 1643,
      "Ġsatisfy": 1644,
      "Ġprovide": 1645,
      "\".": 1646,
      "ool": 1647,
      "ote": 1648,
      "Ġcommon": 1649,
      "ominator": 1650,
      "Ġprime": 1651,
      "Ġoriginal": 1652,
      "Ġpower": 1653,
      "_A": 1654,
      "_{\\": 1655,
      "Ġenergy": 1656,
      "Ġbase": 1657,
      "Ġexist": 1658,
      "ĠAt": 1659,
      "Ġelse": 1660,
      "ially": 1661,
      "ants": 1662,
      "Ġpers": 1663,
      "ade": 1664,
      "ublic": 1665,
      "Ġtang": 1666,
      "ven": 1667,
      "_p": 1668,
      "ars": 1669,
      "gan": 1670,
      "olds": 1671,
      "Ġlower": 1672,
      "Â°,": 1673,
      "pendicular": 1674,
      "Ġbeing": 1675,
      "Ġyears": 1676,
      "Ġlook": 1677,
      ".g": 1678,
      "Ġhy": 1679,
      "Ġmet": 1680,
      "ĠÏĢ": 1681,
      "ances": 1682,
      "Ġformul": 1683,
      "ches": 1684,
      "Ġwater": 1685,
      "verse": 1686,
      "Ġread": 1687,
      "}(": 1688,
      "Ġinput": 1689,
      "Ġsimil": 1690,
      "Ġway": 1691,
      "('": 1692,
      "ems": 1693,
      "ision": 1694,
      "other": 1695,
      "sum": 1696,
      "asing": 1697,
      "cles": 1698,
      "Ġacross": 1699,
      "wn": 1700,
      "Ġoutput": 1701,
      "Ġmed": 1702,
      "ither": 1703,
      "eps": 1704,
      "ray": 1705,
      "wh": 1706,
      "Ġspace": 1707,
      "aces": 1708,
      "ton": 1709,
      "left": 1710,
      "arily": 1711,
      "Ġscal": 1712,
      "48": 1713,
      "ique": 1714,
      "ier": 1715,
      "ern": 1716,
      "Ġsing": 1717,
      "Ġser": 1718,
      "Ġmeans": 1719,
      "olution": 1720,
      "\\]ĊĊ": 1721,
      "part": 1722,
      "Ġvi": 1723,
      "Ġcover": 1724,
      "Ġperpendicular": 1725,
      "Ġconstraints": 1726,
      "ration": 1727,
      "ateral": 1728,
      "Ġincludes": 1729,
      "pha": 1730,
      "Ġprogram": 1731,
      "Ġcalcul": 1732,
      "}^": 1733,
      "Con": 1734,
      "led": 1735,
      "ument": 1736,
      "times": 1737,
      "Ġdirection": 1738,
      "ume": 1739,
      "^n": 1740,
      "Ġmis": 1741,
      "Ġgroup": 1742,
      "ĠÎ»": 1743,
      "Ġconstru": 1744,
      "Ġinequ": 1745,
      "ification": 1746,
      "vent": 1747,
      "Ġindeed": 1748,
      "ĠAs": 1749,
      "ribution": 1750,
      "199": 1751,
      "Ġcomplex": 1752,
      "Ġ}Ċ": 1753,
      "Ġfour": 1754,
      "apt": 1755,
      "ixed": 1756,
      ")^{": 1757,
      "If": 1758,
      "-d": 1759,
      "ife": 1760,
      "Ġindex": 1761,
      "Ġinformation": 1762,
      "imilarly": 1763,
      "Ġobject": 1764,
      "onent": 1765,
      "Ġedge": 1766,
      "Ġtype": 1767,
      ":**Ċ": 1768,
      "Ġtimes": 1769,
      "Ġfam": 1770,
      "()Ċ": 1771,
      "Â·": 1772,
      "Ġâī¥": 1773,
      "Ġabove": 1774,
      "Ġpairs": 1775,
      "ivers": 1776,
      "Ġexpression": 1777,
      "mathbf": 1778,
      "Ġ:": 1779,
      "omial": 1780,
      "ircle": 1781,
      "meric": 1782,
      "inite": 1783,
      "Ġarc": 1784,
      "Ġlong": 1785,
      "omes": 1786,
      "Ġlevel": 1787,
      "Ġpres": 1788,
      "Ġwrite": 1789,
      "-f": 1790,
      "Ġinclude": 1791,
      "ond": 1792,
      "Ġsimilar": 1793,
      "ilateral": 1794,
      ".<|": 1795,
      "elta": 1796,
      "Ġetc": 1797,
      "Ġshe": 1798,
      "ĠUse": 1799,
      "Ġtechn": 1800,
      "Ġminimal": 1801,
      "49": 1802,
      "37": 1803,
      "Ġwithout": 1804,
      "AB": 1805,
      "efficient": 1806,
      "red": 1807,
      "ĠĠĊ": 1808,
      "order": 1809,
      "65": 1810,
      "ified": 1811,
      "ivity": 1812,
      "(self": 1813,
      "Ġelect": 1814,
      "rid": 1815,
      "?Ċ": 1816,
      "Ġmean": 1817,
      "Ġnecess": 1818,
      "Ġfail": 1819,
      "bit": 1820,
      "iron": 1821,
      ")}": 1822,
      "Ġbre": 1823,
      "allel": 1824,
      "ected": 1825,
      "of": 1826,
      "Ġtem": 1827,
      "ways": 1828,
      "Ġkey": 1829,
      "ling": 1830,
      "Ġsays": 1831,
      "ym": 1832,
      "Ġsolve": 1833,
      "Ġsaid": 1834,
      "Ġge": 1835,
      "Ġrest": 1836,
      "Ġperiod": 1837,
      ")).": 1838,
      "raph": 1839,
      "land": 1840,
      "Ġcomput": 1841,
      "Ġshape": 1842,
      "ĠThey": 1843,
      "str": 1844,
      "face": 1845,
      "ĠâĦ": 1846,
      "ey": 1847,
      "amb": 1848,
      "gor": 1849,
      "arm": 1850,
      "alf": 1851,
      "Ġlikely": 1852,
      "respon": 1853,
      "ask": 1854,
      "((": 1855,
      "ets": 1856,
      "itude": 1857,
      "âĢĶ": 1858,
      "Ġdenominator": 1859,
      "Ġexpress": 1860,
      "Ġtreat": 1861,
      "Ġstill": 1862,
      "Ġseg": 1863,
      "ash": 1864,
      "Ġmax": 1865,
      "70": 1866,
      "pper": 1867,
      "els": 1868,
      "'ll": 1869,
      "Ġrespon": 1870,
      "Ġlinear": 1871,
      "âī": 1872,
      "Ġfield": 1873,
      "ety": 1874,
      "Ġrange": 1875,
      "Ġinside": 1876,
      "alpha": 1877,
      "ĠCD": 1878,
      "Ġvector": 1879,
      "Ġeither": 1880,
      "Ġrese": 1881,
      "Ġduring": 1882,
      "ests": 1883,
      "Ġinequality": 1884,
      "gs": 1885,
      "Ġworks": 1886,
      "Ġprob": 1887,
      "ĠAr": 1888,
      "ector": 1889,
      "Ġplay": 1890,
      ")*(": 1891,
      "ulation": 1892,
      "ormal": 1893,
      "ries": 1894,
      "Ġpresent": 1895,
      "Ġdra": 1896,
      "ĠAmeric": 1897,
      "Ġevery": 1898,
      "Ġtak": 1899,
      "ination": 1900,
      "Ġ==": 1901,
      "cial": 1902,
      "**:Ċ": 1903,
      "rans": 1904,
      "Ġvery": 1905,
      "```ĊĊ": 1906,
      "ody": 1907,
      "Ġoptim": 1908,
      "ĠSh": 1909,
      "Ġexpl": 1910,
      "ank": 1911,
      "Â±": 1912,
      "over": 1913,
      "Ġgrow": 1914,
      "ott": 1915,
      "----------------": 1916,
      "rror": 1917,
      "Given": 1918,
      "rix": 1919,
      "Ġsl": 1920,
      "34": 1921,
      "Ġmove": 1922,
      "python": 1923,
      "imension": 1924,
      "me": 1925,
      "ĠPython": 1926,
      "Ġher": 1927,
      "oriz": 1928,
      "def": 1929,
      "Ġcharacter": 1930,
      "</": 1931,
      "Ġexper": 1932,
      "ule": 1933,
      "$Ċ": 1934,
      "Ġstandard": 1935,
      "curs": 1936,
      "ource": 1937,
      "iply": 1938,
      "Ġplace": 1939,
      "Ġdou": 1940,
      "rict": 1941,
      "_f": 1942,
      "Ġexists": 1943,
      "Ġvia": 1944,
      "Ġsequence": 1945,
      "Ġsk": 1946,
      "Ġverify": 1947,
      "ables": 1948,
      "ason": 1949,
      "}.ĊĊ": 1950,
      "Ġmeasure": 1951,
      "Ġformula": 1952,
      "Ġdivisible": 1953,
      "requ": 1954,
      "ards": 1955,
      "Ġradius": 1956,
      "viron": 1957,
      "Ġchang": 1958,
      "like": 1959,
      "Ġgives": 1960,
      "ided": 1961,
      "ĠĠĠĠĠĠĠĠĠĠĠĠ": 1962,
      "Ġmention": 1963,
      "da": 1964,
      "Ġweight": 1965,
      "Ġgood": 1966,
      "ift": 1967,
      "ival": 1968,
      "iles": 1969,
      "Ġbecomes": 1970,
      "Ġdisc": 1971,
      "ions": 1972,
      "tle": 1973,
      "orizon": 1974,
      "ately": 1975,
      "Ġphys": 1976,
      "Ġbis": 1977,
      "ires": 1978,
      "chool": 1979,
      "ready": 1980,
      "Ġdegree": 1981,
      "Ġ\"\"\"Ċ": 1982,
      "ho": 1983,
      "alse": 1984,
      "44": 1985,
      "Ġoften": 1986,
      "Ġcoefficient": 1987,
      "ĠÃĹ": 1988,
      "Ġname": 1989,
      "Ġlear": 1990,
      "itial": 1991,
      "ĠAnd": 1992,
      "Ġcareful": 1993,
      "Ġaround": 1994,
      "(p": 1995,
      "mathcal": 1996,
      "':": 1997,
      "where": 1998,
      "Ġrun": 1999,
      "stand": 2000,
      "ample": 2001,
      "Ġest": 2002,
      "way": 2003,
      "Ġgeneral": 2004,
      ",c": 2005,
      "gn": 2006,
      "],": 2007,
      "hip": 2008,
      "any": 2009,
      "Ġvis": 2010,
      "ared": 2011,
      "Ġsupport": 2012,
      "38": 2013,
      "180": 2014,
      "ĠĠĠĠĠĠĠĠĠĠĠĠĠĠĠĠĠĠĠ": 2015,
      "Ġholds": 2016,
      "Ġtext": 2017,
      "_id": 2018,
      "Ġdon": 2019,
      "nomial": 2020,
      "Ġperm": 2021,
      "ĠIm": 2022,
      "Ġlast": 2023,
      "Ġart": 2024,
      "Ġalways": 2025,
      "sc": 2026,
      "Ġhum": 2027,
      "Ġhalf": 2028,
      "Ġcontro": 2029,
      "ĠNew": 2030,
      "pendent": 2031,
      "Ġspe": 2032,
      "cle": 2033,
      "Ġop": 2034,
      "gin": 2035,
      "Ġsingle": 2036,
      "Ġelements": 2037,
      "Ġimplement": 2038,
      "Ġerror": 2039,
      "Ġparallel": 2040,
      "_b": 2041,
      "name": 2042,
      ",\\": 2043,
      "Ġadjac": 2044,
      "Ġgre": 2045,
      "mon": 2046,
      "Ġtake": 2047,
      "lection": 2048,
      "aybe": 2049,
      "Ġconver": 2050,
      "Ġ...": 2051,
      "angles": 2052,
      "wise": 2053,
      "Ġdid": 2054,
      "---": 2055,
      "Ġhealth": 2056,
      "nal": 2057,
      "uration": 2058,
      "self": 2059,
      "ining": 2060,
      "=\"": 2061,
      "Ġnear": 2062,
      "Ġcorrespon": 2063,
      ",y": 2064,
      "vex": 2065,
      "Ġinvol": 2066,
      "Ġlarger": 2067,
      "pty": 2068,
      "Ġpri": 2069,
      "aren": 2070,
      "Ġworld": 2071,
      "So": 2072,
      "**Ċ": 2073,
      "ler": 2074,
      "max": 2075,
      "Ġln": 2076,
      "ĠĠĠĠĠ": 2077,
      "rue": 2078,
      "Ġrect": 2079,
      "Ġstudents": 2080,
      "istic": 2081,
      "ĠCompute": 2082,
      "iding": 2083,
      "Ġintegers": 2084,
      "Ġlocal": 2085,
      "(A": 2086,
      "Pro": 2087,
      "Ġangles": 2088,
      "Ġpolynomial": 2089,
      "Ġdigits": 2090,
      "ER": 2091,
      "Ġconfig": 2092,
      "Ġ~": 2093,
      "atch": 2094,
      "pot": 2095,
      "ators": 2096,
      "ference": 2097,
      "Ġsugg": 2098,
      "Ġbeh": 2099,
      "(b": 2100,
      "Ġmultiple": 2101,
      "ĠRes": 2102,
      "39": 2103,
      "Ġcolor": 2104,
      "ĠYes": 2105,
      "Ġmuch": 2106,
      "Ġremo": 2107,
      "Ġsubset": 2108,
      "Ġlimit": 2109,
      "ighb": 2110,
      "Ġapproxim": 2111,
      "Step": 2112,
      "ense": 2113,
      "Ġ\\)": 2114,
      "ysis": 2115,
      "eta": 2116,
      "Ġcells": 2117,
      "Ġelement": 2118,
      "Ġrot": 2119,
      "bal": 2120,
      "Ġdesign": 2121,
      "Ġchange": 2122,
      "Ġmade": 2123,
      "Ġdifference": 2124,
      "Ġunique": 2125,
      "Ġlies": 2126,
      "Ġpot": 2127,
      "ĠABC": 2128,
      "}=": 2129,
      "cer": 2130,
      "ead": 2131,
      "au": 2132,
      "ird": 2133,
      "Ġmodul": 2134,
      "Ġalong": 2135,
      "-t": 2136,
      "Ġvalid": 2137,
      "Ġvs": 2138,
      "Ġcommun": 2139,
      "igma": 2140,
      "Ġpublic": 2141,
      "Ġhig": 2142,
      "usion": 2143,
      "col": 2144,
      "loc": 2145,
      "Ġimp": 2146,
      "Ġplan": 2147,
      "Ġcircum": 2148,
      "Ġquant": 2149,
      "Ġnow": 2150,
      "ser": 2151,
      "Ġproduce": 2152,
      "Ġuses": 2153,
      "theta": 2154,
      "ithm": 2155,
      "Ġchildren": 2156,
      "Error": 2157,
      "answer": 2158,
      "Ġfixed": 2159,
      "Ġtan": 2160,
      "Ġprec": 2161,
      "$.": 2162,
      "56": 2163,
      "etic": 2164,
      "_x": 2165,
      "rop": 2166,
      "Ġpop": 2167,
      "stit": 2168,
      "Ġ%": 2169,
      "Ġmass": 2170,
      "Ġsymmetric": 2171,
      "Ġtheore": 2172,
      "oss": 2173,
      "ambda": 2174,
      "pping": 2175,
      "med": 2176,
      ")\\": 2177,
      "Ġcontinu": 2178,
      "chan": 2179,
      "Ġcalled": 2180,
      "son": 2181,
      "Ġamong": 2182,
      "Ġvol": 2183,
      "================": 2184,
      "ga": 2185,
      "Ġyear": 2186,
      "Ġparamet": 2187,
      "quad": 2188,
      "ames": 2189,
      "Ġlab": 2190,
      "31": 2191,
      "ively": 2192,
      "ene": 2193,
      "Ġfunctions": 2194,
      "'Ċ": 2195,
      "Ġrespect": 2196,
      "Ġcomplete": 2197,
      "Ġunit": 2198,
      "_B": 2199,
      "Ġbased": 2200,
      "duct": 2201,
      "Ġmatch": 2202,
      "side": 2203,
      "Ġpossib": 2204,
      "Ġ.": 2205,
      "Ex": 2206,
      "Ġdefine": 2207,
      "arget": 2208,
      "Ġabs": 2209,
      "Ġown": 2210,
      "Ġrational": 2211,
      "Ġsepar": 2212,
      "serv": 2213,
      "vironment": 2214,
      "raction": 2215,
      "Ġserv": 2216,
      "Ġsw": 2217,
      "Ġnumerator": 2218,
      "$.ĊĊ": 2219,
      "Ġsince": 2220,
      "||": 2221,
      "ĠWhen": 2222,
      "Ġconditions": 2223,
      "Ġdouble": 2224,
      "utes": 2225,
      "ĠSe": 2226,
      "ends": 2227,
      "^k": 2228,
      "Ġask": 2229,
      "Ġneighb": 2230,
      "âĢĵ": 2231,
      "76": 2232,
      "ĠAlso": 2233,
      "Ġtangent": 2234,
      "Ġdirectly": 2235,
      "Ġhist": 2236,
      "Ġchoose": 2237,
      "Ġmidpoint": 2238,
      "osed": 2239,
      "Ġhorizon": 2240,
      "Compute": 2241,
      "ynam": 2242,
      "til": 2243,
      "ĠÂ±": 2244,
      "+c": 2245,
      ",\"": 2246,
      "from": 2247,
      "Ġanother": 2248,
      "(c": 2249,
      "_m": 2250,
      "Ġpartic": 2251,
      "Ġallowed": 2252,
      "Ġwrit": 2253,
      ".s": 2254,
      "An": 2255,
      "Ġgeomet": 2256,
      "Ġbas": 2257,
      "Ġconvex": 2258,
      "ĠDe": 2259,
      "Ġlow": 2260,
      "Ġensure": 2261,
      "ological": 2262,
      "Ġmy": 2263,
      "ĠÎ£": 2264,
      "Ġstates": 2265,
      "Ġlaw": 2266,
      "Ġcoordinates": 2267,
      "Ġassign": 2268,
      "}{\\": 2269,
      "ran": 2270,
      "Ġsegment": 2271,
      "Ġtrue": 2272,
      "andom": 2273,
      "ished": 2274,
      "ious": 2275,
      "Ġcontains": 2276,
      "Ġcap": 2277,
      "Ġlit": 2278,
      "oot": 2279,
      "Ġdefined": 2280,
      "Ġaut": 2281,
      "ĠÎµ": 2282,
      "Ġ\\(\\": 2283,
      "Ġplane": 2284,
      "Ġconsist": 2285,
      "use": 2286,
      "Ġlight": 2287,
      "ĠIs": 2288,
      "which": 2289,
      "78": 2290,
      "angu": 2291,
      "Ġdoesn": 2292,
      "Ġalready": 2293,
      "ĠSimilarly": 2294,
      "af": 2295,
      "ission": 2296,
      "tempt": 2297,
      "Ġthough": 2298,
      "Ġsay": 2299,
      "ircles": 2300,
      "Ġcost": 2301,
      "ON": 2302,
      "atural": 2303,
      "ctors": 2304,
      "ĠRHS": 2305,
      "yz": 2306,
      "ience": 2307,
      "Ġcreate": 2308,
      "aving": 2309,
      "Ġimportant": 2310,
      "ĠNe": 2311,
      "ĠÎĶ": 2312,
      "mathbb": 2313,
      "Ġorgan": 2314,
      "_a": 2315,
      "98": 2316,
      "Ġincluding": 2317,
      "Ġ```": 2318,
      "Ġquadrilateral": 2319,
      "Actually": 2320,
      "ats": 2321,
      "Ġresults": 2322,
      "Ġloc": 2323,
      "omen": 2324,
      "Ġinfinite": 2325,
      "Ġstudy": 2326,
      "chie": 2327,
      "//": 2328,
      "Ġconnect": 2329,
      "AC": 2330,
      "ĠAd": 2331,
      "ĠĠĊĊ": 2332,
      "Ġprove": 2333,
      "cing": 2334,
      "ivid": 2335,
      "(k": 2336,
      "ery": 2337,
      "amma": 2338,
      "ots": 2339,
      "}_": 2340,
      "gorithm": 2341,
      "crib": 2342,
      "Ġcross": 2343,
      "Ġnext": 2344,
      ">ĊĊ": 2345,
      "Ġ]": 2346,
      "Ġmemory": 2347,
      "inary": 2348,
      "ĠBD": 2349,
      "Ġhere": 2350,
      "Ġcaus": 2351,
      "Ġenc": 2352,
      "Ġlat": 2353,
      "mu": 2354,
      "aced": 2355,
      "ĠCl": 2356,
      "fect": 2357,
      "Ġrelations": 2358,
      "Ġdigit": 2359,
      "Ġlife": 2360,
      "Ġbreak": 2361,
      "rate": 2362,
      "action": 2363,
      "abl": 2364,
      "Ġavoid": 2365,
      "ache": 2366,
      "atus": 2367,
      "Ġvertical": 2368,
      "Ġarr": 2369,
      "77": 2370,
      "(m": 2371,
      "Ġsever": 2372,
      "(u": 2373,
      "ĠâĪ«": 2374,
      "Ġfile": 2375,
      "clud": 2376,
      "ording": 2377,
      "55": 2378,
      "center": 2379,
      "Ġnote": 2380,
      "plify": 2381,
      "ilities": 2382,
      "Ġsure": 2383,
      "Ġrelative": 2384,
      "no": 2385,
      "tt": 2386,
      "ĠTo": 2387,
      "ception": 2388,
      "Ġdiff": 2389,
      "class": 2390,
      "Ġfood": 2391,
      "ably": 2392,
      "Ġaddition": 2393,
      "ĠPl": 2394,
      "Ġtriangles": 2395,
      "Ġmatches": 2396,
      "Ġtoo": 2397,
      "$ĊĊ": 2398,
      "Ġant": 2399,
      "Ġ-(": 2400,
      "ln": 2401,
      "Ġhead": 2402,
      "-st": 2403,
      "ĠPh": 2404,
      "iving": 2405,
      "Ġday": 2406,
      "Ġreason": 2407,
      "_l": 2408,
      "Ġdue": 2409,
      "ĠThese": 2410,
      "aran": 2411,
      "Ġ|Ċ": 2412,
      "Ġbi": 2413,
      "ertain": 2414,
      "ottom": 2415,
      "Ġhim": 2416,
      "[i": 2417,
      "Ġappears": 2418,
      "Ġachie": 2419,
      "Ġsimple": 2420,
      "Ġadjacent": 2421,
      "120": 2422,
      "iversity": 2423,
      "Ġsuc": 2424,
      "Ġmagn": 2425,
      "Ġrequires": 2426,
      "ources": 2427,
      "Ġkeep": 2428,
      "Ġblack": 2429,
      "Ġattempt": 2430,
      "Ġseems": 2431,
      "AT": 2432,
      "ilon": 2433,
      "-in": 2434,
      "idth": 2435,
      "verage": 2436,
      "ann": 2437,
      "pace": 2438,
      "Ġderived": 2439,
      "vious": 2440,
      "Ġexamine": 2441,
      "aterial": 2442,
      "')": 2443,
      "ding": 2444,
      "amp": 2445,
      "Ġmain": 2446,
      "Ġminimum": 2447,
      "68": 2448,
      "->": 2449,
      "Ġfollowing": 2450,
      "Ġcircles": 2451,
      "hers": 2452,
      "Ġris": 2453,
      "Ġsurface": 2454,
      "ĠNone": 2455,
      "dict": 2456,
      "Ġunderstand": 2457,
      "play": 2458,
      "Ġpa": 2459,
      "Ġexponent": 2460,
      "+y": 2461,
      "Ġcontext": 2462,
      "Ġgive": 2463,
      "curren": 2464,
      "ternal": 2465,
      "ailable": 2466,
      "ah": 2467,
      "ĠMult": 2468,
      "ĠWh": 2469,
      "Ġpract": 2470,
      "arante": 2471,
      "rain": 2472,
      "Ġgover": 2473,
      "ĠStep": 2474,
      "Ġschool": 2475,
      "Ġtheory": 2476,
      "orn": 2477,
      "lobal": 2478,
      "72": 2479,
      "ĠâĢĵ": 2480,
      "plicit": 2481,
      "omic": 2482,
      "Ġhigher": 2483,
      "/n": 2484,
      "Ġiss": 2485,
      "Ġprot": 2486,
      "Ġsmallest": 2487,
      "_y": 2488,
      "Ġreport": 2489,
      "Ġdecre": 2490,
      "Ġbody": 2491,
      "Ġpasses": 2492,
      "Ġrows": 2493,
      "58": 2494,
      "big": 2495,
      "let": 2496,
      "Ġexpect": 2497,
      "\":": 2498,
      "---ĊĊ": 2499,
      "Ġfull": 2500,
      "Ġadv": 2501,
      "Ġsteps": 2502,
      "ĠÏī": 2503,
      "Ġred": 2504,
      "place": 2505,
      "Ġflow": 2506,
      "Ġcrit": 2507,
      "Ġchanges": 2508,
      "Ġboundary": 2509,
      "ouse": 2510,
      "Ġforce": 2511,
      "lambda": 2512,
      "Ġbisector": 2513,
      ")]": 2514,
      "Ġâīł": 2515,
      "Ġindivid": 2516,
      "<think": 2517,
      "Ġax": 2518,
      "Ġtypes": 2519,
      "ware": 2520,
      "Ġdistances": 2521,
      "IN": 2522,
      "oks": 2523,
      "...,": 2524,
      "Ġcontrol": 2525,
      "ĠOn": 2526,
      "Ġdistribution": 2527,
      "Ġsaf": 2528,
      "por": 2529,
      "Ġ((": 2530,
      "view": 2531,
      "Ġaffect": 2532,
      ".get": 2533,
      "Ġgovern": 2534,
      "Ġsystems": 2535,
      "Ġland": 2536,
      "Ġaccess": 2537,
      "ended": 2538,
      "ĠAP": 2539,
      "ST": 2540,
      "aries": 2541,
      "Ġevent": 2542,
      "Ġfram": 2543,
      "ault": 2544,
      "Ġcases": 2545,
      "Ġneeded": 2546,
      "Ġdimension": 2547,
      "reg": 2548,
      "Ġresearch": 2549,
      "Ġ\\[Ċ": 2550,
      "ental": 2551,
      "soci": 2552,
      "atures": 2553,
      "Ġnet": 2554,
      "âĪŀ": 2555,
      "Ġopen": 2556,
      "br": 2557,
      "aves": 2558,
      "Ġindependent": 2559,
      "Î²": 2560,
      "ock": 2561,
      "Ġproblems": 2562,
      "lu": 2563,
      "Ġrectangle": 2564,
      "Ġfamily": 2565,
      "Ġrate": 2566,
      "Ġtransform": 2567,
      "itions": 2568,
      "rees": 2569,
      "Ġbecome": 2570,
      "otal": 2571,
      "Â²": 2572,
      ".S": 2573,
      "Ġperform": 2574,
      "arrow": 2575,
      "Ġdise": 2576,
      "Ġregular": 2577,
      "Ġdiagonal": 2578,
      "ords": 2579,
      "ĠCheck": 2580,
      "96": 2581,
      "gest": 2582,
      "bitr": 2583,
      "appro": 2584,
      "Ġbetter": 2585,
      "Ġsort": 2586,
      "linear": 2587,
      "Ġitself": 2588,
      "Ġpress": 2589,
      "ystem": 2590,
      "Ġnecessarily": 2591,
      "Ġpositions": 2592,
      "ĠRet": 2593,
      "lation": 2594,
      "plit": 2595,
      "Ġnormal": 2596,
      "Ġhuman": 2597,
      "ĠLe": 2598,
      "ĠSum": 2599,
      "Ġequals": 2600,
      "Ġperfect": 2601,
      "Ġeas": 2602,
      "Ġbuild": 2603,
      "Ġcut": 2604,
      "Re": 2605,
      "ains": 2606,
      "`,": 2607,
      "DE": 2608,
      "ĠÎ³": 2609,
      "stru": 2610,
      "To": 2611,
      "ateg": 2612,
      "Ġroots": 2613,
      "kes": 2614,
      "Ġmess": 2615,
      "Ġenvironment": 2616,
      "work": 2617,
      "Ġprof": 2618,
      "202": 2619,
      "Ġconstruct": 2620,
      "Ġproject": 2621,
      "Ġonto": 2622,
      "Ġorigin": 2623,
      "zero": 2624,
      "Ġprim": 2625,
      "upp": 2626,
      "load": 2627,
      "rm": 2628,
      "Key": 2629,
      "oms": 2630,
      "Ġarbitr": 2631,
      "Ġperson": 2632,
      "ips": 2633,
      "Ġversion": 2634,
      "Ġtheorem": 2635,
      "Ġfil": 2636,
      "ĠUs": 2637,
      "Ġlooking": 2638,
      "Ġformed": 2639,
      "bol": 2640,
      "inter": 2641,
      "ole": 2642,
      "Ġmatrix": 2643,
      "::": 2644,
      "Ġexcept": 2645,
      "Ġlay": 2646,
      "Ġlangu": 2647,
      "Ġguarante": 2648,
      "dle": 2649,
      "Ġmodulo": 2650,
      "'(": 2651,
      "ounds": 2652,
      "Ġide": 2653,
      "/âĪļ": 2654,
      "ium": 2655,
      "Ġsyn": 2656,
      "lood": 2657,
      "orth": 2658,
      "ecause": 2659,
      "partial": 2660,
      "Ġold": 2661,
      "jor": 2662,
      "with": 2663,
      "Ġgreat": 2664,
      "Ġsignific": 2665,
      "ivalent": 2666,
      "Ġparticular": 2667,
      "case": 2668,
      "Ġfinite": 2669,
      "enc": 2670,
      "._": 2671,
      "Ġfree": 2672,
      "jection": 2673,
      "ĊĠĠĠĠĊ": 2674,
      "ograph": 2675,
      "}+": 2676,
      "Ġtemper": 2677,
      "_C": 2678,
      "ale": 2679,
      "imal": 2680,
      "ush": 2681,
      "Ġincrease": 2682,
      "Ġmar": 2683,
      "ĠCol": 2684,
      "Ġsmaller": 2685,
      "$.Ċ": 2686,
      "Ġgen": 2687,
      "Ġhorizontal": 2688,
      "day": 2689,
      "Ġinterpre": 2690,
      "Ġmechan": 2691,
      "Ġclose": 2692,
      "Ġempty": 2693,
      "Ġalgorithm": 2694,
      "Ġresid": 2695,
      "Ġnatural": 2696,
      ");": 2697,
      "Ġbelow": 2698,
      "Ġmaterial": 2699,
      "by": 2700,
      "Ġpercent": 2701,
      "odes": 2702,
      "\\n": 2703,
      "Ġcou": 2704,
      "|Ċ": 2705,
      "tic": 2706,
      "(d": 2707,
      "Ġcertain": 2708,
      "198": 2709,
      "97": 2710,
      "Ġchord": 2711,
      "cont": 2712,
      "Ġremainder": 2713,
      "There": 2714,
      "ging": 2715,
      "Ġbehav": 2716,
      "_\\": 2717,
      "ites": 2718,
      "Ġanalysis": 2719,
      "Ġproperty": 2720,
      "type": 2721,
      "dex": 2722,
      "Ġplus": 2723,
      "81": 2724,
      "),Ċ": 2725,
      "46": 2726,
      "orre": 2727,
      "acy": 2728,
      "Ġinterval": 2729,
      "42": 2730,
      "Ġmap": 2731,
      "sh": 2732,
      "phi": 2733,
      "Ġdep": 2734,
      "Ġvariable": 2735,
      "imin": 2736,
      "Ġinitial": 2737,
      "Ġid": 2738,
      "Ġimage": 2739,
      "ury": 2740,
      "Ġflu": 2741,
      "Ġspecies": 2742,
      "-m": 2743,
      "RE": 2744,
      "47": 2745,
      "Ġmaking": 2746,
      "Ġimpro": 2747,
      "Ġtarget": 2748,
      "onents": 2749,
      "arr": 2750,
      "Ġsuccess": 2751,
      "Ġleg": 2752,
      "Ġonce": 2753,
      "{x": 2754,
      "-p": 2755,
      "Ġenough": 2756,
      "import": 2757,
      "Ġ--": 2758,
      "Ġothers": 2759,
      "Ġrequired": 2760,
      "Ġdivides": 2761,
      "oh": 2762,
      "head": 2763,
      "Ġstatement": 2764,
      "ids": 2765,
      "Ġactually": 2766,
      "^\\": 2767,
      "(N": 2768,
      "Ġdenote": 2769,
      "ained": 2770,
      "most": 2771,
      "Ġview": 2772,
      "Ġaverage": 2773,
      "41": 2774,
      "key": 2775,
      "imate": 2776,
      "Ġturn": 2777,
      "Ġpermut": 2778,
      "resh": 2779,
      "Ġoutside": 2780,
      "Ġfrequ": 2781,
      "Ġvariables": 2782,
      "Ġavailable": 2783,
      "ĠAmerican": 2784,
      "pecific": 2785,
      "illion": 2786,
      "Ġpur": 2787,
      "?<|": 2788,
      "Ġfails": 2789,
      "Ġmark": 2790,
      "ested": 2791,
      "Ġdetail": 2792,
      "Ġprecise": 2793,
      "bs": 2794,
      "comm": 2795,
      "95": 2796,
      "ather": 2797,
      "Ġeng": 2798,
      "Ġdu": 2799,
      "ired": 2800,
      "fig": 2801,
      "Ġagainst": 2802,
      "']": 2803,
      "\"\"Ċ": 2804,
      "Ġapply": 2805,
      "Ġprimes": 2806,
      "oes": 2807,
      "back": 2808,
      "ĠPer": 2809,
      "BC": 2810,
      "Ġeduc": 2811,
      "['": 2812,
      "Ġhapp": 2813,
      "Ġrepresentation": 2814,
      "Ġmaint": 2815,
      "cription": 2816,
      "ored": 2817,
      "ĠLHS": 2818,
      "approx": 2819,
      "Ġheight": 2820,
      "Ġsuggests": 2821,
      "Ġfew": 2822,
      "Ġsearch": 2823,
      "Ġlengths": 2824,
      "ĠYou": 2825,
      "-\\": 2826,
      "Ġconcept": 2827,
      "ĠAll": 2828,
      "Ġspecial": 2829,
      "ĠAc": 2830,
      "='": 2831,
      "uro": 2832,
      "Ġincreasing": 2833,
      "ĠUniversity": 2834,
      "ensity": 2835,
      "Delta": 2836,
      "Ġorient": 2837,
      "Ġalt": 2838,
      ".âĢĿ": 2839,
      "date": 2840,
      "Ġequations": 2841,
      "Ġbest": 2842,
      "Ġimpos": 2843,
      "Ġprom": 2844,
      "Ġpotential": 2845,
      "ream": 2846,
      "Ġuntil": 2847,
      "ĠÎ´": 2848,
      "Ġsignificant": 2849,
      "âĶĢâĶĢâĶĢâĶĢ": 2850,
      "olute": 2851,
      "izing": 2852,
      "Ġbottom": 2853,
      "Ġgroups": 2854,
      "fty": 2855,
      "istance": 2856,
      "Ġusually": 2857,
      ".\"Ċ": 2858,
      "Ġ_": 2859,
      "ĠGood": 2860,
      "ients": 2861,
      "Ġearly": 2862,
      "ĠEng": 2863,
      "sim": 2864,
      "yle": 2865,
      "Ġvectors": 2866,
      "ĠDE": 2867,
      "Ġdel": 2868,
      "Ġconc": 2869,
      "88": 2870,
      "Ġidentity": 2871,
      "man": 2872,
      "Ġconfiguration": 2873,
      "urther": 2874,
      "Ġrele": 2875,
      "ĠâĪĳ": 2876,
      "infty": 2877,
      ".t": 2878,
      "ov": 2879,
      "Ġamount": 2880,
      "uthor": 2881,
      "cribed": 2882,
      "orph": 2883,
      "Ġdx": 2884,
      "sequ": 2885,
      "vert": 2886,
      "Ġsets": 2887,
      "Ġgeometry": 2888,
      "500": 2889,
      "ounter": 2890,
      "Ġfar": 2891,
      "Ġblood": 2892,
      "Ġways": 2893,
      "Ġrandom": 2894,
      "-based": 2895,
      "Ġdat": 2896,
      "ĠĠĠĠĠĠĠĠĠĠĠĠĊ": 2897,
      "yond": 2898,
      "Ġwords": 2899,
      "Ġes": 2900,
      "Ġ\"\"\"": 2901,
      "AS": 2902,
      "Ġupper": 2903,
      "vention": 2904,
      "ĠCan": 2905,
      "kn": 2906,
      "bers": 2907,
      "Ġsubt": 2908,
      "az": 2909,
      "Ġword": 2910,
      "Ġassum": 2911,
      "Ġwhite": 2912,
      "AR": 2913,
      "Ġcause": 2914,
      "aster": 2915,
      "ital": 2916,
      "ustom": 2917,
      "Ġdraw": 2918,
      "Ġorth": 2919,
      "Ġresponse": 2920,
      "Ġseries": 2921,
      "sigma": 2922,
      "ands": 2923,
      "Ġspecifically": 2924,
      "onic": 2925,
      "lope": 2926,
      "ype": 2927,
      "string": 2928,
      "Ġsatisfies": 2929,
      "Ġbeyond": 2930,
      "ming": 2931,
      "Ġwar": 2932,
      "Ġ__": 2933,
      "ession": 2934,
      "icle": 2935,
      "izes": 2936,
      "Ch": 2937,
      "loy": 2938,
      "Ġseveral": 2939,
      "arth": 2940,
      "Ġfactors": 2941,
      "iss": 2942,
      "Ġfoot": 2943,
      "idence": 2944,
      "aches": 2945,
      "Ġparts": 2946,
      "ours": 2947,
      "off": 2948,
      "Ġpie": 2949,
      "Ġ($": 2950,
      "indow": 2951,
      "Since": 2952,
      "Ġdevelopment": 2953,
      "vial": 2954,
      "Ġsuper": 2955,
      "Ġthird": 2956,
      "Ġeffects": 2957,
      "Ġrece": 2958,
      "Ġair": 2959,
      "char": 2960,
      "ison": 2961,
      "xy": 2962,
      "LE": 2963,
      "atically": 2964,
      "AD": 2965,
      "Ġexternal": 2966,
      "Ġreduce": 2967,
      "Ġspeed": 2968,
      "`Ċ": 2969,
      "What": 2970,
      "Ġface": 2971,
      "Ġoperations": 2972,
      "Ġsimpl": 2973,
      "Ġshort": 2974,
      "Ġprobability": 2975,
      "Ġmajor": 2976,
      "Ġprin": 2977,
      "Ġformat": 2978,
      "Ġyes": 2979,
      "Ġiter": 2980,
      "Ġgave": 2981,
      "ending": 2982,
      "wards": 2983,
      "Ġinternal": 2984,
      ",-": 2985,
      "circle": 2986,
      ".p": 2987,
      "Ġrelated": 2988,
      "Ġmethods": 2989,
      "=\\": 2990,
      "Ġtree": 2991,
      "Ġlater": 2992,
      "Ġappear": 2993,
      "mit": 2994,
      "sec": 2995,
      "Ġremaining": 2996,
      "Ġphot": 2997,
      "ĠMe": 2998,
      "Ġbro": 2999,
      "itor": 3000,
      "ocus": 3001,
      "Ġrefer": 3002,
      "Ġlargest": 3003,
      "ID": 3004,
      "Ġhom": 3005,
      "Ġexpressed": 3006,
      "}}{": 3007,
      "efine": 3008,
      "Ġarray": 3009,
      "medi": 3010,
      "Ġdepends": 3011,
      "current": 3012,
      "\"ĊĊ": 3013,
      "Ġareas": 3014,
      "Ġconsistent": 3015,
      "Ġcolumns": 3016,
      "aring": 3017,
      "Ġdisease": 3018,
      "pri": 3019,
      "implify": 3020,
      "101": 3021,
      "Ġpriv": 3022,
      "ĠApp": 3023,
      "ceed": 3024,
      "ĠWith": 3025,
      "Ġapplic": 3026,
      "ĠMod": 3027,
      "Ġparen": 3028,
      "ĠWhat": 3029,
      "Ġprevent": 3030,
      "uments": 3031,
      "Ġwhether": 3032,
      "ĠQu": 3033,
      "add": 3034,
      "Ġcentral": 3035,
      "].": 3036,
      "arc": 3037,
      "cript": 3038,
      "ĠMultiply": 3039,
      "Ġlink": 3040,
      "negative": 3041,
      "Ġpost": 3042,
      "print": 3043,
      "Ġexec": 3044,
      "though": 3045,
      "icro": 3046,
      "Ġobserv": 3047,
      "Ġsums": 3048,
      "Ġsense": 3049,
      "ubl": 3050,
      "Ġscient": 3051,
      "ructure": 3052,
      "uff": 3053,
      "olve": 3054,
      "-g": 3055,
      "Ġ$(": 3056,
      "Ġdom": 3057,
      "rodu": 3058,
      "process": 3059,
      "ww": 3060,
      "Ġbeli": 3061,
      "Ġglobal": 3062,
      "value": 3063,
      "Ġpressure": 3064,
      "Ġhandle": 3065,
      "Ġcharacters": 3066,
      "Ġecon": 3067,
      "ĠCould": 3068,
      "(z": 3069,
      "Ġstrong": 3070,
      "âĤ": 3071,
      "OR": 3072,
      "Ġfore": 3073,
      "Ġargument": 3074,
      "Ġneeds": 3075,
      "beta": 3076,
      ".st": 3077,
      "ĠBecause": 3078,
      "/a": 3079,
      "ged": 3080,
      "ĠSp": 3081,
      "Ġsource": 3082,
      "chit": 3083,
      "Ġhistory": 3084,
      "85": 3085,
      "ĠUnited": 3086,
      "Ġtypical": 3087,
      "Ġmot": 3088,
      "Ġdoc": 3089,
      "Ġaddress": 3090,
      "Id": 3091,
      "Ġrisk": 3092,
      "/d": 3093,
      "ĠTe": 3094,
      "Ġunless": 3095,
      "Ġrather": 3096,
      "')Ċ": 3097,
      "ove": 3098,
      "roup": 3099,
      "Ġaway": 3100,
      "rist": 3101,
      "umber": 3102,
      "Ġassume": 3103,
      "ĠSc": 3104,
      "position": 3105,
      "Ġabsolute": 3106,
      "ĊĠĊ": 3107,
      "Ġage": 3108,
      "cover": 3109,
      "Ġconnecting": 3110,
      "Ġdev": 3111,
      "plies": 3112,
      "43": 3113,
      "bin": 3114,
      "Ġcult": 3115,
      "Ġdays": 3116,
      "Ġclear": 3117,
      "ctual": 3118,
      "))Ċ": 3119,
      "<|/": 3120,
      ",j": 3121,
      "ek": 3122,
      "Ġextre": 3123,
      ")!": 3124,
      "Ġentire": 3125,
      "Ġrecall": 3126,
      "known": 3127,
      "Ġsem": 3128,
      "Ġlearn": 3129,
      "Ġdri": 3130,
      "omega": 3131,
      "eter": 3132,
      "Ġendpoint": 3133,
      "ĠPos": 3134,
      "ones": 3135,
      "Ġmakes": 3136,
      "(r": 3137,
      "bar": 3138,
      "196": 3139,
      "Ġderivative": 3140,
      "umer": 3141,
      "ĠHow": 3142,
      "osp": 3143,
      "Ġelectron": 3144,
      "Ġgovernment": 3145,
      "Ġprevious": 3146,
      "Res": 3147,
      "ĠâĢĶ": 3148,
      "Ġspect": 3149,
      "radi": 3150,
      "ties": 3151,
      "valid": 3152,
      "}\")Ċ": 3153,
      "ĠCo": 3154,
      "Ġhold": 3155,
      "bra": 3156,
      "Ġbehavior": 3157,
      "alu": 3158,
      "Ġquantum": 3159,
      "ogn": 3160,
      "Ġcontaining": 3161,
      "ived": 3162,
      "Ġwomen": 3163,
      "âĢĻt": 3164,
      "125": 3165,
      "Ġmodels": 3166,
      "Ġexplicit": 3167,
      "rangle": 3168,
      "Ġess": 3169,
      "Ġlanguage": 3170,
      "\\text": 3171,
      "âĨĴ": 3172,
      "cluding": 3173,
      "Ġcoefficients": 3174,
      "{(": 3175,
      "aim": 3176,
      "Ġprovided": 3177,
      "Ġindic": 3178,
      "ĠTherefore": 3179,
      "Ġshare": 3180,
      "$$\\": 3181,
      "Ġmom": 3182,
      "Ġoption": 3183,
      "uted": 3184,
      "ised": 3185,
      "Ġce": 3186,
      "Ġincircle": 3187,
      "Ġhard": 3188,
      "Ġequality": 3189,
      ")?": 3190,
      "Ġnever": 3191,
      "Ġbounded": 3192,
      "Ġmonth": 3193,
      "Ġ\\\\": 3194,
      "'re": 3195,
      "Ġimplementation": 3196,
      "Wait": 3197,
      "ĠStates": 3198,
      "ĠBe": 3199,
      "ĠVal": 3200,
      "Ġcalculate": 3201,
      "Ġhome": 3202,
      "Ġlen": 3203,
      "}}$": 3204,
      "Ġdivide": 3205,
      "comp": 3206,
      ".d": 3207,
      "Ġreduces": 3208,
      "Ġreturns": 3209,
      "En": 3210,
      "ister": 3211,
      "/s": 3212,
      "ube": 3213,
      "Ġparity": 3214,
      "400": 3215,
      "Ġdomin": 3216,
      "79": 3217,
      "ĠCA": 3218,
      "Ġcoll": 3219,
      "Ġmoves": 3220,
      "\\pi": 3221,
      "Ġneighbor": 3222,
      "Ġassoci": 3223,
      "orld": 3224,
      "mat": 3225,
      "Ġlevels": 3226,
      "entially": 3227,
      "As": 3228,
      ")*": 3229,
      "anced": 3230,
      "Ġphysical": 3231,
      "Ġmus": 3232,
      "/x": 3233,
      "Ġgoes": 3234,
      "Ġevalu": 3235,
      "agon": 3236,
      "Ġlearning": 3237,
      "Ġintegral": 3238,
      "197": 3239,
      "den": 3240,
      "Ġvir": 3241,
      "Ġhyper": 3242,
      "Ġreach": 3243,
      "ĠUsing": 3244,
      "leq": 3245,
      ".c": 3246,
      "ken": 3247,
      "It": 3248,
      "Ġmaps": 3249,
      "Ġdividing": 3250,
      "urb": 3251,
      "Ġleading": 3252,
      "Ġloss": 3253,
      "alk": 3254,
      "Ġmen": 3255,
      "ĠCont": 3256,
      "Ġcycle": 3257,
      "Ġphr": 3258,
      "|^": 3259,
      "ĠCent": 3260,
      "Ġcoordinate": 3261,
      "{a": 3262,
      "][": 3263,
      "aining": 3264,
      "Ġextra": 3265,
      "Ġblocks": 3266,
      "ĠPr": 3267,
      "ĠEarth": 3268,
      "Ġmissing": 3269,
      "Ġsatisfying": 3270,
      "Ġloop": 3271,
      "iness": 3272,
      "(Ċ": 3273,
      "div": 3274,
      "Ġir": 3275,
      "Ġfocus": 3276,
      "Ġ(âĪļ": 3277,
      "Ġ\\]ĊĊ": 3278,
      "Ġfurther": 3279,
      "Ġtoget": 3280,
      "One": 3281,
      "Ġtogether": 3282,
      "_name": 3283,
      "Ġcr": 3284,
      "^{\\": 3285,
      "Ġdetermine": 3286,
      "utive": 3287,
      "Ġwhy": 3288,
      "qquad": 3289,
      "sp": 3290,
      "ĠĠĠĠĠĊ": 3291,
      "ories": 3292,
      "word": 3293,
      "ĠâĦĵ": 3294,
      "cup": 3295,
      "gen": 3296,
      "Ġpack": 3297,
      "sel": 3298,
      "Ġgl": 3299,
      "agement": 3300,
      "))/": 3301,
      "alls": 3302,
      "()`": 3303,
      "ilt": 3304,
      ";\\": 3305,
      "now": 3306,
      "Ġsocial": 3307,
      "Ġgcd": 3308,
      "Ġrecent": 3309,
      "Ġbal": 3310,
      "maybe": 3311,
      "ians": 3312,
      "Ġchem": 3313,
      "Ġcritical": 3314,
      "Ġaltitude": 3315,
      "ĠOne": 3316,
      "Case": 3317,
      "Ġdynam": 3318,
      "NA": 3319,
      "Ġgame": 3320,
      "Ġequivalent": 3321,
      "Ġemp": 3322,
      "Ġerr": 3323,
      "Ġdr": 3324,
      "Ġwhole": 3325,
      "-a": 3326,
      "Ġsent": 3327,
      "ret": 3328,
      "ox": 3329,
      "Ġquadratic": 3330,
      "sive": 3331,
      "ĠAdd": 3332,
      "ills": 3333,
      "Ġpolic": 3334,
      "Ġ\\]Ċ": 3335,
      "lected": 3336,
      "-de": 3337,
      "(i": 3338,
      "âī¥": 3339,
      "Ġconsidered": 3340,
      "rehen": 3341,
      "Ġobt": 3342,
      "Ġdefin": 3343,
      "Ġwants": 3344,
      "Ġpreserv": 3345,
      "ĠReturn": 3346,
      "Ġtypically": 3347,
      "-check": 3348,
      ",âĢĿ": 3349,
      "Ġever": 3350,
      "Ġactiv": 3351,
      "Ġtemperature": 3352,
      "reen": 3353,
      "300": 3354,
      "Ġimpossible": 3355,
      "ĠNational": 3356,
      "ina": 3357,
      "ĠOption": 3358,
      "currence": 3359,
      "Ġshift": 3360,
      "}$,": 3361,
      "Ġaccount": 3362,
      "Ġfri": 3363,
      "igen": 3364,
      "atter": 3365,
      "Ġcontrib": 3366,
      "Ġaction": 3367,
      "version": 3368,
      "att": 3369,
      "Ġcontent": 3370,
      "Or": 3371,
      "Un": 3372,
      "Ġwave": 3373,
      "Ġclean": 3374,
      "etter": 3375,
      "Ġcomprehen": 3376,
      "clic": 3377,
      "ĠBy": 3378,
      "Ġbar": 3379,
      "05": 3380,
      "uture": 3381,
      "ameter": 3382,
      "vec": 3383,
      "Ġben": 3384,
      "Ġdiscus": 3385,
      "Ġbook": 3386,
      "Ġprovides": 3387,
      "Ġaccording": 3388,
      "index": 3389,
      "Ġfraction": 3390,
      "Ġput": 3391,
      "rand": 3392,
      "Ġslope": 3393,
      "ohn": 3394,
      "Ġwin": 3395,
      "Ġrepe": 3396,
      "gamma": 3397,
      "une": 3398,
      "Ġwait": 3399,
      "Ġ!": 3400,
      "aking": 3401,
      ")+": 3402,
      "OT": 3403,
      "ĠTrue": 3404,
      "Ġdone": 3405,
      "Ġinterpret": 3406,
      "delta": 3407,
      "ering": 3408,
      "Ġappropri": 3409,
      "Ġbus": 3410,
      "ĠEach": 3411,
      "),(": 3412,
      "ls": 3413,
      "Ġthus": 3414,
      "ĠCre": 3415,
      "circ": 3416,
      "Ġcub": 3417,
      "Ġtrack": 3418,
      "\\sqrt": 3419,
      "unction": 3420,
      "esting": 3421,
      "Ġoccurs": 3422,
      "Ġdetermined": 3423,
      "rho": 3424,
      "|\\": 3425,
      "Ġtriple": 3426,
      "chitect": 3427,
      "gence": 3428,
      "icult": 3429,
      "pped": 3430,
      "Ġtreatment": 3431,
      "Ġnecessary": 3432,
      "Ġfig": 3433,
      "wo": 3434,
      "ctures": 3435,
      "Ġautom": 3436,
      "light": 3437,
      "CD": 3438,
      "-S": 3439,
      "$-": 3440,
      "ik": 3441,
      "Â°.": 3442,
      "Ġoccur": 3443,
      "Ġgreater": 3444,
      "Ã©": 3445,
      "|><|": 3446,
      "Îµ": 3447,
      "Ġthread": 3448,
      "Ġtakes": 3449,
      "(B": 3450,
      "69": 3451,
      "ĠPre": 3452,
      "Ġhaving": 3453,
      ",...,": 3454,
      "Ġobjects": 3455,
      "lex": 3456,
      "Ġcircumcircle": 3457,
      "Ġ.Ċ": 3458,
      "Ġimpact": 3459,
      "ms": 3460,
      "ĠAfter": 3461,
      "Ġaxis": 3462,
      "Ġpay": 3463,
      "acity": 3464,
      "ledge": 3465,
      "Ġscaling": 3466,
      "orrect": 3467,
      "Ġmoment": 3468,
      "Ġfields": 3469,
      "Ġrelationship": 3470,
      "Ġhandling": 3471,
      "ync": 3472,
      "Ġpartition": 3473,
      "Ġnode": 3474,
      "Ġadapt": 3475,
      "Ġslow": 3476,
      "Ġrad": 3477,
      ".f": 3478,
      "Ġmeet": 3479,
      ".com": 3480,
      ")`": 3481,
      "pling": 3482,
      "hern": 3483,
      "(v": 3484,
      "Ġrelation": 3485,
      "ibility": 3486,
      "ĠState": 3487,
      "ĠFe": 3488,
      "rong": 3489,
      "Ġplayer": 3490,
      "oy": 3491,
      "Ġbox": 3492,
      "Ġable": 3493,
      "Ġconstruction": 3494,
      "Ġestabl": 3495,
      "Ġcolors": 3496,
      "://": 3497,
      "Ġplaced": 3498,
      "epsilon": 3499,
      "Ġstra": 3500,
      "Ġlogic": 3501,
      "Ġinvari": 3502,
      "Ġmeaning": 3503,
      "gebra": 3504,
      "axis": 3505,
      "Ġvolume": 3506,
      "-w": 3507,
      "-zero": 3508,
      "ĠMed": 3509,
      "ext": 3510,
      "ously": 3511,
      "ee": 3512,
      "',Ċ": 3513,
      "ĠDis": 3514,
      "ĠPar": 3515,
      "Ġtable": 3516,
      "ently": 3517,
      "Ġteam": 3518,
      "From": 3519,
      "II": 3520,
      "/p": 3521,
      "ĠGod": 3522,
      "cursive": 3523,
      "Ġsymmetry": 3524,
      "Ġphase": 3525,
      "Ġcomponents": 3526,
      "ĠSupp": 3527,
      ",d": 3528,
      "iver": 3529,
      "Ġeffective": 3530,
      "ĠSome": 3531,
      "\\[": 3532,
      "Ġproduction": 3533,
      "Ġ+=": 3534,
      "ront": 3535,
      "Ġcountry": 3536,
      "istics": 3537,
      "Ġthings": 3538,
      "oper": 3539,
      "Ġasking": 3540,
      "-l": 3541,
      "Ġmapping": 3542,
      "Ġsens": 3543,
      "Ġproducts": 3544,
      "How": 3545,
      "ĠAf": 3546,
      "Ġpopulation": 3547,
      "iff": 3548,
      "Ġregard": 3549,
      "Ġdem": 3550,
      "Ġheart": 3551,
      "Simplify": 3552,
      "Ġfalse": 3553,
      "eros": 3554,
      "isms": 3555,
      "inf": 3556,
      "Ġbc": 3557,
      "ached": 3558,
      "gon": 3559,
      "Equ": 3560,
      "ĠSub": 3561,
      "Ġprecisely": 3562,
      "67": 3563,
      "Ġincreases": 3564,
      "âĢľ": 3565,
      "Ġguarantee": 3566,
      "astic": 3567,
      "och": 3568,
      "+\\": 3569,
      "encies": 3570,
      "Ġviol": 3571,
      "IC": 3572,
      "Ġsubject": 3573,
      "ply": 3574,
      "Ġstrict": 3575,
      "ĠâĦĿ": 3576,
      "Ġauthor": 3577,
      "Ġinstance": 3578,
      "ttp": 3579,
      "When": 3580,
      "144": 3581,
      "rightarrow": 3582,
      "Ġlabel": 3583,
      "Ġactual": 3584,
      "Ġlie": 3585,
      "ij": 3586,
      "Ġshows": 3587,
      "Ġill": 3588,
      "-y": 3589,
      "IT": 3590,
      "ners": 3591,
      "(Î¸": 3592,
      "Ġcontribution": 3593,
      "Ġground": 3594,
      "Ġprop": 3595,
      "tau": 3596,
      "Î³": 3597,
      "Ġcome": 3598,
      "Ġrole": 3599,
      "ĠChrist": 3600,
      "\",Ċ": 3601,
      "ucle": 3602,
      "Ġindividual": 3603,
      "/b": 3604,
      "Ġprinci": 3605,
      "/t": 3606,
      "ĠRep": 3607,
      "Ġmer": 3608,
      "Check": 3609,
      "ES": 3610,
      "Ġcomponent": 3611,
      "Ġdensity": 3612,
      "Ġcorresponds": 3613,
      "lying": 3614,
      "Here": 3615,
      "59": 3616,
      "ĠAM": 3617,
      "ÏĨ": 3618,
      "\\frac": 3619,
      "urope": 3620,
      "Ġvarious": 3621,
      "Ġport": 3622,
      "ections": 3623,
      "Ġasks": 3624,
      "Ġimplies": 3625,
      "clusion": 3626,
      "Ġexpected": 3627,
      "})$": 3628,
      "Î»": 3629,
      "iform": 3630,
      "bed": 3631,
      "Ġmillion": 3632,
      "Ġseen": 3633,
      "Ġachieve": 3634,
      "oll": 3635,
      "ĠÎ¼": 3636,
      "-h": 3637,
      "Ġpatterns": 3638,
      "enari": 3639,
      "Ġreasoning": 3640,
      "Ġwidth": 3641,
      "earch": 3642,
      "ĠGener": 3643,
      "ĠâĪ«_": 3644,
      "ĠFalse": 3645,
      "ched": 3646,
      "Ġfunctional": 3647,
      "Ġbit": 3648,
      "ĠDi": 3649,
      "Ġsafe": 3650,
      "utput": 3651,
      "ĠLo": 3652,
      "Ġaccept": 3653,
      "Ġpi": 3654,
      "Ġbir": 3655,
      "Ġparameter": 3656,
      "Ġyoun": 3657,
      "Ġâľ": 3658,
      "Similarly": 3659,
      "clude": 3660,
      ")-": 3661,
      "Ġprivate": 3662,
      "Ġderive": 3663,
      "crete": 3664,
      "ump": 3665,
      "\\).": 3666,
      "ules": 3667,
      "Ġfine": 3668,
      "potency": 3669,
      "ĠHand": 3670,
      "Ġreverse": 3671,
      "Ġ@": 3672,
      "Ġdemon": 3673,
      "hest": 3674,
      "oin": 3675,
      "Ġadditional": 3676,
      "(ÏĢ": 3677,
      "atory": 3678,
      "Ġparameters": 3679,
      "Ġproperties": 3680,
      "256": 3681,
      "Ġouter": 3682,
      "Ġarbitrarily": 3683,
      "At": 3684,
      "Ġpow": 3685,
      "/c": 3686,
      "Ġtask": 3687,
      "01": 3688,
      "Â°)": 3689,
      "Big": 3690,
      "ransform": 3691,
      "Ġmoving": 3692,
      "Ġwhose": 3693,
      "89": 3694,
      "Ġcomplexity": 3695,
      "ication": 3696,
      "selves": 3697,
      "ervice": 3698,
      "Ġimprove": 3699,
      "Ġcancer": 3700,
      "Ġraise": 3701,
      "Ġdest": 3702,
      "rip": 3703,
      "Ġcapt": 3704,
      "Ġdifficult": 3705,
      "eral": 3706,
      "Ġfive": 3707,
      "Ġload": 3708,
      "Ġcollinear": 3709,
      "Ġbenef": 3710,
      "including": 3711,
      "Ġones": 3712,
      "AP": 3713,
      "True": 3714,
      "Ġpick": 3715,
      "ued": 3716,
      "{n": 3717,
      "ourse": 3718,
      "Ġcompos": 3719,
      "ropy": 3720,
      "Ġstrings": 3721,
      "Ġtool": 3722,
      "ometimes": 3723,
      "ED": 3724,
      "Ġbinary": 3725,
      "Ġimm": 3726,
      "reed": 3727,
      "igned": 3728,
      "Ġinflu": 3729,
      "Ġgrowth": 3730,
      "_path": 3731,
      "102": 3732,
      "result": 3733,
      "Ġmultiplic": 3734,
      "tical": 3735,
      "Ġtrivial": 3736,
      "Ġgas": 3737,
      "anged": 3738,
      "ditional": 3739,
      "Ġcarefully": 3740,
      "Cl": 3741,
      "Ġresources": 3742,
      "Ġdepth": 3743,
      "ont": 3744,
      "ops": 3745,
      "Ġveloc": 3746,
      "Ġcreated": 3747,
      "oles": 3748,
      "Ġscale": 3749,
      "Ġlittle": 3750,
      "Ġproof": 3751,
      "Ġdp": 3752,
      "$$ĊĊ": 3753,
      "Ġanalyz": 3754,
      "Ġmatter": 3755,
      "Ġparticip": 3756,
      "actions": 3757,
      "Ġexplo": 3758,
      "curity": 3759,
      "ĠNow": 3760,
      "EN": 3761,
      "Ġheat": 3762,
      "Ġsit": 3763,
      "Ġround": 3764,
      "Ġgrid": 3765,
      "ĠList": 3766,
      "Ġplant": 3767,
      "ogonal": 3768,
      "ĠEurope": 3769,
      "ifies": 3770,
      "Ġsplit": 3771,
      ".app": 3772,
      "ĠGe": 3773,
      "63": 3774,
      "olic": 3775,
      "ilit": 3776,
      "ĠDep": 3777,
      "irect": 3778,
      "Ġexpects": 3779,
      "uous": 3780,
      "$$Ċ": 3781,
      "Ġforces": 3782,
      "Ġoperation": 3783,
      "Ġcombination": 3784,
      "alculate": 3785,
      "\\),": 3786,
      "Ġfamil": 3787,
      "flo": 3788,
      "ĠUsually": 3789,
      "Ġsix": 3790,
      "Ġmessage": 3791,
      "Ġclos": 3792,
      "Im": 3793,
      "Ġpolit": 3794,
      "rome": 3795,
      "Ġfra": 3796,
      "Ġdifferences": 3797,
      "Ġsubsets": 3798,
      ".m": 3799,
      "57": 3800,
      "First": 3801,
      "Ġrecon": 3802,
      "abase": 3803,
      "Ġremains": 3804,
      "stitute": 3805,
      "--------------------------------": 3806,
      "Ġanim": 3807,
      "Ġclaim": 3808,
      "Ġbelie": 3809,
      "'.": 3810,
      "Ġextreme": 3811,
      "+z": 3812,
      "enn": 3813,
      "Ġcomputed": 3814,
      "ework": 3815,
      "init": 3816,
      "Ġnoise": 3817,
      "360": 3818,
      "ĠMan": 3819,
      "vant": 3820,
      "sider": 3821,
      "}(\\": 3822,
      "AM": 3823,
      "Ġscri": 3824,
      "{p": 3825,
      "Ġforms": 3826,
      "ĊĠĠĠĠĠĠĠĠĊ": 3827,
      "atives": 3828,
      "Ġxy": 3829,
      "sibly": 3830,
      "acter": 3831,
      "Ġcomprehensive": 3832,
      "Ġcovering": 3833,
      "ĠIndi": 3834,
      "IM": 3835,
      "Ġey": 3836,
      "Ġfund": 3837,
      "ĠUS": 3838,
      "ugh": 3839,
      "ĠComm": 3840,
      "ales": 3841,
      "lease": 3842,
      "Ġscript": 3843,
      "ises": 3844,
      "ĠFind": 3845,
      "Ġmiddle": 3846,
      "Ġsphere": 3847,
      "Pl": 3848,
      "cret": 3849,
      "inst": 3850,
      "Ġestim": 3851,
      "Ġrotation": 3852,
      "(C": 3853,
      "ĠCar": 3854,
      "Ġdomain": 3855,
      "hemat": 3856,
      "Ġintrodu": 3857,
      "level": 3858,
      "Ġpast": 3859,
      "Ġgenerally": 3860,
      "tri": 3861,
      "Ġhours": 3862,
      "Ġsite": 3863,
      "mary": 3864,
      "ores": 3865,
      "-by": 3866,
      "bon": 3867,
      "rad": 3868,
      "ĠEqu": 3869,
      "ĠThus": 3870,
      "write": 3871,
      "go": 3872,
      "Ph": 3873,
      "150": 3874,
      "ĠĠĠĠĠĠĠĠĠĠĠĠĠĠĠĠĠĠĠĠĠĠĠ": 3875,
      "Ġtransformation": 3876,
      "time": 3877,
      "secutive": 3878,
      "ategory": 3879,
      "();Ċ": 3880,
      "Ġchall": 3881,
      "tes": 3882,
      "333": 3883,
      "Ġthought": 3884,
      "Ġoptimal": 3885,
      "Ġphrase": 3886,
      "Ġnorm": 3887,
      "Ġtriples": 3888,
      "Ġbasis": 3889,
      "ĠWar": 3890,
      "ĠJohn": 3891,
      "Ġcard": 3892,
      "Ġbegin": 3893,
      "Ġfill": 3894,
      "que": 3895,
      "Ġfeel": 3896,
      "?ĊĊ": 3897,
      "acc": 3898,
      "Ġmicro": 3899,
      "_re": 3900,
      "ava": 3901,
      "Ġlon": 3902,
      "Ġfuture": 3903,
      "Ġunknown": 3904,
      "Ġextension": 3905,
      "Ġmut": 3906,
      "Ġmodule": 3907,
      "rie": 3908,
      "ĠAm": 3909,
      "agn": 3910,
      "Ġrecord": 3911,
      "ĠEm": 3912,
      "Ġaccur": 3913,
      "Ġcand": 3914,
      "lish": 3915,
      "Ġcustom": 3916,
      "Ġevents": 3917,
      "-axis": 3918,
      "Ġstatus": 3919,
      "Ġmatching": 3920,
      "Ġunits": 3921,
      "begin": 3922,
      "Ġclosed": 3923,
      "Ġorientation": 3924,
      "Ġren": 3925,
      "ĠAfric": 3926,
      "Ġord": 3927,
      "aging": 3928,
      "long": 3929,
      "Ġwritten": 3930,
      "Ġsimply": 3931,
      "ĠĊĊ": 3932,
      "edge": 3933,
      "Ġappropriate": 3934,
      "Ġrecurrence": 3935,
      "lict": 3936,
      "Ġallows": 3937,
      "oly": 3938,
      "Ġpubl": 3939,
      "_D": 3940,
      "Cons": 3941,
      "orks": 3942,
      "Ġrequirements": 3943,
      "Ġnature": 3944,
      "Ġnames": 3945,
      "input": 3946,
      "Ġprojection": 3947,
      "odd": 3948,
      "=-": 3949,
      "{d": 3950,
      "ĠĠĠĠĠĠ": 3951,
      "You": 3952,
      "-re": 3953,
      "Ġblue": 3954,
      "By": 3955,
      "vals": 3956,
      "Ġfaces": 3957,
      "Ġstack": 3958,
      "binom": 3959,
      "Ġmonot": 3960,
      "Ġsaw": 3961,
      "anation": 3962,
      "orts": 3963,
      "itle": 3964,
      "Ġrequest": 3965,
      "Ġmodern": 3966,
      "PS": 3967,
      "Ġcontinuous": 3968,
      "Ġexpans": 3969,
      "Ġfac": 3970,
      "AN": 3971,
      "sy": 3972,
      "Ġprobably": 3973,
      "Ġissues": 3974,
      "Ġboard": 3975,
      "Ġsuff": 3976,
      "ĠSet": 3977,
      "Ġdeath": 3978,
      "Ġcache": 3979,
      "001": 3980,
      "}.Ċ": 3981,
      "Ġengine": 3982,
      "igit": 3983,
      "ĠRed": 3984,
      "rier": 3985,
      "reshold": 3986,
      "Wh": 3987,
      "ĠWorld": 3988,
      "OM": 3989,
      "sub": 3990,
      "sian": 3991,
      "Ġarrange": 3992,
      "length": 3993,
      "Ġstat": 3994,
      "{c": 3995,
      "Ġcentury": 3996,
      "_e": 3997,
      "celer": 3998,
      "{}.": 3999,
      "Ġgrad": 4000,
      "ses": 4001,
      "Ġcompar": 4002,
      "Ġremove": 4003,
      "Ġeducation": 4004,
      "Ġworking": 4005,
      "}$.ĊĊ": 4006,
      "Ġ{\\": 4007,
      "Ġtaken": 4008,
      "my": 4009,
      "aut": 4010,
      "oring": 4011,
      "Ġscenari": 4012,
      "pecially": 4013,
      "Ġattack": 4014,
      "itch": 4015,
      "Ġinstead": 4016,
      "ivil": 4017,
      "Ġ}ĊĊ": 4018,
      "Ġunion": 4019,
      "Ġcharge": 4020,
      "ground": 4021,
      "Ġwindow": 4022,
      "Ġwrong": 4023,
      "Ġcontinue": 4024,
      "oding": 4025,
      "Ġbig": 4026,
      "oney": 4027,
      "Ġvelocity": 4028,
      "_r": 4029,
      "war": 4030,
      "Ġdivisor": 4031,
      "Ġdidn": 4032,
      "Ġ!=": 4033,
      "Ġpaper": 4034,
      "Ġdecreasing": 4035,
      "ĠBo": 4036,
      "().": 4037,
      "Ġgreen": 4038,
      "ĠInter": 4039,
      "const": 4040,
      "Ġbul": 4041,
      "omy": 4042,
      "roll": 4043,
      "omb": 4044,
      "erve": 4045,
      "ĠVer": 4046,
      "QL": 4047,
      "Ġexamples": 4048,
      "Ġcommunity": 4049,
      "uge": 4050,
      "ĠComp": 4051,
      "Ġpage": 4052,
      "Ġexperim": 4053,
      "/\\": 4054,
      ".append": 4055,
      "-x": 4056,
      "Ġmagnitude": 4057,
      "Ġthemselves": 4058,
      "Ġyet": 4059,
      "ĠHealth": 4060,
      "Ġ(\\": 4061,
      "oman": 4062,
      "lement": 4063,
      "ae": 4064,
      "Ġdegrees": 4065,
      "\"?": 4066,
      "Ġep": 4067,
      "volution": 4068,
      "ĠPart": 4069,
      "ciety": 4070,
      "128": 4071,
      "Ġlonger": 4072,
      "AL": 4073,
      "urch": 4074,
      "Ġhowever": 4075,
      "oph": 4076,
      "Ġneighbors": 4077,
      "Ġconsecutive": 4078,
      "ulate": 4079,
      "Ġhouse": 4080,
      "Ġfall": 4081,
      "Ġâľĵ": 4082,
      "Ġindust": 4083,
      "uck": 4084,
      "ĠFirst": 4085,
      "Ġfeed": 4086,
      "-e": 4087,
      "Ġseparate": 4088,
      "Ġtim": 4089,
      "_max": 4090,
      "ils": 4091,
      "inc": 4092,
      "ising": 4093,
      "Ġpowers": 4094,
      "Ġcat": 4095,
      "Ġmultiply": 4096,
      "Ġresearc": 4097,
      "Ġcorrespond": 4098,
      "hib": 4099,
      "111": 4100,
      "race": 4101,
      "ÎĶ": 4102,
      "192": 4103,
      "Ġforward": 4104,
      "Ġtravel": 4105,
      "uit": 4106,
      "top": 4107,
      "Ġbran": 4108,
      "Ġheav": 4109,
      "/k": 4110,
      "Ġdocument": 4111,
      "ĠAE": 4112,
      "Ġphysics": 4113,
      "Ġstraight": 4114,
      "ional": 4115,
      "ortun": 4116,
      "Also": 4117,
      "etime": 4118,
      "Ġteac": 4119,
      "ĠReg": 4120,
      "Ġintern": 4121,
      "fix": 4122,
      "idate": 4123,
      "Ġcyclic": 4124,
      "}-": 4125,
      "62": 4126,
      "Ġsubtract": 4127,
      "yp": 4128,
      "Ġpossibilities": 4129,
      "Ġsec": 4130,
      "lower": 4131,
      "Ġeigen": 4132,
      "-B": 4133,
      "{R": 4134,
      "Ġsam": 4135,
      "lied": 4136,
      "ĠKey": 4137,
      "Ġstudent": 4138,
      "Ġalgebra": 4139,
      "(Î±": 4140,
      "Ġmembers": 4141,
      "Better": 4142,
      "Ġann": 4143,
      "ĠPossibly": 4144,
      "ĠDet": 4145,
      "Ġgoing": 4146,
      "Ġcovered": 4147,
      "On": 4148,
      "Ġdepending": 4149,
      "Ġinvolves": 4150,
      "ĠHere": 4151,
      "Ġtoday": 4152,
      "Ġnetwork": 4153,
      ":**ĊĊ": 4154,
      "Ġoccup": 4155,
      "Ġservice": 4156,
      "Ġregions": 4157,
      "54": 4158,
      "ĠCount": 4159,
      "iency": 4160,
      "Ġequilateral": 4161,
      "_h": 4162,
      "Ġcreates": 4163,
      "akes": 4164,
      "psilon": 4165,
      "iling": 4166,
      "Ġgot": 4167,
      "Ġassociated": 4168,
      "Ġcomplement": 4169,
      "ET": 4170,
      "rap": 4171,
      "ĠRem": 4172,
      "Ġunderstanding": 4173,
      "Ġcontact": 4174,
      "Ġcity": 4175,
      "error": 4176,
      "Ġcountries": 4177,
      "Ġindices": 4178,
      "ĠGerm": 4179,
      "hood": 4180,
      "Se": 4181,
      "No": 4182,
      "Ġhelpful": 4183,
      "mid": 4184,
      "\\boxed": 4185,
      "Ġbring": 4186,
      "Ġdiameter": 4187,
      "Ġsoft": 4188,
      "ishing": 4189,
      "Ġquick": 4190,
      ".âĢĿĊ": 4191,
      "Ġsun": 4192,
      "Ġgenerate": 4193,
      "Ġevidence": 4194,
      "Ġstudies": 4195,
      "cell": 4196,
      "Ġcourse": 4197,
      "Ġapproximate": 4198,
      "ams": 4199,
      "}ĊĊ": 4200,
      "73": 4201,
      "Ġfeatures": 4202,
      "Ġhappen": 4203,
      "-C": 4204,
      "Ġstarting": 4205,
      "Ġeff": 4206,
      "mber": 4207,
      "Ġbrain": 4208,
      "Ġrank": 4209,
      "raw": 4210,
      "Ġlock": 4211,
      "Ġerrors": 4212,
      "_P": 4213,
      "Ġliter": 4214,
      "Ġ)Ċ": 4215,
      "Ġpossibly": 4216,
      "Ġminutes": 4217,
      "Ġcal": 4218,
      "ĠEnglish": 4219,
      "Ġzeros": 4220,
      "Ġoverl": 4221,
      "Ġbounds": 4222,
      "Ġitems": 4223,
      "Ġnucle": 4224,
      "Ġexistence": 4225,
      "_data": 4226,
      "Ġbecame": 4227,
      "Ġpolygon": 4228,
      "Ġbuilt": 4229,
      "61": 4230,
      "ĠGu": 4231,
      "195": 4232,
      "Ġdefault": 4233,
      "ategor": 4234,
      "Ġsorted": 4235,
      "ĠMin": 4236,
      "ĠÏĥ": 4237,
      "Ġrule": 4238,
      "ley": 4239,
      "Ġmetric": 4240,
      "{r": 4241,
      "ĠExp": 4242,
      "Ġrevers": 4243,
      "ĠSystem": 4244,
      "Ġdecision": 4245,
      "org": 4246,
      "-step": 4247,
      "Ġisol": 4248,
      "ager": 4249,
      "Ġrecogn": 4250,
      "ĠShow": 4251,
      "Ġdefinition": 4252,
      "uting": 4253,
      "lim": 4254,
      "count": 4255,
      "Ġnumeric": 4256,
      "idden": 4257,
      "Ġclasses": 4258,
      "-A": 4259,
      "84": 4260,
      "Ġtre": 4261,
      "Ġgrav": 4262,
      "Ġ-\\": 4263,
      "194": 4264,
      "ĠEd": 4265,
      "ĠCal": 4266,
      "Ġ[-": 4267,
      "len": 4268,
      "ĠStart": 4269,
      "psi": 4270,
      "Ġletters": 4271,
      "Ġyoung": 4272,
      "ĠDes": 4273,
      "Ġreflect": 4274,
      "Ġscience": 4275,
      "ĠHam": 4276,
      "Ġcycles": 4277,
      "Ġdescription": 4278,
      "Ġfrequency": 4279,
      "Ġrestrict": 4280,
      "langle": 4281,
      "Ġpolar": 4282,
      "âīĪ": 4283,
      "Ġemploy": 4284,
      "Ġcolle": 4285,
      "conn": 4286,
      ",n": 4287,
      "ĠcosÎ¸": 4288,
      "**ĊĊ": 4289,
      "Ġdeep": 4290,
      "Ġsurv": 4291,
      "ingu": 4292,
      "Ġefficient": 4293,
      "Ġtwice": 4294,
      "Ġarcs": 4295,
      ".\"\"\"Ċ": 4296,
      "ensor": 4297,
      "Ġfiles": 4298,
      "stitution": 4299,
      "Ġpiece": 4300,
      "ĠTra": 4301,
      "####": 4302,
      "Ġgiving": 4303,
      "Ġpermutations": 4304,
      "uals": 4305,
      "Ġdt": 4306,
      "Ġsymbol": 4307,
      "emory": 4308,
      "999": 4309,
      ".h": 4310,
      "-n": 4311,
      "Ġjob": 4312,
      "ensive": 4313,
      "Ġemer": 4314,
      "Ġensures": 4315,
      "Ġchain": 4316,
      "url": 4317,
      "ope": 4318,
      "**,": 4319,
      "Ġslight": 4320,
      "Ġreflection": 4321,
      ",z": 4322,
      "ptoms": 4323,
      "zz": 4324,
      "Ġknowledge": 4325,
      "ogene": 4326,
      "Ġoffic": 4327,
      "Ġweek": 4328,
      "\\\\": 4329,
      "Ġsus": 4330,
      "Ġast": 4331,
      "amed": 4332,
      ";ĊĊ": 4333,
      "================================": 4334,
      "Ġupd": 4335,
      "Ġtraining": 4336,
      "Ġinvest": 4337,
      "Then": 4338,
      "Ġinit": 4339,
      "TT": 4340,
      "Ġmanagement": 4341,
      "Ġchemical": 4342,
      "ategy": 4343,
      "Ġissue": 4344,
      "Ġcounter": 4345,
      "Ġexperience": 4346,
      "mb": 4347,
      "193": 4348,
      "LL": 4349,
      "Ġaff": 4350,
      "ĠBl": 4351,
      "iques": 4352,
      "Ġsequences": 4353,
      "Ġoperator": 4354,
      "-M": 4355,
      "Ġdam": 4356,
      "aching": 4357,
      "Ġnational": 4358,
      "600": 4359,
      "hedron": 4360,
      "Set": 4361,
      "ĠExpl": 4362,
      "active": 4363,
      "Ġespecially": 4364,
      "Ġarguments": 4365,
      "Ġfront": 4366,
      "plex": 4367,
      "roid": 4368,
      "Ġcube": 4369,
      "Ġintersects": 4370,
      "Ġdiscr": 4371,
      "othe": 4372,
      "ured": 4373,
      "ervation": 4374,
      "OC": 4375,
      "geq": 4376,
      "equiv": 4377,
      "_v": 4378,
      "opy": 4379,
      "Ġut": 4380,
      "Ġstrateg": 4381,
      "Ġduplic": 4382,
      "Ġdiagon": 4383,
      "Ġbuilding": 4384,
      "Ġlive": 4385,
      "otic": 4386,
      "Ġasked": 4387,
      "Ġgap": 4388,
      "():Ċ": 4389,
      "Ġste": 4390,
      "actor": 4391,
      "Ġrelig": 4392,
      "Ġprior": 4393,
      "config": 4394,
      "ĠMa": 4395,
      "Ġtell": 4396,
      "PU": 4397,
      "Ġtaking": 4398,
      "ered": 4399,
      "apping": 4400,
      "Ġadded": 4401,
      "191": 4402,
      "nu": 4403,
      "Ġbin": 4404,
      "Ġordering": 4405,
      "Ġmeasured": 4406,
      "lated": 4407,
      "Ġhypot": 4408,
      ".ex": 4409,
      "ĠâĪĳ_{": 4410,
      "Ġquestions": 4411,
      "eline": 4412,
      "Ġidentify": 4413,
      "Ġcommand": 4414,
      "Ġinstru": 4415,
      "_count": 4416,
      "ĠFl": 4417,
      "iting": 4418,
      "Ġadding": 4419,
      "=True": 4420,
      "Sh": 4421,
      "ĠDiv": 4422,
      "augh": 4423,
      "Ġsometimes": 4424,
      "{A": 4425,
      "ĠIndex": 4426,
      "leep": 4427,
      "Ġupon": 4428,
      "Ġlibr": 4429,
      "ĠBrit": 4430,
      "ĠMay": 4431,
      "Ġsufficient": 4432,
      "ĠShe": 4433,
      "Ġtechnology": 4434,
      "ĠIntern": 4435,
      "Ġlimited": 4436,
      "cience": 4437,
      "ĠYork": 4438,
      "ĠReturns": 4439,
      "ze": 4440,
      "Ġgr": 4441,
      "Ġpatients": 4442,
      "ober": 4443,
      "__(": 4444,
      "âĪĤ": 4445,
      "but": 4446,
      "uation": 4447,
      "ĠAN": 4448,
      "Ġreference": 4449,
      "...Ċ": 4450,
      "Ġspin": 4451,
      "width": 4452,
      "''": 4453,
      "Ġplants": 4454,
      "Ġpredict": 4455,
      "ects": 4456,
      "Ġdescribed": 4457,
      "Ġintervals": 4458,
      "-r": 4459,
      "values": 4460,
      "iter": 4461,
      "Ġrecomm": 4462,
      "tan": 4463,
      "Ġdeveloped": 4464,
      "prime": 4465,
      "Ġcombin": 4466,
      "dis": 4467,
      "$\\": 4468,
      "rown": 4469,
      "Ġinner": 4470,
      "IS": 4471,
      "Ġanimals": 4472,
      "Ġincreased": 4473,
      "ĠFrom": 4474,
      "Ġrights": 4475,
      "Ġrates": 4476,
      "ĠAmerica": 4477,
      "-free": 4478,
      "Ġfundam": 4479,
      "Ġindu": 4480,
      "_F": 4481,
      "mediate": 4482,
      "aker": 4483,
      "uel": 4484,
      "ĠSuppose": 4485,
      "ĠCreate": 4486,
      "Time": 4487,
      "Ġreplace": 4488,
      "Ġshif": 4489,
      "Ġpal": 4490,
      ")$,": 4491,
      "Ġletter": 4492,
      ")}{": 4493,
      "erc": 4494,
      "Ġarchitect": 4495,
      "Ġreading": 4496,
      "ĠOb": 4497,
      "-to": 4498,
      "_E": 4499,
      "Maybe": 4500,
      "Ġarticle": 4501,
      "ml": 4502,
      "Ġball": 4503,
      "Ġcomes": 4504,
      "oking": 4505,
      "Ġconcern": 4506,
      "Ġsubg": 4507,
      "}_{": 4508,
      "cording": 4509,
      "}\\)": 4510,
      "Ġtests": 4511,
      "Ġpermutation": 4512,
      "Ġtransition": 4513,
      "Ġclearly": 4514,
      "\\,": 4515,
      "Ġdiagonals": 4516,
      "Ġmole": 4517,
      "Ġconnected": 4518,
      "ulations": 4519,
      "Ġapproaches": 4520,
      "Ġcubic": 4521,
      "{b": 4522,
      "108": 4523,
      "Ġcorner": 4524,
      "Ġstore": 4525,
      "abor": 4526,
      "Ġends": 4527,
      "Ġ}\\": 4528,
      "abet": 4529,
      "abla": 4530,
      "Ġhex": 4531,
      "Ġcapacity": 4532,
      "Ġattention": 4533,
      "Ġapplication": 4534,
      "Ġpractice": 4535,
      "Ġpolicy": 4536,
      "tocol": 4537,
      "Ġadjust": 4538,
      "800": 4539,
      "ĠJew": 4540,
      "Ġprocesses": 4541,
      "Ġskin": 4542,
      "Ġconcent": 4543,
      "Ġexpansion": 4544,
      "Sum": 4545,
      "Ġintegr": 4546,
      "Ġaw": 4547,
      "And": 4548,
      "Ġcomposition": 4549,
      "acing": 4550,
      "ĠAPI": 4551,
      "Ġcong": 4552,
      "Ġtechnical": 4553,
      "oura": 4554,
      "Ġendpoints": 4555,
      "Ġcurve": 4556,
      "Ġful": 4557,
      "ĠNorth": 4558,
      "Process": 4559,
      "Ġentries": 4560,
      "irm": 4561,
      "ags": 4562,
      "Ġbasic": 4563,
      "Ġrespectively": 4564,
      "Ġexplain": 4565,
      "down": 4566,
      "RL": 4567,
      "Ġcame": 4568,
      "ĠID": 4569,
      "625": 4570,
      "ights": 4571,
      "Ġconduct": 4572,
      "Ġstrategy": 4573,
      "gram": 4574,
      "ĠBE": 4575,
      "arent": 4576,
      "Ġalmost": 4577,
      "ordered": 4578,
      "ĠCalculate": 4579,
      "Consider": 4580,
      "Ġcommit": 4581,
      "Ġdetails": 4582,
      "Ġoffer": 4583,
      "Define": 4584,
      "ounded": 4585,
      "Ġhistor": 4586,
      "52": 4587,
      "Ġok": 4588,
      "ĠPres": 4589,
      "Ġstd": 4590,
      "$)": 4591,
      "Ġrock": 4592,
      "/m": 4593,
      "Ġcompet": 4594,
      "Ġrough": 4595,
      "ancy": 4596,
      "Ġmedical": 4597,
      "Ġintersecting": 4598,
      "Ġsample": 4599,
      "Ġincluded": 4600,
      "Ġresearchers": 4601,
      "ĠTrans": 4602,
      "icles": 4603,
      "Ġshown": 4604,
      "-P": 4605,
      "Ġevolution": 4606,
      "Ġfamilies": 4607,
      "Ġconsum": 4608,
      "Ġpassing": 4609,
      "Ġfeet": 4610,
      "Ġacceler": 4611,
      "Ġtrade": 4612,
      "Ġdiver": 4613,
      "Ġnut": 4614,
      "rote": 4615,
      "Ġfast": 4616,
      "floor": 4617,
      ")|": 4618,
      "190": 4619,
      "rypt": 4620,
      "Ġlayer": 4621,
      "Ġbusiness": 4622,
      "ĠSouth": 4623,
      "dro": 4624,
      "uild": 4625,
      "izer": 4626,
      "^{(": 4627,
      "Ġsolving": 4628,
      "ĠMon": 4629,
      "ctan": 4630,
      "Ġdecl": 4631,
      "enerate": 4632,
      "Ġinterpretation": 4633,
      "Ġreally": 4634,
      "Ġsafety": 4635,
      "Ġactivity": 4636,
      "exp": 4637,
      "ĠAct": 4638,
      "Ġchoice": 4639,
      "Ġpaths": 4640,
      "Ġrob": 4641,
      "Ġquality": 4642,
      "Ġaspect": 4643,
      "essage": 4644,
      "Ġwide": 4645,
      "ctionary": 4646,
      "Ġsal": 4647,
      "Ġfloat": 4648,
      "))^": 4649,
      "ĠĠĠĊ": 4650,
      "lete": 4651,
      "\"\"\"Ċ": 4652,
      "cale": 4653,
      ".r": 4654,
      "Ġcenters": 4655,
      "(T": 4656,
      "Ġarbitrary": 4657,
      "rast": 4658,
      "Ġdemonstr": 4659,
      "Ġuniform": 4660,
      "Ġresidues": 4661,
      "oose": 4662,
      "ĠOptional": 4663,
      "Ġdru": 4664,
      "Ġband": 4665,
      "otes": 4666,
      "Cont": 4667,
      "Ġ,": 4668,
      "aling": 4669,
      "bc": 4670,
      "Ġmach": 4671,
      ".n": 4672,
      "ĠAre": 4673,
      "71": 4674,
      "ooth": 4675,
      "can": 4676,
      "ĠMore": 4677,
      "Ġnodes": 4678,
      "Ġstructures": 4679,
      "Ġnull": 4680,
      "Ġcarry": 4681,
      "lands": 4682,
      "Ġexceed": 4683,
      "orage": 4684,
      "struct": 4685,
      "Ġstory": 4686,
      "Ġprice": 4687,
      "{C": 4688,
      "metic": 4689,
      "Ġmode": 4690,
      "Ġmaterials": 4691,
      "Ġthing": 4692,
      "Ġelectric": 4693,
      "Ġactive": 4694,
      "rack": 4695,
      "aged": 4696,
      "ĠWrite": 4697,
      "Ġspaces": 4698,
      "rategy": 4699,
      "ĠStud": 4700,
      "inity": 4701,
      "Ġfarm": 4702,
      "Ġsymptoms": 4703,
      "Ġperiodic": 4704,
      "ĠLi": 4705,
      "ĠAnal": 4706,
      "Ġcreating": 4707,
      "123": 4708,
      "aff": 4709,
      "Ġclimate": 4710,
      "Ġprograms": 4711,
      "^*": 4712,
      "Ġabc": 4713,
      "_T": 4714,
      "Ġquery": 4715,
      "hematical": 4716,
      "Ġfollows": 4717,
      "(e": 4718,
      "Ġpain": 4719,
      "_N": 4720,
      "Ġcovers": 4721,
      "Ġdisplay": 4722,
      "non": 4723,
      "Ġtail": 4724,
      ".add": 4725,
      "Ġminimize": 4726,
      "Ġcalculation": 4727,
      "Ġcombine": 4728,
      "Ġaltern": 4729,
      "ĠTime": 4730,
      "ĠâĶ": 4731,
      "ried": 4732,
      "Ġprote": 4733,
      "Ġoptimization": 4734,
      "andard": 4735,
      "Ġlooks": 4736,
      "Ġactivities": 4737,
      "Ġkm": 4738,
      "Ġpolitical": 4739,
      "oses": 4740,
      "orpor": 4741,
      "Ġcopy": 4742,
      "Ġservices": 4743,
      "ĠHist": 4744,
      "Ġmonths": 4745,
      "Ġcomputer": 4746,
      "imensional": 4747,
      "eries": 4748,
      "Ġconnection": 4749,
      "Ġcounts": 4750,
      "conds": 4751,
      "covered": 4752,
      "gree": 4753,
      "Ġprocessing": 4754,
      "Ġwon": 4755,
      "ana": 4756,
      "ening": 4757,
      "Ġla": 4758,
      "^x": 4759,
      "Ġfilter": 4760,
      "uly": 4761,
      "Ġlatt": 4762,
      "866": 4763,
      "Ġsection": 4764,
      "Ġeconomic": 4765,
      "ĠWhile": 4766,
      "ĠPerhaps": 4767,
      "rum": 4768,
      "size": 4769,
      "ĠDoes": 4770,
      "Ġcm": 4771,
      "abel": 4772,
      "Ġtransport": 4773,
      "Ġframework": 4774,
      "PA": 4775,
      "teg": 4776,
      "Find": 4777,
      "Ġtrace": 4778,
      "nabla": 4779,
      "Ġcontributions": 4780,
      "âģ": 4781,
      "arg": 4782,
      "Ġslightly": 4783,
      "vari": 4784,
      "Ġoil": 4785,
      "Ġelimin": 4786,
      "struction": 4787,
      "hel": 4788,
      "Ġleads": 4789,
      "ĠChar": 4790,
      "Ġdimensions": 4791,
      "Ġleaves": 4792,
      "Ġpartial": 4793,
      "Ġsn": 4794,
      "pm": 4795,
      "ributed": 4796,
      "Therefore": 4797,
      "hips": 4798,
      "ithmetic": 4799,
      "covery": 4800,
      "_g": 4801,
      "ournal": 4802,
      "ĠIts": 4803,
      "Ġacute": 4804,
      "08": 4805,
      "Mod": 4806,
      "Ġunivers": 4807,
      "Ġcore": 4808,
      "List": 4809,
      "Ġthreshold": 4810,
      "Ġmotion": 4811,
      "121": 4812,
      "Ġhost": 4813,
      "osis": 4814,
      "Ġreduced": 4815,
      "Ġpublished": 4816,
      ")^{-": 4817,
      "Ġpure": 4818,
      "iffer": 4819,
      "ĠEF": 4820,
      "ĠsinÎ¸": 4821,
      "Ġorbit": 4822,
      "izations": 4823,
      "Ġselect": 4824,
      "Ġexpand": 4825,
      "{E": 4826,
      "Ġstar": 4827,
      "used": 4828,
      "ibr": 4829,
      "reng": 4830,
      "Ġupdate": 4831,
      "Ġperformance": 4832,
      "yl": 4833,
      "^T": 4834,
      "Ġmedic": 4835,
      "Ġprotect": 4836,
      "change": 4837,
      "ĠDC": 4838,
      "ĠSim": 4839,
      "abc": 4840,
      "Ġcru": 4841,
      "Ġstrategies": 4842,
      "Ġstatic": 4843,
      "-G": 4844,
      "ung": 4845,
      "}$$ĊĊ": 4846,
      "'d": 4847,
      "Ġwrote": 4848,
      "usive": 4849,
      "-th": 4850,
      "ĠDr": 4851,
      "ierarch": 4852,
      "Ġconj": 4853,
      "String": 4854,
      "Ġanc": 4855,
      "Ġsigns": 4856,
      "Ġspread": 4857,
      "unc": 4858,
      "Ġresulting": 4859,
      "\")": 4860,
      "Ġimag": 4861,
      "He": 4862,
      "Qu": 4863,
      "Ġproport": 4864,
      "++": 4865,
      "Ġsuccessful": 4866,
      "Ġtrees": 4867,
      "Ġvary": 4868,
      "ĠYour": 4869,
      "ĠTest": 4870,
      "Ġtor": 4871,
      "omorph": 4872,
      "ĠĠĠĠĠĠĠĠĠĊ": 4873,
      "Write": 4874,
      "mar": 4875,
      "istry": 4876,
      "abit": 4877,
      "Ġdirected": 4878,
      "09": 4879,
      "ney": 4880,
      "Ġcompared": 4881,
      "Ġharm": 4882,
      "Ġexc": 4883,
      "Ġ?": 4884,
      "Ġhuge": 4885,
      "ĠOA": 4886,
      "Ġconflict": 4887,
      "SC": 4888,
      "Ġscenario": 4889,
      "lin": 4890,
      "oice": 4891,
      "overline": 4892,
      "Ġri": 4893,
      "ultane": 4894,
      "ius": 4895,
      "fficiency": 4896,
      "Ġliving": 4897,
      "=b": 4898,
      "Ġexisting": 4899,
      "110": 4900,
      "Ġque": 4901,
      "ĠSolve": 4902,
      "ilton": 4903,
      "test": 4904,
      "Ġoverall": 4905,
      "list": 4906,
      "Ġframe": 4907,
      "Ġcauses": 4908,
      "Ġmaintain": 4909,
      "]]": 4910,
      "Ġability": 4911,
      "array": 4912,
      "Ġcentered": 4913,
      "CT": 4914,
      "IV": 4915,
      "-D": 4916,
      "come": 4917,
      "Ġreduction": 4918,
      "ĠâĢĺ": 4919,
      "Ġmovement": 4920,
      "Ġorthogonal": 4921,
      "Ġprimary": 4922,
      "ayer": 4923,
      "ĠRead": 4924,
      "Ġspir": 4925,
      "Ġdy": 4926,
      "sych": 4927,
      "Val": 4928,
      "Ġsources": 4929,
      "|--------": 4930,
      "Ġusage": 4931,
      "Ġdetermin": 4932,
      "empotency": 4933,
      "Ġpropag": 4934,
      ".D": 4935,
      "Ġeventually": 4936,
      ".C": 4937,
      "celes": 4938,
      "51": 4939,
      "PC": 4940,
      "ĠExample": 4941,
      "ĠVi": 4942,
      "osceles": 4943,
      ".)Ċ": 4944,
      "Ġtook": 4945,
      "ything": 4946,
      "Ġdivision": 4947,
      "uf": 4948,
      "Ġreview": 4949,
      "Ġkind": 4950,
      "ender": 4951,
      "(D": 4952,
      "Ġdoctor": 4953,
      "Ġcalls": 4954,
      "pose": 4955,
      "'m": 4956,
      "Ġshared": 4957,
      "Ġfire": 4958,
      "240": 4959,
      "(X": 4960,
      "Ġimages": 4961,
      "Ġgets": 4962,
      "Le": 4963,
      "ĠString": 4964,
      "Ġprinciple": 4965,
      "Ġsegments": 4966,
      "Ġstop": 4967,
      "Ġinstall": 4968,
      "Ġweak": 4969,
      "raft": 4970,
      "ĠAss": 4971,
      "Ġded": 4972,
      "Î´": 4973,
      "Ġentropy": 4974,
      "Ġdeb": 4975,
      "term": 4976,
      "Ġ['": 4977,
      "angular": 4978,
      "joint": 4979,
      "sed": 4980,
      "ĠOver": 4981,
      "53": 4982,
      "Ar": 4983,
      "ango": 4984,
      "Ġlattice": 4985,
      "hol": 4986,
      "ĠPC": 4987,
      "-H": 4988,
      "ĠType": 4989,
      "Ġtax": 4990,
      "Ġsound": 4991,
      "Ġgrows": 4992,
      "}$.Ċ": 4993,
      "ĠIN": 4994,
      "Ġparticles": 4995,
      "ĠDP": 4996,
      "lies": 4997,
      "Ġinsert": 4998,
      "Ġkin": 4999,
      "estern": 5000,
      "ai": 5001,
      "Ġidea": 5002,
      "+v": 5003,
      "Ad": 5004,
      "Ġsys": 5005,
      "Ġbegan": 5006,
      "Ġinvariant": 5007,
      "Mult": 5008,
      "Ġscientists": 5009,
      "sk": 5010,
      "ĠSch": 5011,
      "Ġdiscrimin": 5012,
      "ogeneous": 5013,
      "(S": 5014,
      "Ġplaus": 5015,
      "Ġos": 5016,
      "-like": 5017,
      "ĠPQ": 5018,
      "iring": 5019,
      "Ġmonotonic": 5020,
      "ĠFr": 5021,
      "ashing": 5022,
      "74": 5023,
      "xi": 5024,
      ".)": 5025,
      "HE": 5026,
      "asc": 5027,
      "Ġcorrectly": 5028,
      "Ġkeys": 5029,
      "ĠHis": 5030,
      "Ġadult": 5031,
      "SS": 5032,
      "Ġlocation": 5033,
      "Ġcarbon": 5034,
      ",a": 5035,
      "Equation": 5036,
      "Ġmoney": 5037,
      "Ġmor": 5038,
      "Ġgeometric": 5039,
      "Ġanalyze": 5040,
      "Ġbelong": 5041,
      "abilities": 5042,
      "ectors": 5043,
      "ĠDefine": 5044,
      "board": 5045,
      "Ġ[]Ċ": 5046,
      "pid": 5047,
      "anges": 5048,
      "Ġlif": 5049,
      "ĠMany": 5050,
      ",k": 5051,
      "pers": 5052,
      "666": 5053,
      "ML": 5054,
      "even": 5055,
      "ĠPe": 5056,
      "ailed": 5057,
      "Ġenvironmental": 5058,
      "ino": 5059,
      "force": 5060,
      "Ġplausible": 5061,
      "uzz": 5062,
      "ĠCur": 5063,
      "Ġneg": 5064,
      "ĠAg": 5065,
      "Ġcombined": 5066,
      "Ġmomentum": 5067,
      "}$.": 5068,
      "Ġrepl": 5069,
      "Ġautomatically": 5070,
      "ĠImplement": 5071,
      "{k": 5072,
      "(log": 5073,
      "Ġhttp": 5074,
      "Ġkill": 5075,
      ".py": 5076,
      "uple": 5077,
      "Ġ```ĊĊ": 5078,
      "apan": 5079,
      "iation": 5080,
      "âĶĢâĶĢâĶĢâĶĢâĶĢâĶĢâĶĢâĶĢ": 5081,
      "rem": 5082,
      "Ġalloc": 5083,
      "}$Ċ": 5084,
      "ĠCenter": 5085,
      "Ġsatisfied": 5086,
      "itivity": 5087,
      "_min": 5088,
      "eds": 5089,
      "With": 5090,
      "product": 5091,
      "_M": 5092,
      "nother": 5093,
      "Ġtechniques": 5094,
      "ynamic": 5095,
      "Ġcompare": 5096,
      "Ġonline": 5097,
      "Ġadmin": 5098,
      "Ġarithmetic": 5099,
      "ĠAust": 5100,
      "{al": 5101,
      "Ġapproximately": 5102,
      "Ġrepeated": 5103,
      "169": 5104,
      "ĠâĪı": 5105,
      "ĠProcess": 5106,
      "Ġfundamental": 5107,
      "Ġstrictly": 5108,
      "jective": 5109,
      "Ġexception": 5110,
      ",i": 5111,
      "Ġstream": 5112,
      "Ġremoved": 5113,
      "-level": 5114,
      "*(-": 5115,
      "^i": 5116,
      "225": 5117,
      "artment": 5118,
      "Ġalternative": 5119,
      "matrix": 5120,
      "pex": 5121,
      "plete": 5122,
      "Ġarrangement": 5123,
      "\\cdot": 5124,
      "ĠXY": 5125,
      "Ġselection": 5126,
      "ricult": 5127,
      "Ġpy": 5128,
      "itution": 5129,
      "160": 5130,
      "mission": 5131,
      "Ġ).": 5132,
      "lam": 5133,
      "ĠDo": 5134,
      "ĠâĪŀ": 5135,
      "tersection": 5136,
      "Ġceil": 5137,
      "OU": 5138,
      "ĠMat": 5139,
      "())": 5140,
      "\\rangle": 5141,
      "sw": 5142,
      "ION": 5143,
      "Ġchalleng": 5144,
      "(q": 5145,
      "ĠUp": 5146,
      "ĠBoth": 5147,
      "Ġdecimal": 5148,
      "Ġthroughout": 5149,
      "vey": 5150,
      "Ġstreng": 5151,
      "105": 5152,
      "resents": 5153,
      "asks": 5154,
      "Ġworst": 5155,
      "Ġled": 5156,
      "Ġbits": 5157,
      "Ġfat": 5158,
      "Ġchoices": 5159,
      "Ġnp": 5160,
      "ĠOther": 5161,
      "ember": 5162,
      "typ": 5163,
      "vature": 5164,
      "Ġcaused": 5165,
      "\\theta": 5166,
      "ĠExt": 5167,
      "amin": 5168,
      "Ġmig": 5169,
      "Ġfactorization": 5170,
      "Ġstyle": 5171,
      "Ġmaximize": 5172,
      "-time": 5173,
      "ĠInitial": 5174,
      "ĠSm": 5175,
      "Ġhot": 5176,
      "Ġitem": 5177,
      "rence": 5178,
      "ĠGiven": 5179,
      "ernel": 5180,
      "ĠUnder": 5181,
      "Ġdesigned": 5182,
      "+d": 5183,
      "```Ċ": 5184,
      "Ġprogress": 5185,
      "Ġnone": 5186,
      "ederal": 5187,
      "Ġparticularly": 5188,
      "positive": 5189,
      "Ġmarket": 5190,
      "Ġtoward": 5191,
      "ĠPB": 5192,
      "Is": 5193,
      "Ġdivisors": 5194,
      "Ġpieces": 5195,
      "stract": 5196,
      "while": 5197,
      "Ġruns": 5198,
      "Ġapplied": 5199,
      "ĠInt": 5200,
      "Ġindividuals": 5201,
      "Ġdate": 5202,
      "Ġsimultane": 5203,
      "Ġfit": 5204,
      "Ġisosceles": 5205,
      "Ġrules": 5206,
      "-digit": 5207,
      "Ġseem": 5208,
      "ĠAny": 5209,
      "Ġroughly": 5210,
      "Ġplaces": 5211,
      "IG": 5212,
      "pecifically": 5213,
      "Ġsubst": 5214,
      "_type": 5215,
      "Ġche": 5216,
      "Ġpaint": 5217,
      "Ġradiation": 5218,
      "Ġfully": 5219,
      "rought": 5220,
      "ography": 5221,
      "Ġcategory": 5222,
      "-order": 5223,
      "De": 5224,
      "Ġrecur": 5225,
      "Ġclock": 5226,
      "-i": 5227,
      "Ġsubs": 5228,
      "Ġparents": 5229,
      "jango": 5230,
      "Ġarctan": 5231,
      "])Ċ": 5232,
      "Ġapex": 5233,
      "Ġexplanation": 5234,
      "ellow": 5235,
      "umb": 5236,
      "ĊĊĊ": 5237,
      "ened": 5238,
      "rench": 5239,
      "Ġoptions": 5240,
      "hing": 5241,
      "!Ċ": 5242,
      "-con": 5243,
      "chron": 5244,
      "Ġbroad": 5245,
      "Ġsingular": 5246,
      "Ġmusic": 5247,
      "Ġlack": 5248,
      "ĠData": 5249,
      "Ġpred": 5250,
      ".j": 5251,
      "Ġminor": 5252,
      "ĠStructure": 5253,
      "Ġsex": 5254,
      "ĠHamilton": 5255,
      "illi": 5256,
      "local": 5257,
      "Ġformal": 5258,
      "[str": 5259,
      "ĠHigh": 5260,
      "Ġprefix": 5261,
      "ĠProv": 5262,
      "uster": 5263,
      "Ġstruct": 5264,
      "Input": 5265,
      ":\\": 5266,
      "imeter": 5267,
      "dom": 5268,
      "ĠÏĪ": 5269,
      "Ġexplore": 5270,
      "SE": 5271,
      "ĠSw": 5272,
      ".b": 5273,
      "Ġoffset": 5274,
      "+x": 5275,
      "Ġinvolve": 5276,
      "Ġvisit": 5277,
      "Ġrelevant": 5278,
      "gment": 5279,
      "cribe": 5280,
      "Ġtet": 5281,
      "Ġexerc": 5282,
      "Ġalone": 5283,
      "Ġasym": 5284,
      "Ġbuff": 5285,
      "732": 5286,
      "ĠĠĠĠĠĠĠĠĠ": 5287,
      "Ġassumption": 5288,
      "SON": 5289,
      "pmod": 5290,
      "Ġbr": 5291,
      "ilter": 5292,
      "Ġcot": 5293,
      "mathrm": 5294,
      "However": 5295,
      "Ġhit": 5296,
      "250": 5297,
      "Ġentry": 5298,
      "Ġpropos": 5299,
      "opt": 5300,
      "Ġ(âĪ": 5301,
      "brid": 5302,
      "Ġordered": 5303,
      "ĠâĪ©": 5304,
      "Ġtouc": 5305,
      "Ġcorresponding": 5306,
      "Ġcategor": 5307,
      ",q": 5308,
      "Ġign": 5309,
      "leg": 5310,
      "Ġcohe": 5311,
      "Ġdiagn": 5312,
      "ĠConsider": 5313,
      "Ġlatency": 5314,
      "vis": 5315,
      "Ġinversion": 5316,
      "].ĊĊ": 5317,
      "Ġfav": 5318,
      "ĠDen": 5319,
      "Ġquickly": 5320,
      "ustain": 5321,
      "Ġinvolved": 5322,
      "_size": 5323,
      "Ġscientific": 5324,
      "Ġspectral": 5325,
      ")**": 5326,
      "Ġlegs": 5327,
      "Ġbranch": 5328,
      "/r": 5329,
      "Ġconcepts": 5330,
      "quare": 5331,
      "Ġearth": 5332,
      "using": 5333,
      "start": 5334,
      "uler": 5335,
      "Ġsimplify": 5336,
      "Ġsecurity": 5337,
      "Ġchann": 5338,
      "Ġpossibility": 5339,
      "Ġbirth": 5340,
      "Ġstress": 5341,
      "Ġparent": 5342,
      "Ġmiles": 5343,
      "Ġwarm": 5344,
      "aint": 5345,
      "Lo": 5346,
      "Ġcounting": 5347,
      ".\"ĊĊ": 5348,
      "ĠMar": 5349,
      "âĢ¯": 5350,
      "=c": 5351,
      "Ġlate": 5352,
      "-k": 5353,
      "Ġforest": 5354,
      "Ġ\\),": 5355,
      "ada": 5356,
      "ĠValue": 5357,
      "reedom": 5358,
      "ades": 5359,
      "ĠCF": 5360,
      "itation": 5361,
      "Ġgenerated": 5362,
      "Ġessentially": 5363,
      "oud": 5364,
      "iginal": 5365,
      "file": 5366,
      "Â°).": 5367,
      "empty": 5368,
      "âĦ": 5369,
      "Ġfish": 5370,
      "olar": 5371,
      "Ġsolid": 5372,
      "Ġrig": 5373,
      "Ġdot": 5374,
      "{L": 5375,
      "Ġdivided": 5376,
      "?\"": 5377,
      "Ġproperly": 5378,
      "Gamma": 5379,
      "Ġlot": 5380,
      "Ġexplicitly": 5381,
      "ĠModel": 5382,
      "-R": 5383,
      "ux": 5384,
      "Ġtrig": 5385,
      "Ġopportun": 5386,
      "osing": 5387,
      "Ġhandles": 5388,
      "Yes": 5389,
      "cap": 5390,
      "Ġhar": 5391,
      "igation": 5392,
      "Type": 5393,
      "ĠBA": 5394,
      "\\(": 5395,
      "Ġproduced": 5396,
      "Ġexperi": 5397,
      "Ġawait": 5398,
      "neq": 5399,
      "Ġpersonal": 5400,
      "+q": 5401,
      "-co": 5402,
      "Ac": 5403,
      "^a": 5404,
      "ĠJapan": 5405,
      "(g": 5406,
      "ipart": 5407,
      "{F": 5408,
      "ament": 5409,
      "Ġhomothe": 5410,
      "elling": 5411,
      "Ġambig": 5412,
      "Ġrh": 5413,
      "this": 5414,
      "186": 5415,
      "Ġinterest": 5416,
      "output": 5417,
      "ĠCE": 5418,
      "Sub": 5419,
      "Ġcance": 5420,
      "Ġdirections": 5421,
      "Ġrepresents": 5422,
      "Ġcollection": 5423,
      "inding": 5424,
      "Ġstay": 5425,
      "ĠResearch": 5426,
      "ilos": 5427,
      "Ġexecution": 5428,
      "sis": 5429,
      "ĠLat": 5430,
      "Ġprev": 5431,
      "(R": 5432,
      "Ġnamed": 5433,
      "Ġda": 5434,
      "\\).ĊĊ": 5435,
      "_to": 5436,
      "radius": 5437,
      "Ġenumer": 5438,
      "ĠSte": 5439,
      "ĠPA": 5440,
      "Ġrefers": 5441,
      "ideo": 5442,
      "Ġstation": 5443,
      "ĠAb": 5444,
      "Ġcamp": 5445,
      ".is": 5446,
      "Ġthous": 5447,
      "Ġextract": 5448,
      "Ġtransfer": 5449,
      "rol": 5450,
      "Ġintegration": 5451,
      "Ġago": 5452,
      "Ġice": 5453,
      "Ġnorth": 5454,
      "Ġcosts": 5455,
      "_z": 5456,
      "Ġsett": 5457,
      "^m": 5458,
      "Ġstri": 5459,
      "Ġboundaries": 5460,
      "Ġcool": 5461,
      "ilitary": 5462,
      "Ġsea": 5463,
      "Ġvariety": 5464,
      "rapy": 5465,
      "rial": 5466,
      "Ġpopular": 5467,
      "cean": 5468,
      "ĠSchool": 5469,
      "Ġdatabase": 5470,
      "mosp": 5471,
      "osen": 5472,
      "flow": 5473,
      "Ġinteraction": 5474,
      "Ġminus": 5475,
      "Ġmagnetic": 5476,
      "112": 5477,
      "Ġwriting": 5478,
      "adata": 5479,
      "rices": 5480,
      "MA": 5481,
      "aul": 5482,
      "Ġweb": 5483,
      "Ġmeasures": 5484,
      "dem": 5485,
      "Ġsoil": 5486,
      "iverse": 5487,
      "ĠSep": 5488,
      "}}.ĊĊ": 5489,
      "ĠAI": 5490,
      "ĠInd": 5491,
      "anger": 5492,
      "ĠScience": 5493,
      "Ġdiscriminant": 5494,
      "Ġreported": 5495,
      "Ġestablished": 5496,
      "Ġmechanism": 5497,
      "rays": 5498,
      ".org": 5499,
      "Ġarri": 5500,
      "ĠJan": 5501,
      "$:Ċ": 5502,
      "istration": 5503,
      "Ġsil": 5504,
      "ĠLog": 5505,
      "Ġrewrite": 5506,
      "Ġcommunication": 5507,
      "Ġborder": 5508,
      "Ġskills": 5509,
      "ĠDepartment": 5510,
      "Ġsomeone": 5511,
      "Ġpoor": 5512,
      "Ġquite": 5513,
      "attern": 5514,
      "plate": 5515,
      "sia": 5516,
      "Ġgeneration": 5517,
      "Term": 5518,
      "\\;": 5519,
      "\".ĊĊ": 5520,
      "vare": 5521,
      "ĠNeed": 5522,
      "Ġleaving": 5523,
      "Ġcontra": 5524,
      "Ġeverything": 5525,
      ".set": 5526,
      "-negative": 5527,
      "{T": 5528,
      "Ġprecision": 5529,
      "Ġmultiples": 5530,
      "-off": 5531,
      "enced": 5532,
      "Ġremin": 5533,
      "Ġprompt": 5534,
      "adem": 5535,
      "ĠMo": 5536,
      "[\\": 5537,
      "Ġfaster": 5538,
      "ĠMaybe": 5539,
      "Ġshowing": 5540,
      "Ġsynthe": 5541,
      "Ġcivil": 5542,
      "Ġur": 5543,
      "etch": 5544,
      "ned": 5545,
      "straint": 5546,
      "Ġbooks": 5547,
      "Ġbur": 5548,
      "Ġtesting": 5549,
      "Ġlayers": 5550,
      "ĠHar": 5551,
      "Ġshap": 5552,
      "Ġvalidation": 5553,
      "mega": 5554,
      "Ġsignal": 5555,
      "\\]Ċ": 5556,
      "ĠRel": 5557,
      "cycle": 5558,
      "varepsilon": 5559,
      "ĠSpace": 5560,
      "(P": 5561,
      "All": 5562,
      "Ġdro": 5563,
      "Ġclar": 5564,
      "Â°.ĊĊ": 5565,
      "ayment": 5566,
      "ese": 5567,
      "\":Ċ": 5568,
      "alities": 5569,
      "140": 5570,
      "Ġagg": 5571,
      "indrome": 5572,
      "sl": 5573,
      "Ġrecursive": 5574,
      "ĠInput": 5575,
      "Ġprogramming": 5576,
      "uk": 5577,
      "Ġschools": 5578,
      "Ġfem": 5579,
      ")\\)": 5580,
      "Ob": 5581,
      "Ġneut": 5582,
      "Ġtrain": 5583,
      "Ġassess": 5584,
      "duc": 5585,
      "\\in": 5586,
      "Ġparticle": 5587,
      "www": 5588,
      "\\left": 5589,
      "Ġinscribed": 5590,
      "nel": 5591,
      "ĠTotal": 5592,
      "Ġeasier": 5593,
      "Ġconvention": 5594,
      "_key": 5595,
      "ĠDB": 5596,
      "instance": 5597,
      "Ġsizes": 5598,
      "Ġchecking": 5599,
      "Ġter": 5600,
      "only": 5601,
      "Ġpush": 5602,
      "Ġchords": 5603,
      "Ġvisited": 5604,
      "ios": 5605,
      "Ġbackground": 5606,
      "Ġcircumcenter": 5607,
      "Ġtraditional": 5608,
      "Ġtowards": 5609,
      "Ġthreat": 5610,
      "Ġmind": 5611,
      "Ġadjacency": 5612,
      "Ġmother": 5613,
      "ĠUnion": 5614,
      "}}\\": 5615,
      "Test": 5616,
      "App": 5617,
      "ĠAug": 5618,
      "Ġbad": 5619,
      "Ġtherefore": 5620,
      "erson": 5621,
      "ĠOutput": 5622,
      "info": 5623,
      "]:Ċ": 5624,
      "Ġhund": 5625,
      "under": 5626,
      "ulated": 5627,
      "}:": 5628,
      "ĠBar": 5629,
      "Ġcollect": 5630,
      "Ġemail": 5631,
      "ĠIS": 5632,
      "anish": 5633,
      "/h": 5634,
      "Ġfollowed": 5635,
      "Ġvirus": 5636,
      "inear": 5637,
      "ĠCalif": 5638,
      "Ġsomewhere": 5639,
      "phas": 5640,
      "except": 5641,
      "Ġhighly": 5642,
      "414": 5643,
      "Ġpen": 5644,
      "Ġclassical": 5645,
      "Ġlibrary": 5646,
      "ĠII": 5647,
      "ĠDF": 5648,
      "Ġmath": 5649,
      "roy": 5650,
      "Ġliqu": 5651,
      "Ġtangents": 5652,
      "_at": 5653,
      "ĠRus": 5654,
      "Ġdynamic": 5655,
      ",m": 5656,
      "Ġasync": 5657,
      "ĠCou": 5658,
      "Ġexpon": 5659,
      "Ġcandidate": 5660,
      "Ġexponential": 5661,
      "hentic": 5662,
      "olved": 5663,
      "api": 5664,
      "ĠBritish": 5665,
      "Ġcontradi": 5666,
      "Ġreversed": 5667,
      "Ġmount": 5668,
      "Ġresource": 5669,
      "Ġtangency": 5670,
      "Ġlowercase": 5671,
      "Ġsimpler": 5672,
      "mediately": 5673,
      "ĠEl": 5674,
      "Ġcop": 5675,
      "Ġencoura": 5676,
      "Ġaud": 5677,
      "Ġvar": 5678,
      "Ġeye": 5679,
      "Ġprofession": 5680,
      "Ġproced": 5681,
      "ĠMN": 5682,
      "Ġembed": 5683,
      "range": 5684,
      "Ġyield": 5685,
      "Ġprotocol": 5686,
      "room": 5687,
      "format": 5688,
      "Ġsmooth": 5689,
      "Ġattrib": 5690,
      "Ġcontroll": 5691,
      "Ġtranslation": 5692,
      "num": 5693,
      "Ġortho": 5694,
      "Ġsites": 5695,
      "Per": 5696,
      "_S": 5697,
      "Ġobserved": 5698,
      "OP": 5699,
      "-col": 5700,
      "ridge": 5701,
      "ĠInst": 5702,
      "Ġtouches": 5703,
      "main": 5704,
      "ĠMean": 5705,
      "unk": 5706,
      "unch": 5707,
      "Ġanimal": 5708,
      "Add": 5709,
      "{B": 5710,
      "pected": 5711,
      "ĠArt": 5712,
      "rium": 5713,
      "Ġdistingu": 5714,
      "option": 5715,
      "255": 5716,
      "'ve": 5717,
      "Ġdetailed": 5718,
      "Ġdevice": 5719,
      "px": 5720,
      "upper": 5721,
      "Ġemission": 5722,
      "ilib": 5723,
      "path": 5724,
      "Ġvow": 5725,
      "Ġsleep": 5726,
      "ql": 5727,
      "Ġdead": 5728,
      "mm": 5729,
      "Ġsubsequ": 5730,
      "])": 5731,
      "ATE": 5732,
      "Ġbalance": 5733,
      "ename": 5734,
      "Ġtools": 5735,
      "Ġcongru": 5736,
      "che": 5737,
      "Ġdrawn": 5738,
      "189": 5739,
      "Ġbelieve": 5740,
      "Ġlives": 5741,
      "Ġabsor": 5742,
      "Ġvacc": 5743,
      "Ġokay": 5744,
      "_L": 5745,
      "plications": 5746,
      "Ġdecom": 5747,
      "Ġhydro": 5748,
      "Inter": 5749,
      "ING": 5750,
      "gar": 5751,
      "Ġdoing": 5752,
      "Ġeasy": 5753,
      "Ġlabor": 5754,
      "Ġhexagon": 5755,
      "Ġvirt": 5756,
      "Ġfru": 5757,
      "ĠPoint": 5758,
      "icks": 5759,
      "Ġten": 5760,
      "Ġinterface": 5761,
      "ĠST": 5762,
      "ĠPress": 5763,
      "book": 5764,
      "Ġstarts": 5765,
      "Ġ$|": 5766,
      "parse": 5767,
      "_w": 5768,
      "Ġ(`": 5769,
      "Ġefficiency": 5770,
      "apter": 5771,
      "airs": 5772,
      "ĠKing": 5773,
      "ashington": 5774,
      "ressed": 5775,
      "rupt": 5776,
      "ornia": 5777,
      "Ġmatrices": 5778,
      "na": 5779,
      "}_{\\": 5780,
      "atial": 5781,
      "Ġconvergence": 5782,
      "}/": 5783,
      "inally": 5784,
      "Ġ].ĊĊ": 5785,
      "rust": 5786,
      "130": 5787,
      "ii": 5788,
      "_string": 5789,
      "atur": 5790,
      "Ġsociety": 5791,
      "Ġmanif": 5792,
      "Ġheld": 5793,
      "pite": 5794,
      "ony": 5795,
      "Ġwild": 5796,
      "ĠOptim": 5797,
      "Ġanaly": 5798,
      "Ġdark": 5799,
      "CM": 5800,
      "ĠFrench": 5801,
      "-dimensional": 5802,
      "ads": 5803,
      "Ġscreen": 5804,
      "Ġisn": 5805,
      "cil": 5806,
      "Ġtherm": 5807,
      "Ġrelatively": 5808,
      "Ġreceived": 5809,
      "ĠArgs": 5810,
      "Ġlaws": 5811,
      "some": 5812,
      "Ġgetting": 5813,
      "Ġcurvature": 5814,
      "det": 5815,
      "Ġaccum": 5816,
      "Ġsigma": 5817,
      "Ġeat": 5818,
      "Ġinternational": 5819,
      "mal": 5820,
      "Ġflat": 5821,
      "/âĪĤ": 5822,
      "abil": 5823,
      "ĠHence": 5824,
      "arp": 5825,
      "Ġotherwise": 5826,
      "overn": 5827,
      "+a": 5828,
      "ĠDist": 5829,
      ")x": 5830,
      "Ġray": 5831,
      "Ġcry": 5832,
      "lor": 5833,
      "Ġapproximation": 5834,
      "Ġrelationships": 5835,
      "Ġreve": 5836,
      "Ġfeature": 5837,
      "Ġflex": 5838,
      "}^\\": 5839,
      "DF": 5840,
      "ham": 5841,
      "Ġcounted": 5842,
      "ĠHamiltonian": 5843,
      "iber": 5844,
      "taint": 5845,
      "^p": 5846,
      "ĠGet": 5847,
      "187": 5848,
      "Ġdeveloping": 5849,
      "Ġcomparison": 5850,
      "\\end": 5851,
      "Ġdog": 5852,
      "Ġincorpor": 5853,
      "Ġpicture": 5854,
      "bl": 5855,
      "Ġmist": 5856,
      "Ġprefer": 5857,
      "Ġhomothety": 5858,
      "Ġforced": 5859,
      "Ġessential": 5860,
      "Ġreli": 5861,
      "Ġmeant": 5862,
      "_dir": 5863,
      "Ġlost": 5864,
      "Not": 5865,
      "ishes": 5866,
      "Ġeffectively": 5867,
      "oration": 5868,
      "Ġcontest": 5869,
      "-point": 5870,
      "rical": 5871,
      "Ġell": 5872,
      "Ġmodes": 5873,
      "tml": 5874,
      "udes": 5875,
      "atform": 5876,
      "]`": 5877,
      "Ġ</": 5878,
      "Ġelectrons": 5879,
      "metric": 5880,
      "Ġacqu": 5881,
      "ĠAnalysis": 5882,
      "ĠMy": 5883,
      "Ġweights": 5884,
      "dots": 5885,
      "Ġlocated": 5886,
      "Ġconvert": 5887,
      "Ġgir": 5888,
      "Ġbehind": 5889,
      "antum": 5890,
      "04": 5891,
      "rief": 5892,
      "Ġselected": 5893,
      "Ġrare": 5894,
      "_file": 5895,
      "Ġpassed": 5896,
      "currency": 5897,
      "ste": 5898,
      "Ġhappens": 5899,
      "Ġuseful": 5900,
      "Ġadds": 5901,
      "ili": 5902,
      "Ġlimits": 5903,
      "Result": 5904,
      "DP": 5905,
      "ster": 5906,
      "Ġrapid": 5907,
      ",B": 5908,
      "Ġoperators": 5909,
      "do": 5910,
      "New": 5911,
      "Ġ<<": 5912,
      "Ġscales": 5913,
      "Ġuppercase": 5914,
      "Ġsimultaneously": 5915,
      "Ġdescrib": 5916,
      "Ġmix": 5917,
      "{m": 5918,
      "ĠAF": 5919,
      "ĠForm": 5920,
      "Ġresolution": 5921,
      "Output": 5922,
      "ĠKe": 5923,
      "Ġcam": 5924,
      "Ġnight": 5925,
      "osure": 5926,
      "essor": 5927,
      "Ġradical": 5928,
      "Ġlogger": 5929,
      "Ġgenetic": 5930,
      "ĠResult": 5931,
      "rable": 5932,
      "Ġdisjoint": 5933,
      "Ġrunning": 5934,
      "ĠCa": 5935,
      "Ġimmediately": 5936,
      "weight": 5937,
      "Ġtouch": 5938,
      "Ġallowing": 5939,
      "Ġstorage": 5940,
      "ĠInstitute": 5941,
      "(M": 5942,
      "ech": 5943,
      "ifier": 5944,
      "Ġhelps": 5945,
      "ĠWhy": 5946,
      "Ġoverhead": 5947,
      "Ġeasily": 5948,
      "ĠNOT": 5949,
      "ĠâĪļ(": 5950,
      "cip": 5951,
      "]=": 5952,
      "ilibrium": 5953,
      "512": 5954,
      "ordinate": 5955,
      "orted": 5956,
      "ĊĠĠĠĠĠĠĠĠĠĠĠĠĊ": 5957,
      "Ġdamage": 5958,
      "Ġassert": 5959,
      "Ġchecks": 5960,
      "args": 5961,
      "Ġadditive": 5962,
      "ĠMethod": 5963,
      "Ġinfluence": 5964,
      "Ġapprox": 5965,
      "Ġdrink": 5966,
      "Ġofficial": 5967,
      "ĠCalifornia": 5968,
      "âĪĪ": 5969,
      "ritical": 5970,
      "Ġproviding": 5971,
      "orough": 5972,
      "ails": 5973,
      "/Ċ": 5974,
      "Ġclient": 5975,
      "ĠAccording": 5976,
      "ĠWest": 5977,
      "Ġhealthy": 5978,
      "ĠStandard": 5979,
      "Ġgradient": 5980,
      "rest": 5981,
      "Ġsentence": 5982,
      "ĠAng": 5983,
      "Ġcapital": 5984,
      "Ġcompany": 5985,
      "ĠLaw": 5986,
      "attle": 5987,
      "Ġenter": 5988,
      "Ġgoal": 5989,
      "Ġcausing": 5990,
      "Ġspecify": 5991,
      "Ġwall": 5992,
      "Ġwalk": 5993,
      "Ġnation": 5994,
      "Ġatmosp": 5995,
      ",\\;": 5996,
      "data": 5997,
      "ĠEven": 5998,
      "$:": 5999,
      "rab": 6000,
      "Ġdisk": 6001,
      "ĠTechn": 6002,
      "rame": 6003,
      "Ġeth": 6004,
      "Ġextended": 6005,
      "works": 6006,
      "Ġca": 6007,
      "ifferent": 6008,
      "iscent": 6009,
      "Ġpan": 6010,
      "ha": 6011,
      "Ġcompil": 6012,
      "Ġvisual": 6013,
      "Ġnonnegative": 6014,
      "Ġmedian": 6015,
      "Ġconjug": 6016,
      "Ġinj": 6017,
      "Ġtempor": 6018,
      "Ġmultiplication": 6019,
      "Ġtetra": 6020,
      "bre": 6021,
      "Ġsolar": 6022,
      "Ġshall": 6023,
      "185": 6024,
      "var": 6025,
      ")$.": 6026,
      "Ġobser": 6027,
      "Ġachieved": 6028,
      "Ġindustry": 6029,
      "Ġfailure": 6030,
      "ĠDNA": 6031,
      "Ġgrowing": 6032,
      "900": 6033,
      "Ġinteresting": 6034,
      "Ġstarted": 6035,
      "These": 6036,
      "useum": 6037,
      "DA": 6038,
      "Ġmilitary": 6039,
      "new": 6040,
      "ĠDef": 6041,
      "Ġlogging": 6042,
      "Ġorthocenter": 6043,
      "ba": 6044,
      "eks": 6045,
      "sibility": 6046,
      "ĠGeneral": 6047,
      "Ġmidpoints": 6048,
      "uary": 6049,
      "Ġexponents": 6050,
      "Ġcomposite": 6051,
      "Ġinverse": 6052,
      "pril": 6053,
      "ĠPhys": 6054,
      "Be": 6055,
      "Ġbacter": 6056,
      "-F": 6057,
      "âī¡": 6058,
      "Ġculture": 6059,
      "ĠMost": 6060,
      "Char": 6061,
      "Ġkernel": 6062,
      "Ġreminiscent": 6063,
      "Ġbeginning": 6064,
      "-term": 6065,
      "\">": 6066,
      "Ġnice": 6067,
      "thing": 6068,
      "168": 6069,
      "forward": 6070,
      "ĠFinal": 6071,
      "ĠIntersection": 6072,
      "Ġkids": 6073,
      "Ġcentroid": 6074,
      "Ġaffects": 6075,
      "Ġdirectory": 6076,
      "anks": 6077,
      "ĠABD": 6078,
      "eli": 6079,
      "188": 6080,
      "Ġrecip": 6081,
      "semb": 6082,
      "Ġnearly": 6083,
      "aur": 6084,
      "Ġhabit": 6085,
      "ĠTwo": 6086,
      "Ġcrucial": 6087,
      "Ġvariance": 6088,
      "Ġhighest": 6089,
      "-pl": 6090,
      "ĠâĪĤ": 6091,
      "86": 6092,
      "Ġchosen": 6093,
      "Ġserious": 6094,
      "Ġschem": 6095,
      "nergy": 6096,
      "uthern": 6097,
      "SA": 6098,
      "ipeline": 6099,
      "Ġdiet": 6100,
      "Ġmill": 6101,
      "Ġresidue": 6102,
      "ĠExpand": 6103,
      "uper": 6104,
      "ĠImport": 6105,
      "Ġoriented": 6106,
      "216": 6107,
      "Ġcurrently": 6108,
      "duction": 6109,
      "Ġsimilarity": 6110,
      "Ġfigure": 6111,
      "ĠPath": 6112,
      "Ġtensor": 6113,
      "Ġcorrelation": 6114,
      "{}.<|": 6115,
      "ĠSomething": 6116,
      "Ġheavy": 6117,
      "Ġalph": 6118,
      "ĠWashington": 6119,
      "âĪł": 6120,
      "Ġrecords": 6121,
      "Ġolder": 6122,
      "Ġroom": 6123,
      "faces": 6124,
      "ĠâĨ": 6125,
      "ĠAfrican": 6126,
      "antic": 6127,
      "example": 6128,
      "ĠGo": 6129,
      "ĠÂ": 6130,
      "Hence": 6131,
      "ĠâŁ": 6132,
      "Ġ...,": 6133,
      "State": 6134,
      "/q": 6135,
      "Ġseconds": 6136,
      "ĠWeb": 6137,
      "more": 6138,
      "Ġ\\\\Ċ": 6139,
      "aussian": 6140,
      "ĠBF": 6141,
      "135": 6142,
      "Co": 6143,
      "Ġ($\\": 6144,
      "Ġpairwise": 6145,
      "Ġdetect": 6146,
      "Ġfactorial": 6147,
      "ABC": 6148,
      "Plug": 6149,
      "Ġtheoretical": 6150,
      "{aligned": 6151,
      "Ġenh": 6152,
      "Ġ\\).": 6153,
      "{Ċ": 6154,
      "rot": 6155,
      "Ġhour": 6156,
      "Ġnothing": 6157,
      "ĠChoose": 6158,
      "Ġcards": 6159,
      "ĠâľĵĊ": 6160,
      "Ġwent": 6161,
      "ĠDav": 6162,
      "Ġapplications": 6163,
      "Ġcontradict": 6164,
      "ĠAustral": 6165,
      "inction": 6166,
      "Ġ||": 6167,
      "rained": 6168,
      "Ġbenefits": 6169,
      "state": 6170,
      "ĠNon": 6171,
      "Ġbool": 6172,
      "Ġanything": 6173,
      "Ġdetection": 6174,
      "Ġactions": 6175,
      "Ġdictionary": 6176,
      "Ġinstr": 6177,
      "ĠĠĠĠĠĠĠĠĠĠĠĠĠĠĠĠĊ": 6178,
      "edia": 6179,
      "oted": 6180,
      "Ġwebs": 6181,
      "Ġswitch": 6182,
      "Ġprotection": 6183,
      "ris": 6184,
      "Ġpent": 6185,
      "Ġsouth": 6186,
      "atorial": 6187,
      "ographic": 6188,
      "cyc": 6189,
      "Ġsevere": 6190,
      "Ġnine": 6191,
      "Ġcourt": 6192,
      "ĠPost": 6193,
      "pen": 6194,
      "Ġfix": 6195,
      "ĠOct": 6196,
      "Ġstage": 6197,
      "Ġfair": 6198,
      "Ġmathematical": 6199,
      "Ġmentioned": 6200,
      "ditionally": 6201,
      "Ġwind": 6202,
      "Ġspecified": 6203,
      "Ġensuring": 6204,
      "707": 6205,
      "tract": 6206,
      "Ġdict": 6207,
      "roc": 6208,
      "?).": 6209,
      "ĠCO": 6210,
      "Ġpotentially": 6211,
      "Ġgames": 6212,
      "ĠJune": 6213,
      "Ġscatter": 6214,
      "mitted": 6215,
      "gery": 6216,
      "Ġpractical": 6217,
      "Ġrecursion": 6218,
      "Ġworkers": 6219,
      "Ġfa": 6220,
      "Ġemphas": 6221,
      "Ġreceive": 6222,
      "ymbol": 6223,
      "Ġ`\"": 6224,
      "Ġpsych": 6225,
      "Ġtown": 6226,
      "Ġ$-": 6227,
      "Ġmaximal": 6228,
      "pir": 6229,
      "ĠOur": 6230,
      "Ã¡": 6231,
      "Ġserver": 6232,
      "model": 6233,
      "Ġsubstitution": 6234,
      "Ġdiagram": 6235,
      "Ġincorrect": 6236,
      "Ġparam": 6237,
      "Ġpul": 6238,
      "Ġyz": 6239,
      "estamp": 6240,
      "ĠEduc": 6241,
      "ĠAssoci": 6242,
      "025": 6243,
      "ĠException": 6244,
      "Ġwaste": 6245,
      "CE": 6246,
      "olving": 6247,
      "002": 6248,
      "Ġcorners": 6249,
      "Ġfinding": 6250,
      "None": 6251,
      "ĠLag": 6252,
      "Ġhull": 6253,
      "Ġregardless": 6254,
      "sm": 6255,
      "Ġgradu": 6256,
      "see": 6257,
      "ĠProgram": 6258,
      "ĠInternational": 6259,
      "|.": 6260,
      "Ġprimitive": 6261,
      "[j": 6262,
      "oke": 6263,
      "Ġgravity": 6264,
      "Ġmedia": 6265,
      "plexity": 6266,
      "ĠSolution": 6267,
      "ĠÎ¶": 6268,
      "Ġthinking": 6269,
      "Ġbab": 6270,
      "Ġevaluate": 6271,
      "ĠMarch": 6272,
      "Ġambiguous": 6273,
      "=(": 6274,
      "07": 6275,
      "ĠLa": 6276,
      "iers": 6277,
      "Ġuniverse": 6278,
      "Ġoutward": 6279,
      "Ġsetting": 6280,
      "Service": 6281,
      "ĠSur": 6282,
      "Ġaccurate": 6283,
      "ĠBM": 6284,
      "Ġreducing": 6285,
      "Data": 6286,
      "ixt": 6287,
      "Ġreligious": 6288,
      "{N": 6289,
      "Ġburn": 6290,
      "184": 6291,
      "Ġpatient": 6292,
      "Ġmonitor": 6293,
      "Ġqueue": 6294,
      "Ġinfinity": 6295,
      "After": 6296,
      "Ġleaders": 6297,
      "rated": 6298,
      "OS": 6299,
      "Ġcrossing": 6300,
      "Ġpoll": 6301,
      "Ġlists": 6302,
      "Ġhierarch": 6303,
      "ĠCB": 6304,
      "\\]": 6305,
      "Ġreaction": 6306,
      "Ġconcurrent": 6307,
      "orthern": 6308,
      "rows": 6309,
      "Ġpresence": 6310,
      "Ġmechanisms": 6311,
      "istent": 6312,
      "Ġcommunities": 6313,
      "Ġcompletely": 6314,
      "Ġmachine": 6315,
      "alking": 6316,
      "ola": 6317,
      "Ġdoub": 6318,
      "auge": 6319,
      "\\big": 6320,
      "gent": 6321,
      "Ġ('": 6322,
      "ĠJava": 6323,
      "teger": 6324,
      "ĠStarting": 6325,
      "Ġconsists": 6326,
      "Ġwood": 6327,
      "Total": 6328,
      "Ġsustain": 6329,
      "orders": 6330,
      "Ġscore": 6331,
      "ĠEuropean": 6332,
      "triangle": 6333,
      "Ġinvalid": 6334,
      "ĠCong": 6335,
      "Ġdemand": 6336,
      "-ex": 6337,
      "Ġtoken": 6338,
      "Ġalthough": 6339,
      "-L": 6340,
      "Ġfuel": 6341,
      "ĠInitialize": 6342,
      "ĠNext": 6343,
      "})^": 6344,
      "Ġcultural": 6345,
      "Ġstrength": 6346,
      "Ġcircuit": 6347,
      "ĠRetrie": 6348,
      "amples": 6349,
      "cket": 6350,
      "xic": 6351,
      "valu": 6352,
      "oe": 6353,
      "apers": 6354,
      "{D": 6355,
      "104": 6356,
      "ildren": 6357,
      "orous": 6358,
      "itable": 6359,
      "Ġtruth": 6360,
      "Ġcomments": 6361,
      "Ġcompan": 6362,
      "Ġct": 6363,
      "uce": 6364,
      "Ġquar": 6365,
      "Ġvoid": 6366,
      "ĠGerman": 6367,
      "Ġult": 6368,
      "ought": 6369,
      "Ġbulk": 6370,
      "ĠHer": 6371,
      "(L": 6372,
      ".re": 6373,
      "\">Ċ": 6374,
      "Ġangular": 6375,
      "Ġresistance": 6376,
      "Ġelif": 6377,
      "Ġobtain": 6378,
      "Ġspectrum": 6379,
      "complete": 6380,
      "Ġconservation": 6381,
      "afe": 6382,
      "regular": 6383,
      "Ġideal": 6384,
      "(w": 6385,
      "ometric": 6386,
      "Omega": 6387,
      "Ġarchitecture": 6388,
      "hbar": 6389,
      "{-": 6390,
      "ĠError": 6391,
      "Ġaware": 6392,
      "Ġacid": 6393,
      "Ġmeasurement": 6394,
      "Ġanti": 6395,
      "ĠExplain": 6396,
      "Cre": 6397,
      "changed": 6398,
      "-E": 6399,
      "Pr": 6400,
      "ĠNet": 6401,
      "ĠDA": 6402,
      "Ġcit": 6403,
      "Ġcold": 6404,
      "ilk": 6405,
      "CH": 6406,
      "henomen": 6407,
      "119": 6408,
      "Ġpages": 6409,
      "Ġmultipl": 6410,
      "aven": 6411,
      "133": 6412,
      "82": 6413,
      "CA": 6414,
      "ilosoph": 6415,
      "imum": 6416,
      "Ġpeak": 6417,
      "iment": 6418,
      "ĠURL": 6419,
      ".l": 6420,
      "Ġstability": 6421,
      "Ġampl": 6422,
      "Ġdrop": 6423,
      "ĠTheir": 6424,
      "Rec": 6425,
      "bert": 6426,
      "Ġconsequ": 6427,
      "109": 6428,
      "Ġrequirement": 6429,
      "ermine": 6430,
      "-case": 6431,
      "ĠPresident": 6432,
      "Ġcone": 6433,
      "âĤĤ": 6434,
      "([": 6435,
      "Ġtransl": 6436,
      "Ġthorough": 6437,
      "iddle": 6438,
      "ĠChina": 6439,
      "Ġpurpose": 6440,
      "288": 6441,
      "ĠAv": 6442,
      "Ġcoupling": 6443,
      "Ġmir": 6444,
      "Ġegg": 6445,
      "Ġgenerating": 6446,
      "Ġhumans": 6447,
      "asons": 6448,
      "ĠSk": 6449,
      "ĠHistory": 6450,
      "Ġasympt": 6451,
      "enuse": 6452,
      "ĠJSON": 6453,
      "Ġsche": 6454,
      "Ġadvant": 6455,
      "pto": 6456,
      "Ã¶": 6457,
      "uman": 6458,
      ">=": 6459,
      "Ġtends": 6460,
      "idation": 6461,
      "odies": 6462,
      "certaint": 6463,
      "tr": 6464,
      "Ġmental": 6465,
      "ĠAugust": 6466,
      "Ġcred": 6467,
      "-T": 6468,
      "Ġagree": 6469,
      "Ġdense": 6470,
      "_time": 6471,
      "Ġauth": 6472,
      "Ġunb": 6473,
      "Final": 6474,
      "Ġfriends": 6475,
      "Ġsched": 6476,
      "Ġring": 6477,
      "ĠJuly": 6478,
      "Ġideas": 6479,
      "ief": 6480,
      "Ġtend": 6481,
      "Ġdynamics": 6482,
      "Ġleave": 6483,
      "Ġveget": 6484,
      "Ġexhib": 6485,
      "Ġfriend": 6486,
      "ama": 6487,
      "Ġroll": 6488,
      "ivalence": 6489,
      "both": 6490,
      "Ġdifferenti": 6491,
      "':Ċ": 6492,
      "distance": 6493,
      "Ġ[[": 6494,
      "Note": 6495,
      "water": 6496,
      "ĠSpec": 6497,
      "lass": 6498,
      "Ġtetrahedron": 6499,
      "ĠImplementation": 6500,
      "210": 6501,
      "Ġteachers": 6502,
      "{v": 6503,
      "Ġfeas": 6504,
      "Ġargued": 6505,
      "defined": 6506,
      "Ġfreedom": 6507,
      "hy": 6508,
      "?),": 6509,
      "Ġunordered": 6510,
      "Ġconstants": 6511,
      "Ġweeks": 6512,
      "ĠMulti": 6513,
      "Ġstable": 6514,
      "^t": 6515,
      "Ġhol": 6516,
      "Ġhands": 6517,
      "Ġagricult": 6518,
      "Ġgain": 6519,
      "Requ": 6520,
      "Ġinteractions": 6521,
      "Ġsituation": 6522,
      "Ġperimeter": 6523,
      "Ġdecreases": 6524,
      "Ġalign": 6525,
      "Ġsquared": 6526,
      "/D": 6527,
      ".x": 6528,
      "Ġgraphs": 6529,
      ");\\": 6530,
      "CC": 6531,
      "Ġrobust": 6532,
      "enge": 6533,
      "87": 6534,
      "Ġnews": 6535,
      "ĠAmericans": 6536,
      ",t": 6537,
      "?)": 6538,
      "{Z": 6539,
      "Ġimportance": 6540,
      "lig": 6541,
      "236": 6542,
      "Ġparse": 6543,
      "tember": 6544,
      "tag": 6545,
      "Ġkg": 6546,
      "assert": 6547,
      "ĠGr": 6548,
      "Ġinfection": 6549,
      "Ġhimself": 6550,
      "92": 6551,
      "Ġprojects": 6552,
      "ĠClass": 6553,
      "ĠAut": 6554,
      "ĠMark": 6555,
      "Ġlove": 6556,
      "Ġteacher": 6557,
      ".log": 6558,
      "Ġfluctu": 6559,
      "ĠService": 6560,
      "Ġjo": 6561,
      "Ġmember": 6562,
      "ĠHy": 6563,
      "ĠValueError": 6564,
      "Ġobtained": 6565,
      "{S": 6566,
      "Ġcoast": 6567,
      "cluded": 6568,
      "Ġsoftware": 6569,
      "Ġ===": 6570,
      "720": 6571,
      "itory": 6572,
      "Ġpuzz": 6573,
      "Ġprep": 6574,
      "Ġfoods": 6575,
      "Ġpractices": 6576,
      "ĠSummary": 6577,
      "Ġfailed": 6578,
      "Ġcontributes": 6579,
      "/y": 6580,
      "ativity": 6581,
      "centric": 6582,
      "Ġcontradiction": 6583,
      "IR": 6584,
      "162": 6585,
      "Ġuniversal": 6586,
      "}?": 6587,
      "nov": 6588,
      "ĠMc": 6589,
      "Ġtun": 6590,
      "Ġstars": 6591,
      "Ġsoon": 6592,
      "ĠWilli": 6593,
      "lib": 6594,
      "Ġsector": 6595,
      "ĠPlan": 6596,
      "Ġlanguages": 6597,
      "Ġwaves": 6598,
      "ĠDec": 6599,
      "Ġbirds": 6600,
      "ĠIndia": 6601,
      ")[": 6602,
      "ĠPol": 6603,
      "Ġsurround": 6604,
      "tilde": 6605,
      "Ġsupply": 6606,
      "Ġatomic": 6607,
      "ĠAppro": 6608,
      "Ġ|ĊĊ": 6609,
      "-dependent": 6610,
      ")),": 6611,
      "Ġpredi": 6612,
      "Ġbytes": 6613,
      "iny": 6614,
      "_R": 6615,
      "Ġacts": 6616,
      "ĠOB": 6617,
      "$),": 6618,
      "Ġborn": 6619,
      "mp": 6620,
      "ĠBay": 6621,
      "ĠApril": 6622,
      "dec": 6623,
      "ĠVir": 6624,
      "Processor": 6625,
      "oded": 6626,
      "Ġinvolving": 6627,
      "itudes": 6628,
      "Ġupdates": 6629,
      "103": 6630,
      "ĠOP": 6631,
      "des": 6632,
      "adow": 6633,
      "Can": 6634,
      "Ġ\\((": 6635,
      "exic": 6636,
      "Ġcomputation": 6637,
      "Ġmission": 6638,
      "']Ċ": 6639,
      "agonal": 6640,
      "Ġqueries": 6641,
      "ĠChristian": 6642,
      "Ġliquid": 6643,
      "Ġinfinitely": 6644,
      "Ġtitle": 6645,
      "ĠChurch": 6646,
      "(data": 6647,
      "\\le": 6648,
      "Ġcalculated": 6649,
      "Structure": 6650,
      "ĠRiver": 6651,
      "Ġverification": 6652,
      "115": 6653,
      "Ġdaily": 6654,
      "/N": 6655,
      "Ġtiss": 6656,
      "Ġdry": 6657,
      "Ġleaf": 6658,
      "Ġmeeting": 6659,
      "Ġswe": 6660,
      "Ġextremely": 6661,
      "-sh": 6662,
      "call": 6663,
      "ĠId": 6664,
      "abetes": 6665,
      "())Ċ": 6666,
      "default": 6667,
      "\\begin": 6668,
      "Ġinstitution": 6669,
      "Ġmeets": 6670,
      "pective": 6671,
      "\"`": 6672,
      "ĠAfrica": 6673,
      "Ġnuclear": 6674,
      "Ġinform": 6675,
      "Ġpool": 6676,
      "join": 6677,
      "ĠConn": 6678,
      "Ġbias": 6679,
      "operator": 6680,
      "Col": 6681,
      "Ġmixed": 6682,
      "Ġbipart": 6683,
      "arest": 6684,
      "Ġconfirm": 6685,
      "Ġcoinc": 6686,
      "eff": 6687,
      "antics": 6688,
      "oting": 6689,
      "Ġaim": 6690,
      "Ġefforts": 6691,
      "Ġprotein": 6692,
      "ĠRequ": 6693,
      "Î¼": 6694,
      "(arr": 6695,
      "dx": 6696,
      "Ġmodified": 6697,
      "ĠMeanwhile": 6698,
      "dot": 6699,
      "Ġplug": 6700,
      "irection": 6701,
      "_in": 6702,
      "image": 6703,
      "Ġcopies": 6704,
      "Ġcoprime": 6705,
      "uccess": 6706,
      "anging": 6707,
      "Ġirre": 6708,
      "700": 6709,
      "Ġcreation": 6710,
      "Log": 6711,
      "Ġsetup": 6712,
      "Ġscan": 6713,
      "inese": 6714,
      "403": 6715,
      "ĠÃ": 6716,
      "ĠVol": 6717,
      "Ġregister": 6718,
      "Ġexercise": 6719,
      "-V": 6720,
      "Ġhash": 6721,
      "_list": 6722,
      "ĠCorrect": 6723,
      "urg": 6724,
      "Ġdanger": 6725,
      "ifying": 6726,
      "Ġincident": 6727,
      "Ġidempotency": 6728,
      "(),": 6729,
      "}âĪŀ": 6730,
      "ĠSer": 6731,
      "cast": 6732,
      "esian": 6733,
      "83": 6734,
      "Ed": 6735,
      "Ġspeak": 6736,
      "');Ċ": 6737,
      "91": 6738,
      "Ġvideo": 6739,
      "Ġliterature": 6740,
      "agnetic": 6741,
      "ĠMus": 6742,
      "Ġusers": 6743,
      "ancial": 6744,
      "propto": 6745,
      "}|": 6746,
      "unds": 6747,
      "ĠAND": 6748,
      "Ġinstant": 6749,
      "Ġlegal": 6750,
      "ĠâĶĤ": 6751,
      "ĠOnly": 6752,
      "Ġpalindrome": 6753,
      "Ġhous": 6754,
      "Ġdistributed": 6755,
      "ĠTheore": 6756,
      "127": 6757,
      "ĠCommun": 6758,
      "Ġentirely": 6759,
      "Ġbrought": 6760,
      "Ġaspects": 6761,
      "Ġgold": 6762,
      "-se": 6763,
      "agger": 6764,
      "`:": 6765,
      "aten": 6766,
      "TTP": 6767,
      "Ġformation": 6768,
      "Ġrecommend": 6769,
      "_H": 6770,
      "Ġbillion": 6771,
      "Ġseparated": 6772,
      "ias": 6773,
      "era": 6774,
      "atabase": 6775,
      "Ġcontinued": 6776,
      "chars": 6777,
      "ĠâĬ": 6778,
      "Ġsamples": 6779,
      "Long": 6780,
      "isions": 6781,
      "fully": 6782,
      "Gener": 6783,
      "Ġshell": 6784,
      "Ġtold": 6785,
      "}$ĊĊ": 6786,
      "Ġmanuf": 6787,
      "Ġdecay": 6788,
      "{O": 6789,
      "ĠOR": 6790,
      "Ġobvious": 6791,
      "Ġassignment": 6792,
      "Ġiteration": 6793,
      "ĠTyp": 6794,
      "arian": 6795,
      "Ġmessages": 6796,
      "-up": 6797,
      "fl": 6798,
      "Ġdiscussion": 6799,
      "Ġconcrete": 6800,
      "chi": 6801,
      "106": 6802,
      "Ġjud": 6803,
      "Ġbuy": 6804,
      "finite": 6805,
      "Ġdegenerate": 6806,
      "Take": 6807,
      "Ġacceleration": 6808,
      "Ġ\\,": 6809,
      "Ġexchange": 6810,
      "Ġpolynomials": 6811,
      "ĠFeb": 6812,
      "US": 6813,
      "optim": 6814,
      "ropic": 6815,
      "}{(": 6816,
      "Ġconstructing": 6817,
      "Ġchanging": 6818,
      "arse": 6819,
      "ĠGree": 6820,
      "`.": 6821,
      "asure": 6822,
      "something": 6823,
      "total": 6824,
      "Ġtemperatures": 6825,
      "Ġcompat": 6826,
      "ĠNote": 6827,
      "Ġchanged": 6828,
      "Ġsave": 6829,
      "Ġlogical": 6830,
      "122": 6831,
      "Ġdestroy": 6832,
      "Ġprocessed": 6833,
      "acci": 6834,
      "comes": 6835,
      "Ġidentified": 6836,
      "Ġtraffic": 6837,
      "anted": 6838,
      "ĠSecond": 6839,
      "Ġstrip": 6840,
      "prod": 6841,
      "Ġrepresented": 6842,
      "abs": 6843,
      "Ġtasks": 6844,
      "ressive": 6845,
      "pendence": 6846,
      "Ġchallenges": 6847,
      "Ġ).ĊĊ": 6848,
      "Ġdiscuss": 6849,
      "Ġfederal": 6850,
      "(G": 6851,
      "omal": 6852,
      "Ġcuts": 6853,
      "93": 6854,
      "arge": 6855,
      "ĠCondition": 6856,
      "Ġirr": 6857,
      "Field": 6858,
      "Ġjoint": 6859,
      "box": 6860,
      "Ġtrying": 6861,
      "Ġeducational": 6862,
      "tz": 6863,
      "_X": 6864,
      "ponent": 6865,
      "ĠNU": 6866,
      "ĠJanuary": 6867,
      "Ġsubstring": 6868,
      "dfrac": 6869,
      "ĠMet": 6870,
      "pez": 6871,
      "pass": 6872,
      "inos": 6873,
      "Ġwins": 6874,
      "Ġsubtle": 6875,
      "Ġmanually": 6876,
      "outh": 6877,
      "rade": 6878,
      "Ġthermal": 6879,
      "Ġapart": 6880,
      "cember": 6881,
      "Part": 6882,
      "isot": 6883,
      "overrightarrow": 6884,
      "items": 6885,
      "Ġupward": 6886,
      "cular": 6887,
      "ctic": 6888,
      "ĠEC": 6889,
      "ologies": 6890,
      "cm": 6891,
      "pol": 6892,
      "ĠNumber": 6893,
      "ĠAlternative": 6894,
      "Ġillust": 6895,
      "space": 6896,
      "375": 6897,
      "FT": 6898,
      "return": 6899,
      "Ġdesc": 6900,
      "Ġplanes": 6901,
      "isk": 6902,
      "ouncil": 6903,
      "-coordinate": 6904,
      "ns": 6905,
      "lers": 6906,
      "Ġphenomen": 6907,
      "{P": 6908,
      "Ġsignificantly": 6909,
      "elt": 6910,
      ")$.ĊĊ": 6911,
      "ugg": 6912,
      "Ġidentical": 6913,
      "gies": 6914,
      "Det": 6915,
      "False": 6916,
      "Ġcombinatorial": 6917,
      "02": 6918,
      "-of": 6919,
      "ĠDuring": 6920,
      "Ġhypotenuse": 6921,
      "udget": 6922,
      "\\sin": 6923,
      "ĠâĪ¥": 6924,
      "Ġcontract": 6925,
      "ĠGreen": 6926,
      "Ġweighted": 6927,
      "ĠSun": 6928,
      "Ġhole": 6929,
      "Ġfractional": 6930,
      "Ġspl": 6931,
      "Ïī": 6932,
      "ille": 6933,
      "Ġdevices": 6934,
      "onacci": 6935,
      "ĠEnergy": 6936,
      "Ġrev": 6937,
      "orizontal": 6938,
      "Go": 6939,
      "Ġplanet": 6940,
      "orse": 6941,
      "Ġfib": 6942,
      "atching": 6943,
      "Ġcryst": 6944,
      "ĠDevelop": 6945,
      "\\cos": 6946,
      "Ġsugar": 6947,
      "iveness": 6948,
      "Ġcharacteristic": 6949,
      "EM": 6950,
      "opic": 6951,
      "Ġfourth": 6952,
      "Ġexpressions": 6953,
      "Strategy": 6954,
      "Ġthreads": 6955,
      "Ġsuggest": 6956,
      "{G": 6957,
      "âĢ¢": 6958,
      "Ġemot": 6959,
      "Ġguarantees": 6960,
      "129": 6961,
      "_K": 6962,
      "Ġeconomy": 6963,
      "well": 6964,
      ")=\\": 6965,
      "},\\": 6966,
      "mark": 6967,
      "Ġtalk": 6968,
      "Your": 6969,
      "just": 6970,
      "win": 6971,
      "ĠOff": 6972,
      "Ġderivation": 6973,
      "Ġadvanced": 6974,
      "going": 6975,
      "Ġbuffer": 6976,
      "Ġrecently": 6977,
      "/A": 6978,
      "Ġdecomposition": 6979,
      "gic": 6980,
      "141": 6981,
      "Ġdied": 6982,
      "Ġrelease": 6983,
      "222": 6984,
      "Ġrefine": 6985,
      "alt": 6986,
      "ĠDM": 6987,
      "appa": 6988,
      "ifications": 6989,
      "\\]<|": 6990,
      "ipment": 6991,
      "Ġhon": 6992,
      "ĠUses": 6993,
      "Ġ:=": 6994,
      "Ġdiseases": 6995,
      "-year": 6996,
      "ĠGovern": 6997,
      "ĠAlthough": 6998,
      "Ġinteract": 6999,
      "ĠMexic": 7000,
      "Ġprinciples": 7001,
      "scill": 7002,
      "ev": 7003,
      "Ġmoved": 7004,
      "umps": 7005,
      "ĠCle": 7006,
      "Ġpreserve": 7007,
      "Ġ$$": 7008,
      "Ġopt": 7009,
      "Ġuns": 7010,
      "(input": 7011,
      "126": 7012,
      "idel": 7013,
      "sole": 7014,
      "_se": 7015,
      "Ġcapture": 7016,
      "rav": 7017,
      "Ġrise": 7018,
      "Ġsharing": 7019,
      "Ġisolated": 7020,
      "ĠUN": 7021,
      "erved": 7022,
      "Ġflag": 7023,
      "Ġfigures": 7024,
      "Ġfight": 7025,
      "Ġstatistics": 7026,
      "Ġhistorical": 7027,
      "ĠBas": 7028,
      "turb": 7029,
      "Count": 7030,
      "aset": 7031,
      "ĠSQL": 7032,
      "Reg": 7033,
      "ĠBlack": 7034,
      "Ġcolon": 7035,
      "Ġpull": 7036,
      "andler": 7037,
      "Ġaffected": 7038,
      "ĠÎĵ": 7039,
      "ĠPract": 7040,
      "176": 7041,
      "Sc": 7042,
      "166": 7043,
      "Row": 7044,
      "Ġtrick": 7045,
      "\");Ċ": 7046,
      "lections": 7047,
      "Ġcommer": 7048,
      "Ġexperiment": 7049,
      "OD": 7050,
      "function": 7051,
      "179": 7052,
      "eding": 7053,
      "(num": 7054,
      "create": 7055,
      ".sh": 7056,
      "dt": 7057,
      "Ġregarding": 7058,
      "Rep": 7059,
      "itative": 7060,
      "_val": 7061,
      "ĠÐ": 7062,
      "Multiply": 7063,
      "Des": 7064,
      "estic": 7065,
      "Exception": 7066,
      "Ġconsistency": 7067,
      "181": 7068,
      "ĠGreat": 7069,
      "Ġnested": 7070,
      "Ġpentagon": 7071,
      "Ġcontinues": 7072,
      "User": 7073,
      "Ġdrive": 7074,
      "logram": 7075,
      "Ġpregn": 7076,
      "allelogram": 7077,
      "Ġresponsible": 7078,
      "Ġformer": 7079,
      "ĠOrder": 7080,
      ")}\\": 7081,
      "}).": 7082,
      "Ġ`__": 7083,
      "ĠDenominator": 7084,
      "-v": 7085,
      "UT": 7086,
      "Ġgauge": 7087,
      "ĠEast": 7088,
      ")))": 7089,
      "berg": 7090,
      ".path": 7091,
      "Ġpython": 7092,
      "Ġrace": 7093,
      ".assert": 7094,
      "Ġhidden": 7095,
      "ĠWork": 7096,
      "ĠEquivalent": 7097,
      "ĠChinese": 7098,
      "+bc": 7099,
      "}]": 7100,
      "real": 7101,
      "Ġweather": 7102,
      "147": 7103,
      "Ġappe": 7104,
      "Ġec": 7105,
      "Div": 7106,
      "vector": 7107,
      "Ġorders": 7108,
      "ĠHel": 7109,
      "Ġarch": 7110,
      "ĠCanada": 7111,
      "ĠRow": 7112,
      "pezoid": 7113,
      "cosystem": 7114,
      "RI": 7115,
      "Ġunchanged": 7116,
      "Ġoriginally": 7117,
      "Ġtreated": 7118,
      "Ġproportional": 7119,
      "orter": 7120,
      "Ġfluid": 7121,
      "156": 7122,
      "Ġ\\{": 7123,
      "istical": 7124,
      "Ġrecom": 7125,
      "Ġgene": 7126,
      "Index": 7127,
      "Ġstatements": 7128,
      "Ġfavor": 7129,
      "ancing": 7130,
      "cknow": 7131,
      "reet": 7132,
      "Ġspatial": 7133,
      "+n": 7134,
      "Ġson": 7135,
      "ĠDay": 7136,
      "ĠHandle": 7137,
      "Ġcomment": 7138,
      "Ġwat": 7139,
      "Ġconcurrency": 7140,
      "Ġseparation": 7141,
      "Ġbipartite": 7142,
      "tage": 7143,
      "Ġintermediate": 7144,
      "Ġexposure": 7145,
      "Ġsurgery": 7146,
      "-the": 7147,
      "Ġsession": 7148,
      "ĠLin": 7149,
      "ĠâĪı_{": 7150,
      "kens": 7151,
      "tee": 7152,
      "Ġpartitions": 7153,
      "Ġclin": 7154,
      "Ġwebsite": 7155,
      "Ġcharacteristics": 7156,
      "operatorname": 7157,
      "next": 7158,
      "ronic": 7159,
      "Ġbisectors": 7160,
      "Ġtechnique": 7161,
      "ĠMemory": 7162,
      "Ġfather": 7163,
      "Ġquot": 7164,
      "Pre": 7165,
      "729": 7166,
      "poses": 7167,
      "ruary": 7168,
      "Ġsystematically": 7169,
      "Ġalgebraic": 7170,
      "Ġstored": 7171,
      "Ġmeters": 7172,
      "Ġparticipants": 7173,
      "Ġmatters": 7174,
      "Ïĥ": 7175,
      "(h": 7176,
      "Ġfeasible": 7177,
      "Right": 7178,
      "cons": 7179,
      "Ġclassification": 7180,
      "ĠCath": 7181,
      "576": 7182,
      "oma": 7183,
      "Ġrequiring": 7184,
      "ĠEnvironment": 7185,
      "ĠLear": 7186,
      "Ġinvert": 7187,
      "Ġconsiderations": 7188,
      "Ġancient": 7189,
      "Ġmemo": 7190,
      "-pro": 7191,
      "Ġthick": 7192,
      "igher": 7193,
      "ĠSeptember": 7194,
      "nes": 7195,
      "Ġoverlap": 7196,
      "ĠDict": 7197,
      "kappa": 7198,
      "item": 7199,
      "Ġexit": 7200,
      ".\\": 7201,
      "wide": 7202,
      "Ġintended": 7203,
      ")$Ċ": 7204,
      "ĠCounty": 7205,
      "ĠDem": 7206,
      "Supp": 7207,
      "Ġdie": 7208,
      "Ġemb": 7209,
      "**.": 7210,
      "Ġshowed": 7211,
      "čĊ": 7212,
      "ĠEngland": 7213,
      "itis": 7214,
      "ogen": 7215,
      "Ġdescribe": 7216,
      "what": 7217,
      "```<|": 7218,
      "Using": 7219,
      "ford": 7220,
      "Ġestablish": 7221,
      "Ġuncertaint": 7222,
      "eles": 7223,
      "lob": 7224,
      "Ġequilibrium": 7225,
      "ĠTem": 7226,
      "ĠCor": 7227,
      "^c": 7228,
      "Ġequivalence": 7229,
      "aved": 7230,
      "ĠConfig": 7231,
      "ponse": 7232,
      "ya": 7233,
      "Ġeight": 7234,
      "erate": 7235,
      "ĠUser": 7236,
      "ĠÏĦ": 7237,
      "Bigl": 7238,
      "Ġadults": 7239,
      "PT": 7240,
      "Bigr": 7241,
      "Ġeyes": 7242,
      "Ġnonzero": 7243,
      "field": 7244,
      "Ġthousands": 7245,
      "IL": 7246,
      "Ġspring": 7247,
      "Ġvisible": 7248,
      "ĠBer": 7249,
      "Ġisinstance": 7250,
      "vember": 7251,
      "pret": 7252,
      "\"{": 7253,
      "ensus": 7254,
      "Ġcontrast": 7255,
      "{pmatrix": 7256,
      "(&": 7257,
      "\\right": 7258,
      "}}Ċ": 7259,
      "Ġstick": 7260,
      "Ġpurch": 7261,
      "94": 7262,
      "ĠPark": 7263,
      "Ġsemic": 7264,
      "attr": 7265,
      "Ġproduces": 7266,
      "apped": 7267,
      "Ġrequests": 7268,
      "Name": 7269,
      "first": 7270,
      "Ġarcsin": 7271,
      "Ġinputs": 7272,
      "xygen": 7273,
      "ĠIns": 7274,
      "Ġplatform": 7275,
      "Ġmentions": 7276,
      "contin": 7277,
      "Ġeating": 7278,
      "ĠCity": 7279,
      "-specific": 7280,
      "Ġsummer": 7281,
      "Ġfewer": 7282,
      "uries": 7283,
      "Ġremoval": 7284,
      "*y": 7285,
      "aste": 7286,
      "ĠTr": 7287,
      "145": 7288,
      "Hel": 7289,
      "err": 7290,
      "Ġmaintaining": 7291,
      "ĠMedic": 7292,
      "Ġbeg": 7293,
      "ĠOctober": 7294,
      "Ġdrug": 7295,
      "Ġvaries": 7296,
      "Ġadopt": 7297,
      "ldots": 7298,
      "Ġsolved": 7299,
      "Ġencoding": 7300,
      "ĠPrint": 7301,
      "hold": 7302,
      "Ġaccom": 7303,
      "ĠNovember": 7304,
      "Ġdefines": 7305,
      "Ġdefinite": 7306,
      "/T": 7307,
      "ĠInteg": 7308,
      "Ġsampling": 7309,
      "Ġ$[": 7310,
      "ĠPR": 7311,
      "ĠConf": 7312,
      "Exp": 7313,
      "cious": 7314,
      "Ġrestri": 7315,
      "Ġargs": 7316,
      "Ġchars": 7317,
      "ospital": 7318,
      "Ġvers": 7319,
      "Ġsac": 7320,
      "ref": 7321,
      "\\ge": 7322,
      "two": 7323,
      "Ġcontribute": 7324,
      "Ġeigenvalues": 7325,
      "/v": 7326,
      "ouble": 7327,
      "ĠIter": 7328,
      "Ġattract": 7329,
      "aught": 7330,
      ",v": 7331,
      "_char": 7332,
      "energy": 7333,
      "âĢ¦": 7334,
      "Ġcategories": 7335,
      ")_": 7336,
      "\\|": 7337,
      "eness": 7338,
      "ĠInstead": 7339,
      "ĠHIV": 7340,
      "Because": 7341,
      "Ġctx": 7342,
      "Ġcluster": 7343,
      "Ġcompanies": 7344,
      "cus": 7345,
      "Ġnor": 7346,
      "âŁ": 7347,
      "Ġoscill": 7348,
      "Ġtrapezoid": 7349,
      "{cases": 7350,
      "Ġwire": 7351,
      "Ġtopological": 7352,
      "Ġwoman": 7353,
      "Ġtele": 7354,
      "ĠMight": 7355,
      "Ġcircular": 7356,
      "Ġ```Ċ": 7357,
      "OW": 7358,
      "ĠPal": 7359,
      "Ġstandards": 7360,
      "Ġnative": 7361,
      "Ġcommonly": 7362,
      "ĠRetrieved": 7363,
      "style": 7364,
      "Ġmob": 7365,
      "Ġmetal": 7366,
      "ĠâĪ«_{": 7367,
      "\".Ċ": 7368,
      "ading": 7369,
      "ĠRun": 7370,
      "life": 7371,
      "atio": 7372,
      "âĢĻre": 7373,
      "FA": 7374,
      "ka": 7375,
      "117": 7376,
      "Ġaccordingly": 7377,
      "Ġgaps": 7378,
      "ĠPaul": 7379,
      "Ġconversion": 7380,
      "Ġdiscovered": 7381,
      "Ġevaluation": 7382,
      "ĠSociety": 7383,
      "Ġheter": 7384,
      "Ġreferences": 7385,
      "Ġpreviously": 7386,
      "\\alpha": 7387,
      "Ġinclusive": 7388,
      "Ġmanip": 7389,
      "cdots": 7390,
      "Ġdelay": 7391,
      "oming": 7392,
      "men": 7393,
      "Ġsend": 7394,
      "Ġdrugs": 7395,
      "Ġvict": 7396,
      "Ġlearned": 7397,
      "abled": 7398,
      "Ġstays": 7399,
      "herical": 7400,
      "Ġtradition": 7401,
      "reds": 7402,
      "Ġinstruction": 7403,
      "183": 7404,
      "ĠComb": 7405,
      "Ġinequalities": 7406,
      "ondon": 7407,
      "Ġparser": 7408,
      "Code": 7409,
      "ĠProvide": 7410,
      "Ġbelief": 7411,
      "Ġparallelogram": 7412,
      "Ġsupported": 7413,
      "Ġsigned": 7414,
      "ula": 7415,
      "Ġforming": 7416,
      "Ġnu": 7417,
      "Ġexcess": 7418,
      "182": 7419,
      "+r": 7420,
      "bits": 7421,
      "ulf": 7422,
      "standing": 7423,
      "Try": 7424,
      "anguage": 7425,
      "tion": 7426,
      "ĠEducation": 7427,
      "Ġteaching": 7428,
      "Ġnearest": 7429,
      "Ġextend": 7430,
      "Ġsimplifies": 7431,
      "=n": 7432,
      "Ġdual": 7433,
      "Ġdiscrete": 7434,
      "Ġremember": 7435,
      "Ġassigned": 7436,
      "ĠAnt": 7437,
      "Ġshapes": 7438,
      "618": 7439,
      "Ġvac": 7440,
      "Ġveh": 7441,
      "ĠRoman": 7442,
      "Ġcorrel": 7443,
      "-cycle": 7444,
      "\\mathbf": 7445,
      "],Ċ": 7446,
      "ĠTry": 7447,
      "Ġcancel": 7448,
      "Ġinsight": 7449,
      "inger": 7450,
      "hedral": 7451,
      "Ġforeign": 7452,
      "!\\": 7453,
      "Ġpopulations": 7454,
      "cope": 7455,
      "Ġfractions": 7456,
      "Ġmechanics": 7457,
      "ĠBi": 7458,
      "Ġsettings": 7459,
      "ĠAssociation": 7460,
      "{s": 7461,
      "Ġglass": 7462,
      "170": 7463,
      "Ġspirit": 7464,
      "LS": 7465,
      "ĠSan": 7466,
      "house": 7467,
      "ĠWil": 7468,
      "Ġsemantics": 7469,
      "dule": 7470,
      "Ġking": 7471,
      "124": 7472,
      "ASA": 7473,
      "ĠJust": 7474,
      "Ġintegrand": 7475,
      "amily": 7476,
      "aign": 7477,
      "Ġcompleted": 7478,
      "ĠHouse": 7479,
      "BN": 7480,
      "trans": 7481,
      "Ġstraightforward": 7482,
      "rition": 7483,
      "Ġroad": 7484,
      "Ġbarrier": 7485,
      "stream": 7486,
      "That": 7487,
      "ded": 7488,
      "tally": 7489,
      "Ġrhomb": 7490,
      "ĠJes": 7491,
      "oken": 7492,
      "ocr": 7493,
      "itational": 7494,
      "ingle": 7495,
      "oder": 7496,
      "ĠInc": 7497,
      "Ġtermin": 7498,
      "Ġdeal": 7499,
      "rew": 7500,
      "Ġpackage": 7501,
      "body": 7502,
      "Ġpiles": 7503,
      "312": 7504,
      "Man": 7505,
      "ĠMD": 7506,
      "Ġeffort": 7507,
      "Ġhyperbol": 7508,
      "Ġatoms": 7509,
      "ĠNewton": 7510,
      "Ġmajority": 7511,
      "Int": 7512,
      "ĠComplexity": 7513,
      "ĠEns": 7514,
      "[:": 7515,
      "Ġrepresentations": 7516,
      "Ġidx": 7517,
      "Ġreplaced": 7518,
      "Ġworked": 7519,
      "Ġinher": 7520,
      "Ġcro": 7521,
      "aled": 7522,
      "ĠCM": 7523,
      "173": 7524,
      "Ġfresh": 7525,
      "Ġloops": 7526,
      "ucl": 7527,
      "Ġocean": 7528,
      "Ġpassword": 7529,
      "FF": 7530,
      "cules": 7531,
      "afety": 7532,
      ",...": 7533,
      "ĠIndian": 7534,
      "ĠPri": 7535,
      "ecute": 7536,
      "Ġorganization": 7537,
      "ĠJews": 7538,
      "|----------------": 7539,
      "113": 7540,
      "Ġfeedback": 7541,
      "dempotency": 7542,
      "ĠInformation": 7543,
      "Ġfinancial": 7544,
      "ĠEffect": 7545,
      "Ġdecrease": 7546,
      "straints": 7547,
      "_O": 7548,
      "+k": 7549,
      "urban": 7550,
      "'^": 7551,
      "Ġrotated": 7552,
      "omas": 7553,
      "Ġdependent": 7554,
      ".**": 7555,
      "Ġcommunic": 7556,
      "^b": 7557,
      "aper": 7558,
      "points": 7559,
      "Ġdraft": 7560,
      "ĠDecember": 7561,
      "Ġbacteria": 7562,
      "Ġdepart": 7563,
      "Ġlabeling": 7564,
      "Ġstationary": 7565,
      "|,": 7566,
      "\\mathbb": 7567,
      "Ġparab": 7568,
      "Ġinterpreted": 7569,
      "Ġtracking": 7570,
      "ĠJewish": 7571,
      "Ġpun": 7572,
      "Ġnotes": 7573,
      "rel": 7574,
      "BD": 7575,
      "Phi": 7576,
      "Ġsecret": 7577,
      "Model": 7578,
      "orge": 7579,
      "Ġcities": 7580,
      "stituting": 7581,
      "Ġincrement": 7582,
      "Ġdetermines": 7583,
      "Ġecosystem": 7584,
      "Ġkeeping": 7585,
      ".M": 7586,
      "ronger": 7587,
      ".P": 7588,
      "Ġformulas": 7589,
      "ĠColle": 7590,
      "Ġbinomial": 7591,
      "oon": 7592,
      "unt": 7593,
      "Ġchurch": 7594,
      "-sub": 7595,
      "ĠRever": 7596,
      "Ġbehavi": 7597,
      "ĠâŁĤ": 7598,
      "ĠJournal": 7599,
      "Ġassignments": 7600,
      "Ġlandsc": 7601,
      "Ġpreserving": 7602,
      "Ġequally": 7603,
      "Ġdifferently": 7604,
      "Ġtherapy": 7605,
      "ĠProf": 7606,
      "elow": 7607,
      "Ġbeaut": 7608,
      "Ġabstract": 7609,
      "Ġgreatest": 7610,
      "Ġplayers": 7611,
      "EC": 7612,
      "Ġcompact": 7613,
      "Ġeast": 7614,
      "132": 7615,
      "Ġrotate": 7616,
      "ĠIdent": 7617,
      "romatic": 7618,
      "Ġperiods": 7619,
      "ĠĠĠĠĠĠĠĠĠĠĠĠĠĠĠĠĠĠĠĠ": 7620,
      "iat": 7621,
      "Ġextends": 7622,
      "____": 7623,
      "Ġreports": 7624,
      "Ġdecide": 7625,
      "Ġmetadata": 7626,
      "ĠDavid": 7627,
      "Ġlongest": 7628,
      "Ġnil": 7629,
      "actory": 7630,
      "ĠIsra": 7631,
      "Ġscalar": 7632,
      "cas": 7633,
      "Ġdirector": 7634,
      "TML": 7635,
      "ĠAnswer": 7636,
      ",x": 7637,
      "ĠGroup": 7638,
      "Ġrender": 7639,
      "joy": 7640,
      "Ġbenefit": 7641,
      "bi": 7642,
      "cohol": 7643,
      "Ġdigital": 7644,
      "Ġcongruent": 7645,
      "swers": 7646,
      "Ġgeneric": 7647,
      "Ġlinks": 7648,
      "Ġarm": 7649,
      "504": 7650,
      "Ġpuzzle": 7651,
      "cape": 7652,
      "imination": 7653,
      "'ĊĊ": 7654,
      "Ġconcentration": 7655,
      "(|": 7656,
      "imit": 7657,
      "isted": 7658,
      "env": 7659,
      "uchy": 7660,
      "Ġreconsider": 7661,
      "Ġdisorder": 7662,
      "_value": 7663,
      "pled": 7664,
      "ĊĠĠĠĠĠĊ": 7665,
      "vertical": 7666,
      "):ĊĊ": 7667,
      "_Q": 7668,
      "_q": 7669,
      "Ġchance": 7670,
      "root": 7671,
      "003": 7672,
      "Ġnetworks": 7673,
      "ipse": 7674,
      "band": 7675,
      "anglement": 7676,
      "Ġincome": 7677,
      "CP": 7678,
      "While": 7679,
      "plication": 7680,
      "Ġphilosoph": 7681,
      "Ġrepresenting": 7682,
      "Ġpp": 7683,
      "Ġped": 7684,
      "Ġassistant": 7685,
      "ĠVis": 7686,
      "oul": 7687,
      "sets": 7688,
      "apse": 7689,
      "constant": 7690,
      "ibonacci": 7691,
      "Ġiron": 7692,
      "Ġinvestig": 7693,
      "Ġvan": 7694,
      "Ġduplicate": 7695,
      "adic": 7696,
      "ĠGen": 7697,
      "Ġanalog": 7698,
      "ĠFrance": 7699,
      "-u": 7700,
      "ĠBr": 7701,
      "Ġattached": 7702,
      "^d": 7703,
      "Ġhybrid": 7704,
      "Ġcitiz": 7705,
      "gency": 7706,
      "sor": 7707,
      "Ġcubes": 7708,
      "Ġinitially": 7709,
      "vin": 7710,
      "Ġserve": 7711,
      "Ġconstructed": 7712,
      "writ": 7713,
      "Ġdiabetes": 7714,
      "OL": 7715,
      "Ġmeasurements": 7716,
      "ĠCongress": 7717,
      "Ġnotation": 7718,
      "Ġjson": 7719,
      "ĠGaussian": 7720,
      "Ġequipment": 7721,
      "Ġprofessional": 7722,
      "Ġtransitions": 7723,
      "etween": 7724,
      "Ġleader": 7725,
      "Ġmal": 7726,
      "vironments": 7727,
      "Ġriver": 7728,
      "ĠFound": 7729,
      "270": 7730,
      "ĠCS": 7731,
      "Ġseven": 7732,
      "Ver": 7733,
      "Ġpowerful": 7734,
      "content": 7735,
      "Why": 7736,
      "ĠODE": 7737,
      "ĠWilliam": 7738,
      "+B": 7739,
      "iders": 7740,
      "ĠCP": 7741,
      "Ġ\"__": 7742,
      "Trans": 7743,
      "req": 7744,
      "allow": 7745,
      "Ġfont": 7746,
      "plicated": 7747,
      "Ġduplicates": 7748,
      "Ġeliminate": 7749,
      ",r": 7750,
      "ĠMer": 7751,
      ")-(": 7752,
      ",p": 7753,
      "Over": 7754,
      "rd": 7755,
      "request": 7756,
      "Ġdeliver": 7757,
      "Ġpolicies": 7758,
      "map": 7759,
      "Ġreturned": 7760,
      "ĠMor": 7761,
      "Our": 7762,
      "Ġtile": 7763,
      "Ġbary": 7764,
      "Ġseason": 7765,
      "host": 7766,
      "ollow": 7767,
      "/f": 7768,
      "\\qquad": 7769,
      "Ġsuspect": 7770,
      "rations": 7771,
      "172": 7772,
      "Ġbroken": 7773,
      "Ġdatetime": 7774,
      "Ġdeterminant": 7775,
      "Up": 7776,
      "Ġreached": 7777,
      "Ġperformed": 7778,
      "Ġiniti": 7779,
      "Ġapplies": 7780,
      "+m": 7781,
      "Some": 7782,
      "ĠRo": 7783,
      "rc": 7784,
      "Ġpet": 7785,
      "107": 7786,
      "client": 7787,
      "email": 7788,
      "/u": 7789,
      "ĠCall": 7790,
      "[(": 7791,
      "ourier": 7792,
      "Ġworth": 7793,
      "280": 7794,
      "Ġ=?": 7795,
      "fort": 7796,
      "Ġhope": 7797,
      "Ġremoving": 7798,
      "ĠUpdate": 7799,
      "peed": 7800,
      "ÃŃ": 7801,
      "that": 7802,
      "roke": 7803,
      "ĠMax": 7804,
      "jects": 7805,
      "Ġpercentage": 7806,
      "net": 7807,
      "Ġcatch": 7808,
      "ipher": 7809,
      "ransformer": 7810,
      "Ġjump": 7811,
      "calcul": 7812,
      "urations": 7813,
      "ĠMars": 7814,
      "Ġproven": 7815,
      "Ġfaith": 7816,
      "_sum": 7817,
      "+ca": 7818,
      "Ġfinally": 7819,
      "Sp": 7820,
      "136": 7821,
      "Ġradii": 7822,
      "Ġtransformed": 7823,
      "]{": 7824,
      "riers": 7825,
      "^(": 7826,
      "116": 7827,
      "^j": 7828,
      "ca": 7829,
      "isher": 7830,
      "Ġfli": 7831,
      "Ġreasons": 7832,
      "uming": 7833,
      "ĠCode": 7834,
      "ĠItal": 7835,
      "ĠFebruary": 7836,
      "/B": 7837,
      "Ġ=\\": 7838,
      "LT": 7839,
      "Ġrectangles": 7840,
      "118": 7841,
      "Ġrequested": 7842,
      "ander": 7843,
      "tax": 7844,
      "Ġarranged": 7845,
      "ĠâĪª": 7846,
      ");ĊĊ": 7847,
      "Ġalternating": 7848,
      "}^{\\": 7849,
      "(E": 7850,
      "trivial": 7851,
      "ĠMal": 7852,
      "Ġconsidering": 7853,
      "Ġintroduced": 7854,
      "Ġfemale": 7855,
      "Ġbank": 7856,
      "Ġseat": 7857,
      "Ġhair": 7858,
      "Ġserial": 7859,
      "ilder": 7860,
      "}\\).": 7861,
      "Ġprincip": 7862,
      "roph": 7863,
      "Ġthrow": 7864,
      "hom": 7865,
      "ĠMr": 7866,
      "height": 7867,
      "Ġstronger": 7868,
      "Ġpreserves": 7869,
      "Ġpig": 7870,
      "van": 7871,
      "Ġcoming": 7872,
      "ĠAtt": 7873,
      "ĠRight": 7874,
      "kin": 7875,
      "**:ĊĊ": 7876,
      "itors": 7877,
      "Ġchallenge": 7878,
      "Ġrepro": 7879,
      "ĠMich": 7880,
      "Ġuniquely": 7881,
      "zing": 7882,
      "valuate": 7883,
      "ike": 7884,
      "free": 7885,
      "Ġ[Ċ": 7886,
      "Another": 7887,
      "Ġgram": 7888,
      "ĠBro": 7889,
      "Ġ&&": 7890,
      "Ġatmosphere": 7891,
      "Ġtimeout": 7892,
      "}'": 7893,
      "Config": 7894,
      "aptive": 7895,
      "Ġbra": 7896,
      "204": 7897,
      "Ġargue": 7898,
      "Ġalgorithms": 7899,
      "Ġbott": 7900,
      "Ġgal": 7901,
      "Ġdecisions": 7902,
      "Ġgard": 7903,
      "they": 7904,
      "adj": 7905,
      "illing": 7906,
      "Ġspan": 7907,
      "hentication": 7908,
      "ĠĠĠĠĠĠĠĠĠĠ": 7909,
      ",e": 7910,
      "how": 7911,
      "Ġemissions": 7912,
      "Ġvit": 7913,
      "Ġaxes": 7914,
      "Ġhardware": 7915,
      "sv": 7916,
      "Ġske": 7917,
      "acent": 7918,
      "/R": 7919,
      "Ġindicate": 7920,
      "Ġwinter": 7921,
      "ĠCN": 7922,
      "Ġprimarily": 7923,
      "ĠThose": 7924,
      "Ġtyping": 7925,
      "Ġfold": 7926,
      "Ġdefic": 7927,
      "','": 7928,
      "Ġviews": 7929,
      "Create": 7930,
      "uclide": 7931,
      "ĠRE": 7932,
      "Ġrhombus": 7933,
      "Ġbudget": 7934,
      "Ġconfusion": 7935,
      "Ġdescribes": 7936,
      "roups": 7937,
      "Ġcorrection": 7938,
      "creasing": 7939,
      "_pro": 7940,
      "324": 7941,
      "oday": 7942,
      "ĠWater": 7943,
      "likely": 7944,
      "Ġcele": 7945,
      "enth": 7946,
      "Ġchannel": 7947,
      "ĠPublic": 7948,
      "Ġsurvey": 7949,
      "ĠProblem": 7950,
      "Ġlinked": 7951,
      "Ġtum": 7952,
      "ĠPo": 7953,
      "Ġspent": 7954,
      "Ġestimate": 7955,
      "drome": 7956,
      "Ġwra": 7957,
      ",C": 7958,
      "display": 7959,
      "Ġparty": 7960,
      "ĠBH": 7961,
      "_de": 7962,
      "ulating": 7963,
      "Ġenvironments": 7964,
      "Ġ(\"": 7965,
      "iful": 7966,
      "ivation": 7967,
      "Ġsch": 7968,
      "ĠPM": 7969,
      "Example": 7970,
      "uclidean": 7971,
      "izable": 7972,
      "243": 7973,
      "ĠCH": 7974,
      "Ġcontained": 7975,
      "409": 7976,
      "Ġtren": 7977,
      "Ġreality": 7978,
      "Ġoxygen": 7979,
      "Ġtuple": 7980,
      "Ġinvent": 7981,
      "Ġpurposes": 7982,
      "ball": 7983,
      "Ġcodes": 7984,
      "isters": 7985,
      "ĠCase": 7986,
      ")**:": 7987,
      "Ġthin": 7988,
      "},Ċ": 7989,
      "ida": 7990,
      "servation": 7991,
      "cludes": 7992,
      "ĠRemove": 7993,
      "morph": 7994,
      "Ġcoherence": 7995,
      "Ġranges": 7996,
      "ĠOper": 7997,
      "ellig": 7998,
      "fe": 7999,
      "ĠLibr": 8000,
      "Ġraw": 8001,
      "Ġdependence": 8002,
      "Ġvariation": 8003,
      "_col": 8004,
      "Ġprogression": 8005,
      "+t": 8006,
      "Ġanswers": 8007,
      "Ġimmune": 8008,
      "062": 8009,
      "Ġradio": 8010,
      "Ġflux": 8011,
      "ĠLondon": 8012,
      "Ġcriter": 8013,
      "...ĊĊ": 8014,
      "Ġreleased": 8015,
      "Ġoverlapping": 8016,
      "ict": 8017,
      "Ġexperiments": 8018,
      "mut": 8019,
      "Â°C": 8020,
      "encing": 8021,
      "Ġtransformations": 8022,
      "Ġstrongly": 8023,
      "AA": 8024,
      "Ġgenes": 8025,
      "âĦĵ": 8026,
      "Ġferm": 8027,
      "Ġbackward": 8028,
      "Te": 8029,
      "Ġtight": 8030,
      "SD": 8031,
      "ameters": 8032,
      "imer": 8033,
      "Ġsends": 8034,
      "`.ĊĊ": 8035,
      "IP": 8036,
      "143": 8037,
      "Ġvoltage": 8038,
      "Ġwrites": 8039,
      "ĠSam": 8040,
      "Ġcollabor": 8041,
      "enty": 8042,
      "bout": 8043,
      "224": 8044,
      "Ne": 8045,
      "ĠMass": 8046,
      "Ġsummary": 8047,
      "131": 8048,
      "`ĊĊ": 8049,
      "ĠRober": 8050,
      "-W": 8051,
      "Â·(": 8052,
      "Ġmerge": 8053,
      "ĠSimplify": 8054,
      "Ġforb": 8055,
      "ĠConvert": 8056,
      "Ġsignals": 8057,
      "Ġphysic": 8058,
      "Ġmale": 8059,
      "Ġsubstitute": 8060,
      "âĪŀ,": 8061,
      "Ret": 8062,
      "Ġassuming": 8063,
      "Ġplate": 8064,
      "Ġconjugate": 8065,
      "lements": 8066,
      "utor": 8067,
      "ilation": 8068,
      "Ġtested": 8069,
      "Context": 8070,
      "Ġarrays": 8071,
      "_str": 8072,
      "Ġplanning": 8073,
      "Ġadvantage": 8074,
      ",R": 8075,
      "-left": 8076,
      "];": 8077,
      "{H": 8078,
      "Ġvill": 8079,
      "ĠVari": 8080,
      "full": 8081,
      "{f": 8082,
      "Ġaccuracy": 8083,
      "];Ċ": 8084,
      "ĉĉ": 8085,
      "ĠTerm": 8086,
      "Ġhypothes": 8087,
      "Ġdiss": 8088,
      "ĠArch": 8089,
      "ĠOut": 8090,
      "Request": 8091,
      ".y": 8092,
      "Ġmassive": 8093,
      "Ġstim": 8094,
      "Ġconcerns": 8095,
      "ĠSyn": 8096,
      "ĠPers": 8097,
      "114": 8098,
      "Ġfrequently": 8099,
      "ĠCollege": 8100,
      "Ġbrief": 8101,
      "Ġdelete": 8102,
      "Ġfindings": 8103,
      "ĠMath": 8104,
      "Ġversions": 8105,
      "Ġ(|": 8106,
      "Ġsoci": 8107,
      "ĠBCD": 8108,
      "PD": 8109,
      "json": 8110,
      "Ġtopic": 8111,
      "olean": 8112,
      "ĠJesus": 8113,
      "Ġenjoy": 8114,
      "icip": 8115,
      "));Ċ": 8116,
      "ĠJames": 8117,
      "(\"\\": 8118,
      "Ġmolecules": 8119,
      "ĠBack": 8120,
      "ael": 8121,
      "Â³": 8122,
      "Ġtokens": 8123,
      "ĠCivil": 8124,
      "Ġdistinction": 8125,
      "Option": 8126,
      "-al": 8127,
      "Ġ`[": 8128,
      "Ġclosure": 8129,
      "'C": 8130,
      "Sigma": 8131,
      "uum": 8132,
      "Ġpapers": 8133,
      "ĠAnother": 8134,
      "urt": 8135,
      "ĠDevelopment": 8136,
      "itz": 8137,
      "165": 8138,
      "Ġbaby": 8139,
      "Ġtraject": 8140,
      "ttps": 8141,
      "Ġwife": 8142,
      "Ġbreast": 8143,
      "Ġestimates": 8144,
      "Ġrearr": 8145,
      "ĠWindow": 8146,
      "-scale": 8147,
      "Ġoffice": 8148,
      "ĠCouncil": 8149,
      "ĠMedical": 8150,
      ">>": 8151,
      "Ġ$\\{": 8152,
      "omorphic": 8153,
      "Ġhaven": 8154,
      "ĠPat": 8155,
      "Ġ**\"": 8156,
      "562": 8157,
      "ado": 8158,
      "ĠMart": 8159,
      "Ġperturb": 8160,
      "Ġtrust": 8161,
      "Ġshifted": 8162,
      "ĠBre": 8163,
      "ĠBase": 8164,
      "Ġoutcomes": 8165,
      "ders": 8166,
      "Ġindicates": 8167,
      "arn": 8168,
      "Ġisland": 8169,
      "hand": 8170,
      "Ġtriangular": 8171,
      "Ġoffers": 8172,
      "gu": 8173,
      "orrow": 8174,
      "134": 8175,
      "Ġcoloring": 8176,
      "ĠElect": 8177,
      "Ġmedium": 8178,
      "mult": 8179,
      "Ġcombinations": 8180,
      "âķ": 8181,
      "Ġwalls": 8182,
      "ĠTri": 8183,
      "oto": 8184,
      "Ġweigh": 8185,
      "Ġadaptive": 8186,
      "Ġestimated": 8187,
      "Ġirrational": 8188,
      "response": 8189,
      "Ġenumerate": 8190,
      "Ġillness": 8191,
      "vision": 8192,
      "Ġfro": 8193,
      "Ġuv": 8194,
      "Ġquantity": 8195,
      "Ġproceed": 8196,
      "Ġplans": 8197,
      "(xy": 8198,
      "Ġheader": 8199,
      "aser": 8200,
      "istr": 8201,
      "ĠArchitect": 8202,
      "Ġsup": 8203,
      "ĠMary": 8204,
      "ĠLeg": 8205,
      "828": 8206,
      "Ġstories": 8207,
      "004": 8208,
      "----------------------------------------------------------------": 8209,
      "Ġenforce": 8210,
      "$?": 8211,
      "ologist": 8212,
      "Ġinches": 8213,
      "Ġplays": 8214,
      "âĪĳ": 8215,
      "Ġnovel": 8216,
      "Ġeveryone": 8217,
      "Ġcomputing": 8218,
      "Ġsplits": 8219,
      "{M": 8220,
      "ĠRad": 8221,
      "parallel": 8222,
      "ĠAir": 8223,
      "rian": 8224,
      "'.ĊĊ": 8225,
      "__\":Ċ": 8226,
      "ĠRa": 8227,
      "ĠHard": 8228,
      "ĠCatholic": 8229,
      "Ġdifferential": 8230,
      "Ġconsumption": 8231,
      "aturally": 8232,
      "Ġnoted": 8233,
      "Ġpresident": 8234,
      "ĠSubtract": 8235,
      "ĠABCD": 8236,
      "pat": 8237,
      "Ġbone": 8238,
      "Ġspherical": 8239,
      "Ġbalanced": 8240,
      "Ġnutri": 8241,
      "ologists": 8242,
      "Ġuncertainty": 8243,
      "Ġxyz": 8244,
      "ĠMuseum": 8245,
      "Ġplot": 8246,
      "ĠSy": 8247,
      "Ġassumes": 8248,
      "mes": 8249,
      "Ġrich": 8250,
      "Ġdistinguish": 8251,
      "ĠInf": 8252,
      "Ġswap": 8253,
      "_per": 8254,
      "Em": 8255,
      "ĠRec": 8256,
      "Ġmedicine": 8257,
      "Ġcloser": 8258,
      "+âĪļ": 8259,
      "ancel": 8260,
      "Ġupdated": 8261,
      "Ġcharges": 8262,
      "(result": 8263,
      "Ġbelongs": 8264,
      "venue": 8265,
      "ĠSpanish": 8266,
      "Ġdistrict": 8267,
      "seud": 8268,
      "ĠWestern": 8269,
      "placement": 8270,
      "}+\\": 8271,
      "ĠGermany": 8272,
      "ĠLatin": 8273,
      "public": 8274,
      "{y": 8275,
      "ipping": 8276,
      "arts": 8277,
      "Ġrelate": 8278,
      ",?": 8279,
      "atal": 8280,
      "ĠInternet": 8281,
      "-----": 8282,
      "Ġstrugg": 8283,
      "SQL": 8284,
      "Ġdenomin": 8285,
      "NT": 8286,
      "Psi": 8287,
      "ĠPeople": 8288,
      "Ġbarycentric": 8289,
      "ximum": 8290,
      "Ġfamous": 8291,
      "Ġantib": 8292,
      "Ġphoton": 8293,
      "Ġkinetic": 8294,
      "Ġcommercial": 8295,
      "010": 8296,
      "Ġperspective": 8297,
      ")*(-": 8298,
      "ĠDivide": 8299,
      "Ġclassic": 8300,
      "wargs": 8301,
      "ptic": 8302,
      "keys": 8303,
      "coming": 8304,
      "Ġguess": 8305,
      "ĠSpecifically": 8306,
      "Ġtil": 8307,
      "ĠSpecific": 8308,
      "Ġutil": 8309,
      "Ġmarked": 8310,
      "ĠFore": 8311,
      "Ġsynchron": 8312,
      "post": 8313,
      "Ġplayed": 8314,
      "requency": 8315,
      "Ġreachable": 8316,
      "Ġtables": 8317,
      "159": 8318,
      "graph": 8319,
      "ĠEq": 8320,
      "Ġdivers": 8321,
      "03": 8322,
      "Ġdb": 8323,
      "Ġcoun": 8324,
      "ĠProject": 8325,
      "ï¼": 8326,
      "herent": 8327,
      "_length": 8328,
      "Suppose": 8329,
      "Ġbatter": 8330,
      "Ġlabels": 8331,
      "Ġapplying": 8332,
      "Ġpropagation": 8333,
      "Ġ},Ċ": 8334,
      "ropical": 8335,
      "\")ĊĊ": 8336,
      "Event": 8337,
      "west": 8338,
      "ĠPoints": 8339,
      "^+": 8340,
      "Ġbio": 8341,
      "Ġduration": 8342,
      ".to": 8343,
      "**.ĊĊ": 8344,
      "Ġescape": 8345,
      "Vi": 8346,
      "Ġnav": 8347,
      "ĠLand": 8348,
      "Ġpointer": 8349,
      "Value": 8350,
      "Ġscattering": 8351,
      "Ġbodies": 8352,
      "<j": 8353,
      "Ġrecovery": 8354,
      "ĠĠĠĠĠĠĠĠĠĠĠĠĠĠĠĠĠĠĠĠĠĠĠĠĠĠĠ": 8355,
      "(str": 8356,
      "Ġbinding": 8357,
      "/O": 8358,
      "Ġjournal": 8359,
      "Order": 8360,
      "Ġfluctuations": 8361,
      "ĠCauchy": 8362,
      "omain": 8363,
      "Ġimplicit": 8364,
      "Ġsurpr": 8365,
      "ĠAustralia": 8366,
      "ago": 8367,
      "Ġfilled": 8368,
      "hot": 8369,
      "ĠFourier": 8370,
      "Ġseed": 8371,
      "Ġsuffix": 8372,
      "Ġfruit": 8373,
      "577": 8374,
      "cers": 8375,
      "ĠPy": 8376,
      "Ġatom": 8377,
      "Comb": 8378,
      "Ġskip": 8379,
      "XY": 8380,
      "ĠAmong": 8381,
      "Ġprocedure": 8382,
      "Ġsto": 8383,
      "Ġexpensive": 8384,
      ",s": 8385,
      "Ġequivalently": 8386,
      "ica": 8387,
      "Ġkept": 8388,
      "Ġsitu": 8389,
      "Ġmit": 8390,
      "duced": 8391,
      "Ġtheories": 8392,
      "ĠHuman": 8393,
      "opes": 8394,
      "Ġknows": 8395,
      "Ġpreserved": 8396,
      "Read": 8397,
      "when": 8398,
      "===": 8399,
      "Ġmilk": 8400,
      "ĠBuild": 8401,
      "Ġaller": 8402,
      "Ġpresented": 8403,
      "Ġinstrument": 8404,
      "ĠIsrael": 8405,
      "/S": 8406,
      "ĠOpen": 8407,
      "illed": 8408,
      "Ġastron": 8409,
      "CO": 8410,
      "iar": 8411,
      "Ġwest": 8412,
      "ulator": 8413,
      "ĠMP": 8414,
      "ĠWH": 8415,
      "plicate": 8416,
      "Ġconclusion": 8417,
      "Ġcalculations": 8418,
      ".name": 8419,
      "ĠHTTP": 8420,
      "Ġdial": 8421,
      "Ð°": 8422,
      "ulates": 8423,
      "Ġmistake": 8424,
      "Ġvess": 8425,
      "ĠAdditionally": 8426,
      "Ġassumed": 8427,
      "Ġvirtual": 8428,
      "Ġtissue": 8429,
      "try": 8430,
      "stuff": 8431,
      "Ġmaster": 8432,
      "Ġwanted": 8433,
      "ĠAH": 8434,
      "ĠPlease": 8435,
      "lication": 8436,
      "aneous": 8437,
      "horizontal": 8438,
      "Ġdespite": 8439,
      "ĠControl": 8440,
      "*b": 8441,
      "dy": 8442,
      "Ġslop": 8443,
      "My": 8444,
      "Ġmel": 8445,
      "Ġguide": 8446,
      "Me": 8447,
      "Ġrays": 8448,
      "update": 8449,
      "(l": 8450,
      "ĠHandling": 8451,
      "Ġtrigger": 8452,
      "Ġ$$\\": 8453,
      "ĠNASA": 8454,
      "Ġattributes": 8455,
      "Ġprices": 8456,
      "Ġ=================================": 8457,
      "ĠTop": 8458,
      "06": 8459,
      "RT": 8460,
      "Ġconfigurations": 8461,
      "Ġhundreds": 8462,
      "Ġdoll": 8463,
      "positions": 8464,
      "DB": 8465,
      "'),Ċ": 8466,
      "Ġsystematic": 8467,
      "Ġoccurred": 8468,
      "Ġexperiences": 8469,
      "Ġconfir": 8470,
      "Ġshifts": 8471,
      "=None": 8472,
      "Ġportion": 8473,
      "Form": 8474,
      "ĠGal": 8475,
      "ĠSM": 8476,
      "Ġlose": 8477,
      "osion": 8478,
      "ĠChe": 8479,
      "Ġpeace": 8480,
      "edy": 8481,
      "ĠAS": 8482,
      "ĠCourt": 8483,
      "Ġfn": 8484,
      "Ġalcohol": 8485,
      "-plane": 8486,
      "normal": 8487,
      "Ġorganic": 8488,
      "Ġdifficulty": 8489,
      ".length": 8490,
      "ĠAA": 8491,
      "onds": 8492,
      "ĠOf": 8493,
      "Ġcarried": 8494,
      "Ġboxes": 8495,
      "dist": 8496,
      "Get": 8497,
      "split": 8498,
      "eties": 8499,
      "Ġready": 8500,
      "Ġperman": 8501,
      "153": 8502,
      "query": 8503,
      "Ġtransaction": 8504,
      "175": 8505,
      "178": 8506,
      "Ġinstructions": 8507,
      "Ġtens": 8508,
      "Ġunf": 8509,
      ")$.Ċ": 8510,
      "ĠCurrent": 8511,
      "148": 8512,
      "Ġsand": 8513,
      "roduction": 8514,
      "Ġmask": 8515,
      "Ġstaff": 8516,
      "Ġcontinuity": 8517,
      "Ġdiverges": 8518,
      "ĠLike": 8519,
      "bes": 8520,
      "ĠDon": 8521,
      "Ġturned": 8522,
      "Ġattacks": 8523,
      "Ġdefinitions": 8524,
      "Ġgravitational": 8525,
      "itness": 8526,
      "TE": 8527,
      "Ġsong": 8528,
      "cursively": 8529,
      "/P": 8530,
      "gcd": 8531,
      "Implement": 8532,
      "ixture": 8533,
      "Ð¾": 8534,
      "angled": 8535,
      "ĠRedis": 8536,
      "Ġmanufact": 8537,
      "Ġmigration": 8538,
      "df": 8539,
      "vable": 8540,
      "Ġmodify": 8541,
      "Ġbelieved": 8542,
      "Ġimaginary": 8543,
      "gypt": 8544,
      "Ġdependencies": 8545,
      "Ġacknow": 8546,
      "plus": 8547,
      "221": 8548,
      "ĠOnce": 8549,
      "assword": 8550,
      "ĠStrategy": 8551,
      "Ġaggreg": 8552,
      "ĠFunction": 8553,
      "_{-": 8554,
      "Ġpayment": 8555,
      "Ġresist": 8556,
      "Ġsubgraph": 8557,
      "Ġpad": 8558,
      "Ġplease": 8559,
      "std": 8560,
      "lfloor": 8561,
      "Ġengineering": 8562,
      "Ġopportunities": 8563,
      "(âĪļ": 8564,
      "ĠMiss": 8565,
      "Â°?": 8566,
      "152": 8567,
      "Ġrain": 8568,
      "Ġepsilon": 8569,
      "Ġindependence": 8570,
      "Ġalter": 8571,
      "ĠEuler": 8572,
      "chem": 8573,
      "Ġfif": 8574,
      "Use": 8575,
      "Ġpairing": 8576,
      "Ġraised": 8577,
      "Ġspeech": 8578,
      "Ġprofessor": 8579,
      "Ġsensitivity": 8580,
      "bf": 8581,
      "177": 8582,
      "Ġbandwidth": 8583,
      "Ġiff": 8584,
      "Ġlegis": 8585,
      "ĠDesign": 8586,
      "Ġbatch": 8587,
      "Ġsurfaces": 8588,
      "/or": 8589,
      "Dis": 8590,
      "acob": 8591,
      "ĠDir": 8592,
      "137": 8593,
      "Ġratios": 8594,
      "Ġconnections": 8595,
      "rfloor": 8596,
      "{u": 8597,
      "Ġexposed": 8598,
      "Ġmanage": 8599,
      "Ġfrequencies": 8600,
      "\\{": 8601,
      "Ġflows": 8602,
      "More": 8603,
      "bles": 8604,
      "group": 8605,
      ".de": 8606,
      "ees": 8607,
      "uling": 8608,
      "Ġarticles": 8609,
      "BA": 8610,
      "Ġbright": 8611,
      "Ġunbounded": 8612,
      "sym": 8613,
      "lets": 8614,
      "olicy": 8615,
      "Ġdesired": 8616,
      "bolds": 8617,
      "Ġheap": 8618,
      "Ġseparately": 8619,
      "boldsymbol": 8620,
      "open": 8621,
      "Ġunderlying": 8622,
      "ĠBra": 8623,
      "Ġmouth": 8624,
      "IO": 8625,
      "ogle": 8626,
      "aware": 8627,
      "Ġsimilarly": 8628,
      "Each": 8629,
      "|=": 8630,
      "Ġho": 8631,
      "Script": 8632,
      "po": 8633,
      "Longrightarrow": 8634,
      "Ġship": 8635,
      "Ġpriority": 8636,
      "LA": 8637,
      "ĠRepublic": 8638,
      "Ġopening": 8639,
      "ĠVerify": 8640,
      "Ġban": 8641,
      "Ġkid": 8642,
      "Ġkil": 8643,
      "Ġcoal": 8644,
      "dp": 8645,
      "pact": 8646,
      "154": 8647,
      "163": 8648,
      "ĠEnc": 8649,
      "âīł": 8650,
      "Ġopportunity": 8651,
      "ĠProper": 8652,
      "Ġfoss": 8653,
      "alty": 8654,
      "={": 8655,
      "ĠSort": 8656,
      "Ġyellow": 8657,
      "ara": 8658,
      "ulner": 8659,
      "ĠFile": 8660,
      "Ġsky": 8661,
      "Ġannual": 8662,
      "module": 8663,
      "Ġstock": 8664,
      "Ġreads": 8665,
      "words": 8666,
      "za": 8667,
      "005": 8668,
      "Ġproposed": 8669,
      "Number": 8670,
      "]$": 8671,
      "ĠSen": 8672,
      "ĠIP": 8673,
      "Ġintersections": 8674,
      "ĠSee": 8675,
      "Ġrigorous": 8676,
      "ĠMedicine": 8677,
      "Ġorganizations": 8678,
      "Ġeggs": 8679,
      "Ġprincipal": 8680,
      "Ġinference": 8681,
      "171": 8682,
      "Ġappoint": 8683,
      "_con": 8684,
      "ano": 8685,
      "arithm": 8686,
      "ĠFran": 8687,
      "ĠGlobal": 8688,
      "Ġauto": 8689,
      "heres": 8690,
      "ribute": 8691,
      "Ġantip": 8692,
      "Ġdistributions": 8693,
      "ademic": 8694,
      "ENT": 8695,
      "white": 8696,
      "omorphism": 8697,
      "vas": 8698,
      "Ġbases": 8699,
      "Ġauthors": 8700,
      "(ab": 8701,
      "Ġconven": 8702,
      "Ġmirror": 8703,
      "Ġcontainer": 8704,
      "Ġ(âĪĳ": 8705,
      "Ġstorm": 8706,
      "status": 8707,
      "Ġtour": 8708,
      "ĠGP": 8709,
      "Ġteach": 8710,
      "Ġcampaign": 8711,
      "inner": 8712,
      "Ġballs": 8713,
      "343": 8714,
      "Ġdeduce": 8715,
      "Ġvote": 8716,
      "Ġarccos": 8717,
      "ĠMechan": 8718,
      "Ġintensity": 8719,
      "Ġpartners": 8720,
      "(K": 8721,
      "ĠDetermine": 8722,
      "mic": 8723,
      "Ġ*/Ċ": 8724,
      "}$$Ċ": 8725,
      "Ġamounts": 8726,
      ".info": 8727,
      "Ġsections": 8728,
      "Ġnaturally": 8729,
      "static": 8730,
      "ĠFibonacci": 8731,
      "âĤĢ": 8732,
      "wedge": 8733,
      "emo": 8734,
      "Ġlinearly": 8735,
      "Ġprocessor": 8736,
      "Ġjobs": 8737,
      "Ġclarify": 8738,
      "Ġcompl": 8739,
      "Ġapparent": 8740,
      "{t": 8741,
      "Goal": 8742,
      "Ġminute": 8743,
      "_url": 8744,
      "Ġurban": 8745,
      "151": 8746,
      "Ġelectrical": 8747,
      "Ġellipse": 8748,
      "+u": 8749,
      "idates": 8750,
      "_by": 8751,
      "Ġqual": 8752,
      "Ġsupports": 8753,
      "Ġconverges": 8754,
      "Ġfilm": 8755,
      "Ġslowly": 8756,
      "Ġschedule": 8757,
      "amm": 8758,
      "Ġscores": 8759,
      "stant": 8760,
      "area": 8761,
      "252": 8762,
      "285": 8763,
      "Ġfriction": 8764,
      "-type": 8765,
      "aria": 8766,
      "number": 8767,
      "ramid": 8768,
      "Ġsounds": 8769,
      "ĠComput": 8770,
      "Ġnums": 8771,
      "Ġsustainable": 8772,
      "Ġparabola": 8773,
      ".error": 8774,
      "ulum": 8775,
      "-and": 8776,
      "Ġcert": 8777,
      "BM": 8778,
      "car": 8779,
      "http": 8780,
      "racy": 8781,
      "Ġrespond": 8782,
      "mis": 8783,
      "Ġwet": 8784,
      "Ġ-âĪļ": 8785,
      "142": 8786,
      "Ġprem": 8787,
      "Ġprevents": 8788,
      "het": 8789,
      "Ġdecades": 8790,
      "sip": 8791,
      "Ġsaying": 8792,
      "sg": 8793,
      "ocument": 8794,
      "Ġiterate": 8795,
      "-N": 8796,
      "Ġwhom": 8797,
      "ĠON": 8798,
      "lockwise": 8799,
      "ploy": 8800,
      "unit": 8801,
      "Ġwavelength": 8802,
      "ĠEuclidean": 8803,
      "warz": 8804,
      "Ġindustrial": 8805,
      "Ġow": 8806,
      "ĠDirect": 8807,
      "Ġquotient": 8808,
      "Ġsouthern": 8809,
      "Conclusion": 8810,
      "Ġmetrics": 8811,
      "Fe": 8812,
      "ĠDer": 8813,
      "ĠFR": 8814,
      "Ġages": 8815,
      "Ġguaranteed": 8816,
      "ĠMexico": 8817,
      "iance": 8818,
      "Ġeconom": 8819,
      "ĠGeorge": 8820,
      "Ġstated": 8821,
      "Ġpromote": 8822,
      "Ġverb": 8823,
      "Ġhelped": 8824,
      "Ġ...Ċ": 8825,
      "Ġisot": 8826,
      "Ġdevi": 8827,
      "Ġwidely": 8828,
      "Ġrecommended": 8829,
      "Ġsubgroup": 8830,
      "âķĲ": 8831,
      "Ġextensions": 8832,
      "Ġgrand": 8833,
      "875": 8834,
      "Status": 8835,
      "456": 8836,
      "Ġbreaking": 8837,
      "Ġdrawing": 8838,
      "Ġdangerous": 8839,
      "161": 8840,
      "Ġtransmission": 8841,
      "Answer": 8842,
      "iant": 8843,
      "Ġproteins": 8844,
      "ĠISBN": 8845,
      "anes": 8846,
      "Ġspot": 8847,
      "ĠGovernment": 8848,
      "ĠOK": 8849,
      "Ġvision": 8850,
      "Ġ{}": 8851,
      "Ġ&=": 8852,
      "Ġposs": 8853,
      "Ġmanner": 8854,
      "Ġ::": 8855,
      "Ġimplemented": 8856,
      "OB": 8857,
      "Ġmessy": 8858,
      "AE": 8859,
      "Ġclick": 8860,
      "ĠDjango": 8861,
      "ĠHol": 8862,
      "Ġshut": 8863,
      "ermit": 8864,
      "ĠCommon": 8865,
      "mean": 8866,
      "PR": 8867,
      "oo": 8868,
      "ria": 8869,
      "displaystyle": 8870,
      "lick": 8871,
      "Ġbird": 8872,
      "_pre": 8873,
      "Ġhaz": 8874,
      "\\\\Ċ": 8875,
      "\\_": 8876,
      "rig": 8877,
      "Expl": 8878,
      "Ġtension": 8879,
      "167": 8880,
      "Ġinvertible": 8881,
      "bel": 8882,
      "rick": 8883,
      "\\nu": 8884,
      "Ġrisks": 8885,
      "varphi": 8886,
      "Ġgenerates": 8887,
      "Ġattained": 8888,
      "ubble": 8889,
      "CS": 8890,
      "Ġexclude": 8891,
      "Ġinfections": 8892,
      "Ġamplitude": 8893,
      "-res": 8894,
      "Ġconstit": 8895,
      "Ġmodules": 8896,
      "Ġcooper": 8897,
      "Ġcloud": 8898,
      "Ġoccas": 8899,
      "Ġtemplate": 8900,
      "401": 8901,
      "rink": 8902,
      "Ġfert": 8903,
      "Ġexplaining": 8904,
      "Ġmasses": 8905,
      "Ġpermission": 8906,
      "Ġkilled": 8907,
      ",f": 8908,
      "Ġmere": 8909,
      "ĠManagement": 8910,
      "Ġclassroom": 8911,
      "289": 8912,
      "include": 8913,
      "ĠTex": 8914,
      "Ġregularity": 8915,
      "Ġgirls": 8916,
      "'B": 8917,
      "versal": 8918,
      "Ġplanar": 8919,
      "').": 8920,
      "vice": 8921,
      "Ġ[(": 8922,
      "Ġnumerical": 8923,
      "ĠHall": 8924,
      "aughter": 8925,
      "Ġcontrolled": 8926,
      "Ġmonitoring": 8927,
      "ĠLibrary": 8928,
      "ĠBen": 8929,
      "Ġbreath": 8930,
      "--------------------------------------------------------------------": 8931,
      "Pos": 8932,
      "ĠASC": 8933,
      "ĠMiddle": 8934,
      "Ġregime": 8935,
      "ĠMount": 8936,
      "Ġinduction": 8937,
      "ĠAlex": 8938,
      "Recall": 8939,
      "Ġrout": 8940,
      "ĠPhase": 8941,
      "Ġsorting": 8942,
      "inters": 8943,
      "umes": 8944,
      "Ġpole": 8945,
      "Ġchannels": 8946,
      "Ġpipeline": 8947,
      "Ġbattle": 8948,
      "Ġrotating": 8949,
      "Ġtro": 8950,
      "ĠRich": 8951,
      "Ġimply": 8952,
      "ĠFinally": 8953,
      "ersion": 8954,
      "They": 8955,
      "acific": 8956,
      "Ġvalidate": 8957,
      "-K": 8958,
      "Ġion": 8959,
      "ĠNews": 8960,
      "ĠDel": 8961,
      "Ġsurvive": 8962,
      "ĠLou": 8963,
      "Ġnontrivial": 8964,
      "aph": 8965,
      "riend": 8966,
      "vest": 8967,
      "ramework": 8968,
      "Ġelev": 8969,
      "366": 8970,
      "ĠChildren": 8971,
      "ĠWhite": 8972,
      "Ġquarter": 8973,
      "Ġinnov": 8974,
      "Ġisolation": 8975,
      "ching": 8976,
      "bor": 8977,
      "ĠBob": 8978,
      "Ġelectro": 8979,
      "Second": 8980,
      "Ġcook": 8981,
      "ipp": 8982,
      "Most": 8983,
      "ulative": 8984,
      ")+(": 8985,
      "(Î²": 8986,
      "Ġoccupied": 8987,
      "connected": 8988,
      "UR": 8989,
      "aa": 8990,
      "sembly": 8991,
      "Ġholes": 8992,
      "Ġplaying": 8993,
      "Ġcouple": 8994,
      "Ġsurvival": 8995,
      "/C": 8996,
      "ĠProduct": 8997,
      "unctions": 8998,
      "ĠAtl": 8999,
      "ĠQue": 9000,
      "Ġreligion": 9001,
      "ĠGreek": 9002,
      "`)": 9003,
      "Ġowners": 9004,
      "Ġalphabet": 9005,
      "Î½": 9006,
      "ena": 9007,
      "uffer": 9008,
      "âģ»": 9009,
      "Ġdisapp": 9010,
      "rastructure": 9011,
      "ĠEgypt": 9012,
      "otimes": 9013,
      "istence": 9014,
      ".id": 9015,
      "Ġhun": 9016,
      "Ġmodular": 9017,
      "Ġentanglement": 9018,
      "ĠOrgan": 9019,
      "Ġdownload": 9020,
      "-z": 9021,
      "[-": 9022,
      ")}.ĊĊ": 9023,
      "Ġinduced": 9024,
      "Ðµ": 9025,
      "cible": 9026,
      "Ġinfo": 9027,
      "pan": 9028,
      "Ġwonder": 9029,
      "Ġlic": 9030,
      "ĠRef": 9031,
      "ventory": 9032,
      "Ġincorporate": 9033,
      "ĠPhil": 9034,
      "subset": 9035,
      "ĠEv": 9036,
      "connect": 9037,
      "uns": 9038,
      "Ġhomogeneous": 9039,
      "-degree": 9040,
      "ĠPD": 9041,
      "Ġimmediate": 9042,
      "Ġsignature": 9043,
      "ĠIslam": 9044,
      "Lambda": 9045,
      "ipped": 9046,
      "lat": 9047,
      "ville": 9048,
      "Ġdemonstrate": 9049,
      "core": 9050,
      "pack": 9051,
      "Ġbed": 9052,
      "Ġcitizens": 9053,
      "Ġstores": 9054,
      "Ġlived": 9055,
      "-be": 9056,
      "UN": 9057,
      "_num": 9058,
      "aks": 9059,
      "General": 9060,
      "220": 9061,
      "384": 9062,
      "ĠContin": 9063,
      "lines": 9064,
      "{z": 9065,
      "rag": 9066,
      "Ġmagnet": 9067,
      "ĠDraw": 9068,
      "ĠHTML": 9069,
      "/z": 9070,
      "ĠCons": 9071,
      "Ġmostly": 9072,
      "Ġobjective": 9073,
      "uses": 9074,
      "Ġelectricity": 9075,
      "Ġsubsequent": 9076,
      "),\\": 9077,
      "Ġsensitive": 9078,
      "Ġnarrow": 9079,
      "Ġreact": 9080,
      "umin": 9081,
      "scopic": 9082,
      "ĠLower": 9083,
      "Ġgoals": 9084,
      "âķĲâķĲ": 9085,
      "ĠBP": 9086,
      "Ġprepar": 9087,
      "ĠEdge": 9088,
      "orking": 9089,
      "Ġhomes": 9090,
      "ĠCy": 9091,
      "common": 9092,
      "Ġimproved": 9093,
      "Ġfear": 9094,
      "Ġbrack": 9095,
      "Ġrevolution": 9096,
      "ĠFerm": 9097,
      "orrelation": 9098,
      "155": 9099,
      "GE": 9100,
      "igration": 9101,
      "Ġ$(\\": 9102,
      "Ġretrie": 9103,
      "Ġassumptions": 9104,
      "Ġpreced": 9105,
      "\\!\\": 9106,
      "Ġcollected": 9107,
      "Ġserved": 9108,
      "IA": 9109,
      "Ġtemp": 9110,
      "ĠRepresent": 9111,
      "Ġconcaten": 9112,
      "ĠEnsure": 9113,
      "Ġpile": 9114,
      "astern": 9115,
      "ensitive": 9116,
      "ĠPlace": 9117,
      "ĠCentral": 9118,
      "(j": 9119,
      "Ġpreventing": 9120,
      "}}{\\": 9121,
      "same": 9122,
      "Ġimplications": 9123,
      "${": 9124,
      "Ġoct": 9125,
      "158": 9126,
      "Ġoptimum": 9127,
      "bigl": 9128,
[...]
