{
  "version": "1.0",
  "truncation": null,
  "padding": null,
  "added_tokens": [
    {
      "id": 0,
      "content": "<|pad|>",
      "single_word": false,
      "lstrip": false,
      "rstrip": false,
      "normalized": false,
      "special": true
    },
    {
      "id": 1,
      "content": "<|bos|>",
      "single_word": false,
      "lstrip": false,
      "rstrip": false,
      "normalized": false,
      "special": true
    },
    {
      "id": 2,
      "content": "<|eos|>",
      "single_word": false,
      "lstrip": false,
      "rstrip": false,
      "normalized": false,
      "special": true
    },
    {
      "id": 3,
      "content": "<|unk|>",
      "single_word": false,
      "lstrip": false,
      "rstrip": false,
      "normalized": false,
      "special": true
    },
    {
      "id": 4,
      "content": "<|im_start|>",
      "single_word": false,
      "lstrip": false,
      "rstrip": false,
      "normalized": false,
      "special": true
    },
    {
      "id": 5,
      "content": "<|im_end|>",
      "single_word": false,
      "lstrip": false,
      "rstrip": false,
      "normalized": false,
      "special": true
    },
    {
      "id": 6,
      "content": "<|system|>",
      "single_word": false,
      "lstrip": false,
      "rstrip": false,
      "normalized": false,
      "special": true
    },
    {
      "id": 7,
      "content": "<|user|>",
      "single_word": false,
      "lstrip": false,
      "rstrip": false,
      "normalized": false,
      "special": true
    },
    {
      "id": 8,
      "content": "<|assistant|>",
      "single_word": false,
      "lstrip": false,
      "rstrip": false,
      "normalized": false,
      "special": true
    },
    {
      "id": 9,
      "content": "<|think|>",
      "single_word": false,
      "lstrip": false,
      "rstrip": false,
      "normalized": false,
      "special": true
    },
    {
      "id": 10,
      "content": "<|/think|>",
      "single_word": false,
      "lstrip": false,
      "rstrip": false,
      "normalized": false,
      "special": true
    },
    {
      "id": 11,
      "content": "<|answer|>",
      "single_word": false,
      "lstrip": false,
      "rstrip": false,
      "normalized": false,
      "special": true
    },
    {
      "id": 12,
      "content": "<|/answer|>",
      "single_word": false,
      "lstrip": false,
      "rstrip": false,
      "normalized": false,
      "special": true
    },
    {
      "id": 13,
      "content": "<|tool_call|>",
      "single_word": false,
      "lstrip": false,
      "rstrip": false,
      "normalized": false,
      "special": true
    },
    {
      "id": 14,
      "content": "<|/tool_call|>",
      "single_word": false,
      "lstrip": false,
      "rstrip": false,
      "normalized": false,
      "special": true
    },
    {
      "id": 15,
      "content": "<|tool_result|>",
      "single_word": false,
      "lstrip": false,
      "rstrip": false,
      "normalized": false,
      "special": true
    },
    {
      "id": 16,
      "content": "<|/tool_result|>",
      "single_word": false,
      "lstrip": false,
      "rstrip": false,
      "normalized": false,
      "special": true
    },
    {
      "id": 17,
      "content": "<|image|>",
      "single_word": false,
      "lstrip": false,
      "rstrip": false,
      "normalized": false,
      "special": true
    },
    {
      "id": 18,
      "content": "<|/image|>",
      "single_word": false,
      "lstrip": false,
      "rstrip": false,
      "normalized": false,
      "special": true
    },
    {
      "id": 19,
      "content": "<|patch|>",
      "single_word": false,
      "lstrip": false,
      "rstrip": false,
      "normalized": false,
      "special": true
    },
    {
      "id": 20,
      "content": "<|fim_prefix|>",
      "single_word": false,
      "lstrip": false,
      "rstrip": false,
      "normalized": false,
      "special": true
    },
    {
      "id": 21,
      "content": "<|fim_middle|>",
      "single_word": false,
      "lstrip": false,
      "rstrip": false,
      "normalized": false,
      "special": true
    },
    {
      "id": 22,
      "content": "<|fim_suffix|>",
      "single_word": false,
      "lstrip": false,
      "rstrip": false,
      "normalized": false,
      "special": true
    },
    {
      "id": 23,
      "content": "<|alpha|>",
      "single_word": false,
      "lstrip": false,
      "rstrip": false,
      "normalized": false,
      "special": true
    },
    {
      "id": 24,
      "content": "<|beta|>",
      "single_word": false,
      "lstrip": false,
      "rstrip": false,
      "normalized": false,
      "special": true
    },
    {
      "id": 25,
      "content": "<|reserved_0|>",
      "single_word": false,
      "lstrip": false,
      "rstrip": false,
      "normalized": false,
      "special": true
    },
    {
      "id": 26,
      "content": "<|reserved_1|>",
      "single_word": false,
      "lstrip": false,
      "rstrip": false,
      "normalized": false,
      "special": true
    },
    {
      "id": 27,
      "content": "<|reserved_2|>",
      "single_word": false,
      "lstrip": false,
      "rstrip": false,
      "normalized": false,
      "special": true
    },
    {
      "id": 28,
      "content": "<|reserved_3|>",
      "single_word": false,
      "lstrip": false,
      "rstrip": false,
      "normalized": false,
      "special": true
    },
    {
      "id": 29,
      "content": "<|reserved_4|>",
      "single_word": false,
      "lstrip": false,
      "rstrip": false,
      "normalized": false,
      "special": true
    },
    {
      "id": 30,
      "content": "<|reserved_5|>",
      "single_word": false,
      "lstrip": false,
      "rstrip": false,
      "normalized": false,
      "special": true
    },
    {
      "id": 31,
      "content": "<|reserved_6|>",
      "single_word": false,
      "lstrip": false,
      "rstrip": false,
      "normalized": false,
      "special": true
    }
  ],
  "normalizer": {
    "type": "NFC"
  },
  "pre_tokenizer": {
    "type": "Sequence",
    "pretokenizers": [
      {
        "type": "Split",
        "pattern": {
          "Regex": "(?i:'s|'t|'re|'ve|'m|'ll|'d)|[^\\r\\n\\p{L}\\p{N}]?+\\p{L}+|\\p{N}{1,3}| ?[^\\s\\p{L}\\p{N}]++[\\r\\n]*|\\s*[\\r\\n]|\\s+(?!\\S)|\\s+"
        },
        "behavior": "Isolated",
        "invert": false
      },
      {
        "type": "ByteLevel",
        "add_prefix_space": false,
        "trim_offsets": true,
        "use_regex": false
      }
    ]
  },
  "post_processor": null,
  "decoder": {
    "type": "ByteLevel",
    "add_prefix_space": true,
    "trim_offsets": true,
    "use_regex": true
  },
  "model": {
    "type": "BPE",
    "dropout": null,
    "unk_token": "<|unk|>",
    "continuing_subword_prefix": null,
    "end_of_word_suffix": null,
    "fuse_unk": false,
    "byte_fallback": false,
    "ignore_merges": false,
    "vocab": {
      "<|pad|>": 0,
      "<|bos|>": 1,
      "<|eos|>": 2,
      "<|unk|>": 3,
      "<|im_start|>": 4,
      "<|im_end|>": 5,
      "<|system|>": 6,
      "<|user|>": 7,
      "<|assistant|>": 8,
      "<|think|>": 9,
      "<|/think|>": 10,
      "<|answer|>": 11,
      "<|/answer|>": 12,
      "<|tool_call|>": 13,
      "<|/tool_call|>": 14,
      "<|tool_result|>": 15,
      "<|/tool_result|>": 16,
      "<|image|>": 17,
      "<|/image|>": 18,
      "<|patch|>": 19,
      "<|fim_prefix|>": 20,
      "<|fim_middle|>": 21,
      "<|fim_suffix|>": 22,
      "<|alpha|>": 23,
      "<|beta|>": 24,
      "<|reserved_0|>": 25,
      "<|reserved_1|>": 26,
      "<|reserved_2|>": 27,
      "<|reserved_3|>": 28,
      "<|reserved_4|>": 29,
      "<|reserved_5|>": 30,
      "<|reserved_6|>": 31,
      "!": 32,
      "\"": 33,
      "#": 34,
      "$": 35,
      "%": 36,
      "&": 37,
      "'": 38,
      "(": 39,
      ")": 40,
      "*": 41,
      "+": 42,
      ",": 43,
      "-": 44,
      ".": 45,
      "/": 46,
      "0": 47,
      "1": 48,
      "2": 49,
      "3": 50,
      "4": 51,
      "5": 52,
      "6": 53,
      "7": 54,
      "8": 55,
      "9": 56,
      ":": 57,
      ";": 58,
      "<": 59,
      "=": 60,
      ">": 61,
      "?": 62,
      "@": 63,
      "A": 64,
      "B": 65,
      "C": 66,
      "D": 67,
      "E": 68,
      "F": 69,
      "G": 70,
      "H": 71,
      "I": 72,
      "J": 73,
      "K": 74,
      "L": 75,
      "M": 76,
      "N": 77,
      "O": 78,
      "P": 79,
      "Q": 80,
      "R": 81,
      "S": 82,
      "T": 83,
      "U": 84,
      "V": 85,
      "W": 86,
      "X": 87,
      "Y": 88,
      "Z": 89,
      "[": 90,
      "\\": 91,
      "]": 92,
      "^": 93,
      "_": 94,
      "`": 95,
      "a": 96,
      "b": 97,
      "c": 98,
      "d": 99,
      "e": 100,
      "f": 101,
      "g": 102,
      "h": 103,
      "i": 104,
      "j": 105,
      "k": 106,
      "l": 107,
      "m": 108,
      "n": 109,
      "o": 110,
      "p": 111,
      "q": 112,
      "r": 113,
      "s": 114,
      "t": 115,
      "u": 116,
      "v": 117,
      "w": 118,
      "x": 119,
      "y": 120,
      "z": 121,
      "{": 122,
      "|": 123,
      "}": 124,
      "~": 125,
      "¡": 126,
      "¢": 127,
      "£": 128,
      "¤": 129,
      "¥": 130,
      "¦": 131,
      "§": 132,
      "¨": 133,
      "©": 134,
      "ª": 135,
      "«": 136,
      "¬": 137,
      "®": 138,
      "¯": 139,
      "°": 140,
      "±": 141,
      "²": 142,
      "³": 143,
      "´": 144,
      "µ": 145,
      "¶": 146,
      "·": 147,
      "¸": 148,
      "¹": 149,
      "º": 150,
      "»": 151,
      "¼": 152,
      "½": 153,
      "¾": 154,
      "¿": 155,
      "À": 156,
      "Á": 157,
      "Â": 158,
      "Ã": 159,
      "Ä": 160,
      "Å": 161,
      "Æ": 162,
      "Ç": 163,
      "È": 164,
      "É": 165,
      "Ê": 166,
      "Ë": 167,
      "Ì": 168,
      "Í": 169,
      "Î": 170,
      "Ï": 171,
      "Ð": 172,
      "Ñ": 173,
      "Ò": 174,
      "Ó": 175,
      "Ô": 176,
      "Õ": 177,
      "Ö": 178,
      "×": 179,
      "Ø": 180,
      "Ù": 181,
      "Ú": 182,
      "Û": 183,
      "Ü": 184,
      "Ý": 185,
      "Þ": 186,
      "ß": 187,
      "à": 188,
      "á": 189,
      "â": 190,
      "ã": 191,
      "ä": 192,
      "å": 193,
      "æ": 194,
      "ç": 195,
      "è": 196,
      "é": 197,
      "ê": 198,
      "ë": 199,
      "ì": 200,
      "í": 201,
      "î": 202,
      "ï": 203,
      "ð": 204,
      "ñ": 205,
      "ò": 206,
      "ó": 207,
      "ô": 208,
      "õ": 209,
      "ö": 210,
      "÷": 211,
      "ø": 212,
      "ù": 213,
      "ú": 214,
      "û": 215,
      "ü": 216,
      "ý": 217,
      "þ": 218,
      "ÿ": 219,
      "Ā": 220,
      "ā": 221,
      "Ă": 222,
      "ă": 223,
      "Ą": 224,
      "ą": 225,
      "Ć": 226,
      "ć": 227,
      "Ĉ": 228,
      "ĉ": 229,
      "Ċ": 230,
      "ċ": 231,
      "Č": 232,
      "č": 233,
      "Ď": 234,
      "ď": 235,
      "Đ": 236,
      "đ": 237,
      "Ē": 238,
      "ē": 239,
      "Ĕ": 240,
      "ĕ": 241,
      "Ė": 242,
      "ė": 243,
      "Ę": 244,
      "ę": 245,
      "Ě": 246,
      "ě": 247,
      "Ĝ": 248,
      "ĝ": 249,
      "Ğ": 250,
      "ğ": 251,
      "Ġ": 252,
      "ġ": 253,
      "Ģ": 254,
      "ģ": 255,
      "Ĥ": 256,
      "ĥ": 257,
      "Ħ": 258,
      "ħ": 259,
      "Ĩ": 260,
      "ĩ": 261,
      "Ī": 262,
      "ī": 263,
      "Ĭ": 264,
      "ĭ": 265,
      "Į": 266,
      "į": 267,
      "İ": 268,
      "ı": 269,
      "Ĳ": 270,
      "ĳ": 271,
      "Ĵ": 272,
      "ĵ": 273,
      "Ķ": 274,
      "ķ": 275,
      "ĸ": 276,
      "Ĺ": 277,
      "ĺ": 278,
      "Ļ": 279,
      "ļ": 280,
      "Ľ": 281,
      "ľ": 282,
      "Ŀ": 283,
      "ŀ": 284,
      "Ł": 285,
      "ł": 286,
      "Ń": 287,
      "Ġt": 288,
      "ĠĠ": 289,
      "Ġa": 290,
      "in": 291,
      "he": 292,
      "on": 293,
      "re": 294,
      "er": 295,
      "Ġs": 296,
      "at": 297,
      "Ġthe": 298,
      "Ġc": 299,
      "or": 300,
      "en": 301,
      "is": 302,
      "al": 303,
      "Ġf": 304,
      "es": 305,
      "it": 306,
      "Ġp": 307,
      "an": 308,
      "Ġ=": 309,
      "Ġw": 310,
      "ĠĠĠĠ": 311,
      "Ġb": 312,
      "Ġo": 313,
      "ion": 314,
      "Ġ(": 315,
      "Ġm": 316,
      "ed": 317,
      "Ġan": 318,
      "ar": 319,
      "Ġd": 320,
      "ing": 321,
      "le": 322,
      "Ġin": 323,
      "ro": 324,
      "ct": 325,
      "ĊĊ": 326,
      "Ġof": 327,
      "Ġto": 328,
      "ic": 329,
      "Ġn": 330,
      "Ġ-": 331,
      "ut": 332,
      "Ġis": 333,
      "us": 334,
      "Ġe": 335,
      "ent": 336,
      "Ġand": 337,
      "ĠS": 338,
      "et": 339,
      "as": 340,
      "Ġth": 341,
      "Ġre": 342,
      "ve": 343,
      "om": 344,
      "ly": 345,
      "Ġl": 346,
      "Ġ+": 347,
      "im": 348,
      "Ġh": 349,
      "ou": 350,
      "ĠT": 351,
      ".ĊĊ": 352,
      "ĠA": 353,
      "ot": 354,
      "ra": 355,
      "id": 356,
      "ation": 357,
      "st": 358,
      "ol": 359,
      "Ġfor": 360,
      "ĠĠĠ": 361,
      "ce": 362,
      "ig": 363,
      "Ġg": 364,
      "**": 365,
      "il": 366,
      "ow": 367,
      "qu": 368,
      "Ġbe": 369,
      "Ġ\\": 370,
      "Ġwe": 371,
      "if": 372,
      "Ġâ": 373,
      "Ġcon": 374,
      "ch": 375,
      "um": 376,
      "os": 377,
      "ul": 378,
      "ĠI": 379,
      "Ġthat": 380,
      "ĠC": 381,
      "ver": 382,
      ").": 383,
      "el": 384,
      "Ġy": 385,
      "ĠSo": 386,
      "un": 387,
      "ur": 388,
      "ĠĠĠĠĠĠĠĠ": 389,
      "ith": 390,
      "ĠB": 391,
      "Ġon": 392,
      "Ġst": 393,
      "ĠThe": 394,
      ".Ċ": 395,
      "ir": 396,
      "am": 397,
      "--": 398,
      "Ġpro": 399,
      "ter": 400,
      "ĠL": 401,
      "Ġex": 402,
      "od": 403,
      "Ġwith": 404,
      "Ġx": 405,
      "Ġ$": 406,
      "Ġor": 407,
      "ay": 408,
      "Ġv": 409,
      "res": 410,
      "ate": 411,
      "ive": 412,
      "Ġas": 413,
      "ist": 414,
      "ag": 415,
      "'s": 416,
      "Ġr": 417,
      "te": 418,
      "Ġal": 419,
      "se": 420,
      "Ġne": 421,
      "Ġare": 422,
      "ri": 423,
      "ĠM": 424,
      "00": 425,
      "Ġcan": 426,
      "ction": 427,
      "Ġat": 428,
      "ĠP": 429,
      "ad": 430,
      "igh": 431,
      ":Ċ": 432,
      "Ġ\"": 433,
      "ity": 434,
      "Ġcom": 435,
      "pe": 436,
      "th": 437,
      "Ġit": 438,
      "ble": 439,
      "iv": 440,
      "ally": 441,
      "ts": 442,
      ")Ċ": 443,
      "Ġk": 444,
      "ĠR": 445,
      "rom": 446,
      "ĠF": 447,
      "ers": 448,
      "Ġnot": 449,
      "Ġwh": 450,
      "Ġde": 451,
      "ĠĠĠĠĠĠĠ": 452,
      "ment": 453,
      "Ġâī": 454,
      "ang": 455,
      "end": 456,
      "ine": 457,
      "ess": 458,
      "pp": 459,
      "Ġus": 460,
      "her": 461,
      "ave": 462,
      "ight": 463,
      "ĠD": 464,
      "oun": 465,
      "ck": 466,
      "and": 467,
      "ld": 468,
      "Ġby": 469,
      "Ġsu": 470,
      "==": 471,
      "ĠE": 472,
      "est": 473,
      "ĠN": 474,
      "lo": 475,
      "Ġfrom": 476,
      "Ġse": 477,
      "art": 478,
      "Ġ**": 479,
      "ĠH": 480,
      "^{": 481,
      "ant": 482,
      "ain": 483,
      "pt": 484,
      "(x": 485,
      "Ġch": 486,
      "ĠÎ": 487,
      "ĠW": 488,
      "Th": 489,
      "Ġhave": 490,
      "de": 491,
      "all": 492,
      "Ġcomp": 493,
      "ore": 494,
      "),": 495,
      "ies": 496,
      "âĢ": 497,
      "Ġle": 498,
      "ĠO": 499,
      "ren": 500,
      "ctu": 501,
      "Ġif": 502,
      "ould": 503,
      "pl": 504,
      "em": 505,
      "iz": 506,
      "ab": 507,
      "ust": 508,
      "rt": 509,
      "<|": 510,
      "|>": 511,
      "Ġhe": 512,
      "act": 513,
      "ass": 514,
      "Ġun": 515,
      "up": 516,
      "Thus": 517,
      "ide": 518,
      "Ġsh": 519,
      "ke": 520,
      "ach": 521,
      "Ġ|": 522,
      "fe": 523,
      "----": 524,
      "Ġneed": 525,
      "ial": 526,
      "Ġpo": 527,
      "per": 528,
      "ition": 529,
      "ĠTh": 530,
      "ĠIn": 531,
      "ans": 532,
      "int": 533,
      "Ġ*": 534,
      "qrt": 535,
      "ac": 536,
      "ich": 537,
      "bo": 538,
      "ds": 539,
      "ase": 540,
      "der": 541,
      ")^": 542,
      "ĠG": 543,
      "_{": 544,
      "cl": 545,
      "xt": 546,
      "ap": 547,
      "Ġthis": 548,
      "ge": 549,
      "ĠLet": 550,
      "Ġbut": 551,
      "ple": 552,
      "Ġme": 553,
      "Ġdi": 554,
      "ill": 555,
      "ult": 556,
      "Ġwhe": 557,
      "ort": 558,
      "Ġ/": 559,
      "red": 560,
      "ue": 561,
      "ical": 562,
      "ome": 563,
      "ution": 564,
      "Ġper": 565,
      "our": 566,
      "og": 567,
      "Ġim": 568,
      "Ġ'": 569,
      "10": 570,
      "..": 571,
      "age": 572,
      "Ġtr": 573,
      "rac": 574,
      "wer": 575,
      "so": 576,
      "ative": 577,
      "orm": 578,
      "The": 579,
      "âĪ": 580,
      "Ġall": 581,
      "Ġnum": 582,
      "gh": 583,
      "}{": 584,
      "ĠU": 585,
      "``": 586,
      "erm": 587,
      "ame": 588,
      "frac": 589,
      "ated": 590,
      "ĠBut": 591,
      "Ġthey": 592,
      "ince": 593,
      "Ġres": 594,
      "Ġwhich": 595,
      "19": 596,
      "du": 597,
      ")/": 598,
      "ctually": 599,
      "are": 600,
      "be": 601,
      "Ġsol": 602,
      "ations": 603,
      "Ġso": 604,
      "to": 605,
      "20": 606,
      "ute": 607,
      "ure": 608,
      "Ġfin": 609,
      "Ġad": 610,
      ":ĊĊ": 611,
      "ĠĠĠĠĠĠĠĠĠĠĠ": 612,
      "ite": 613,
      "ip": 614,
      "ud": 615,
      "Ġsqrt": 616,
      "Ġcont": 617,
      "Ġinter": 618,
      "ens": 619,
      "Ġmod": 620,
      "Ġmay": 621,
      "ther": 622,
      "ft": 623,
      "ÏĢ": 624,
      "ary": 625,
      "Ġ`": 626,
      "====": 627,
      "Ġany": 628,
      "Ġinte": 629,
      "Ġline": 630,
      "ph": 631,
      "Ġ=>": 632,
      "Ġpos": 633,
      "Ġequ": 634,
      "##": 635,
      "Ġro": 636,
      "Ġtw": 637,
      "25": 638,
      "elf": 639,
      "Ġhas": 640,
      "ger": 641,
      "Ġver": 642,
      "ound": 643,
      "ink": 644,
      "ĠâĪ": 645,
      "Ġpl": 646,
      "Ġdo": 647,
      "Ġsin": 648,
      "ific": 649,
      "ll": 650,
      "con": 651,
      "ost": 652,
      "ber": 653,
      "Ġsqu": 654,
      "Ġar": 655,
      "cc": 656,
      "Ġyou": 657,
      "ard": 658,
      "ect": 659,
      "Ġ>": 660,
      "12": 661,
      "ep": 662,
      "Ġqu": 663,
      "ru": 664,
      "|>Ċ": 665,
      "ath": 666,
      "Ġreg": 667,
      "ĠActually": 668,
      "urn": 669,
      "ence": 670,
      "ates": 671,
      "ance": 672,
      "ator": 673,
      "Ġcl": 674,
      "Ġli": 675,
      "Ġeach": 676,
      "swer": 677,
      "dition": 678,
      "ime": 679,
      "Ġapp": 680,
      "Ġma": 681,
      "able": 682,
      "Ġabo": 683,
      "Ġfun": 684,
      "Ġ[": 685,
      "Ġexp": 686,
      "Ġalso": 687,
      "Ġ$\\": 688,
      "Ġtwo": 689,
      "))": 690,
      "Ġen": 691,
      "irc": 692,
      "Ġspe": 693,
      "ork": 694,
      "Ġwas": 695,
      "ents": 696,
      "aus": 697,
      "ous": 698,
      "ress": 699,
      "Ġ{": 700,
      "Ġform": 701,
      "Ġu": 702,
      "Ġthere": 703,
      "ints": 704,
      "ĠFor": 705,
      "ular": 706,
      "eth": 707,
      "11": 708,
      "Ġout": 709,
      "rent": 710,
      "ĠK": 711,
      "Ġ\\(": 712,
      "tern": 713,
      "Ġmat": 714,
      "own": 715,
      "Ġthen": 716,
      "form": 717,
      "Ġanswer": 718,
      "Ġone": 719,
      "Ġcos": 720,
      "ast": 721,
      "ile": 722,
      "Ġval": 723,
      "ĠâīĪ": 724,
      "Ġcol": 725,
      "ount": 726,
      "ew": 727,
      "ign": 728,
      "blem": 729,
      "Ġbec": 730,
      "Ġwhere": 731,
      "rect": 732,
      "one": 733,
      "ose": 734,
      "Ġsum": 735,
      "Ġconst": 736,
      "ari": 737,
      "/(": 738,
      "Ġ#": 739,
      "ack": 740,
      "18": 741,
      "text": 742,
      "Ġpart": 743,
      "ugh": 744,
      "iel": 745,
      "Ġsome": 746,
      "low": 747,
      "Ġmust": 748,
      "ram": 749,
      "Ġother": 750,
      "ĠY": 751,
      "Ġsolution": 752,
      "ace": 753,
      "ĠThis": 754,
      "Ġcons": 755,
      "}$": 756,
      "put": 757,
      "Ġj": 758,
      "we": 759,
      "Ġpr": 760,
      "ff": 761,
      "Ġgo": 762,
      "Ġco": 763,
      "Ġev": 764,
      "ild": 765,
      "Ġret": 766,
      "Ġabout": 767,
      "Ġmore": 768,
      "ĠJ": 769,
      "Ġfunction": 770,
      "itive": 771,
      "ice": 772,
      "Ġz": 773,
      "Ġlo": 774,
      "Ġdist": 775,
      "Now": 776,
      "ces": 777,
      "âĪļ": 778,
      "the": 779,
      "ree": 780,
      "Ġproblem": 781,
      "15": 782,
      "43": 783,
      "16": 784,
      "Ġdis": 785,
      "agon": 786,
      "Ġsc": 787,
      "Ġterm": 788,
      "oth": 789,
      "_i": 790,
      "Ġbet": 791,
      "av": 792,
      "Ġdef": 793,
      "ĠV": 794,
      "angle": 795,
      "âĢĻ": 796,
      "(y": 797,
      "Ġsuch": 798,
      "_st": 799,
      "rough": 800,
      "ord": 801,
      "ong": 802,
      "\"Ċ": 803,
      "ak": 804,
      "Ġup": 805,
      "si": 806,
      "Ġsp": 807,
      "13": 808,
      "ry": 809,
      ".,": 810,
      "Ġtri": 811,
      "Ġspec": 812,
      "ĠThen": 813,
      "ption": 814,
      "',": 815,
      "cy": 816,
      "ok": 817,
      "ors": 818,
      "ĠĊ": 819,
      "Ġkn": 820,
      "Ġsy": 821,
      "Ġq": 822,
      "irst": 823,
      "ory": 824,
      "ia": 825,
      "Ġno": 826,
      "port": 827,
      "Ġinteger": 828,
      "Ġgro": 829,
      "Ġreturn": 830,
      "Ġ<": 831,
      "Ġthrough": 832,
      "Ġcirc": 833,
      "pend": 834,
      "ause": 835,
      "heck": 836,
      "000": 837,
      "Ġdif": 838,
      "**:": 839,
      "Ġtheir": 840,
      "14": 841,
      "Ġright": 842,
      "cess": 843,
      "Ġsm": 844,
      "Ġte": 845,
      "ata": 846,
      "Ġsub": 847,
      "Ġlike": 848,
      "li": 849,
      "Ġcondition": 850,
      "Ġits": 851,
      "$$": 852,
      "--------": 853,
      "Ġwill": 854,
      "Ġph": 855,
      "Ġonly": 856,
      "ĠSt": 857,
      "ject": 858,
      "ys": 859,
      "ween": 860,
      "```": 861,
      "les": 862,
      "Ġuse": 863,
      "âĶ": 864,
      "Ġra": 865,
      "Ġthan": 866,
      "_start": 867,
      "Ġover": 868,
      "ares": 869,
      "Ġâī¤": 870,
      "ality": 871,
      "_end": 872,
      "Â°": 873,
      "Ġpre": 874,
      "Ġbetween": 875,
      "Ġmaybe": 876,
      "eng": 877,
      "ĠAn": 878,
      "Ġwould": 879,
      "Ġman": 880,
      "ne": 881,
      "Ġinc": 882,
      "ract": 883,
      "Ġtang": 884,
      "ĠIf": 885,
      "ail": 886,
      "Ġrec": 887,
      "ĠAB": 888,
      "Ġusing": 889,
      "We": 890,
      "_n": 891,
      "ub": 892,
      "Ġshould": 893,
      "Ġsquares": 894,
      "Ġrequ": 895,
      "ments": 896,
      "di": 897,
      "als": 898,
      "Ġnumber": 899,
      "Ġsmall": 900,
      "Ġset": 901,
      "Ġleft": 902,
      "ĠĠĠĠĊ": 903,
      "Ġnon": 904,
      "ĠSince": 905,
      "Ġprov": 906,
      "ars": 907,
      "Ġcompute": 908,
      "Ġfind": 909,
      "fect": 910,
      "ring": 911,
      "ating": 912,
      "ify": 913,
      "Let": 914,
      "out": 915,
      "Ġcent": 916,
      "ays": 917,
      "Ġpoint": 918,
      "ric": 919,
      "imes": 920,
      "Ġdiv": 921,
      "Ġ}": 922,
      "Ġgiv": 923,
      "op": 924,
      "36": 925,
      "But": 926,
      "Ġsim": 927,
      "ize": 928,
      "_A": 929,
      "ise": 930,
      "ues": 931,
      "Ġbound": 932,
      "Ġang": 933,
      "Ġi": 934,
      "Ġprodu": 935,
      "ines": 936,
      "ener": 937,
      "Ġcomm": 938,
      "Ġinto": 939,
      "Ġappro": 940,
      "Ġwork": 941,
      "ell": 942,
      "ty": 943,
      "rib": 944,
      "ci": 945,
      "resent": 946,
      "Ġregion": 947,
      "ĠÎ±": 948,
      "Ġâī¥": 949,
      "ength": 950,
      "In": 951,
      "ited": 952,
      "ĠThat": 953,
      "Ġincl": 954,
      "owe": 955,
      "ĠX": 956,
      ":**": 957,
      "hed": 958,
      "vers": 959,
      "Ġchar": 960,
      "âĶĢ": 961,
      "ful": 962,
      "Ġdes": 963,
      "bers": 964,
      "ĠâĢ": 965,
      "erv": 966,
      "Ġdiffe": 967,
      "ron": 968,
      "Ġpa": 969,
      "Ġdiagon": 970,
      "Ġtra": 971,
      "aps": 972,
      "ec": 973,
      "Ġfirst": 974,
      "Ġtrans": 975,
      "Ġfact": 976,
      "Ġmin": 977,
      "Ġpar": 978,
      "ta": 979,
      "Ġcor": 980,
      "Ġboth": 981,
      "ĠÏ": 982,
      "Ġcould": 983,
      "hes": 984,
      "Ġty": 985,
      "Ġsame": 986,
      "equ": 987,
      "ĠCon": 988,
      "Ġaf": 989,
      "ational": 990,
      "Ġpositive": 991,
      "ider": 992,
      "ma": 993,
      "========": 994,
      "Ġrel": 995,
      "und": 996,
      "(f": 997,
      "Ġlar": 998,
      ",Ċ": 999,
      "ian": 1000,
      "ĠĠĠĠĠĠĠĠĠĠĠĠĠĠĠ": 1001,
      "âĢĻs": 1002,
      "Ġself": 1003,
      "ions": 1004,
      "Ġget": 1005,
      "its": 1006,
      "gative": 1007,
      ")=": 1008,
      "pect": 1009,
      "app": 1010,
      "):Ċ": 1011,
      "Ġrep": 1012,
      "(-": 1013,
      "cos": 1014,
      "...": 1015,
      "ething": 1016,
      "not": 1017,
      "Ġele": 1018,
      "Ġexam": 1019,
      "ides": 1020,
      "Ġrem": 1021,
      "omp": 1022,
      "ait": 1023,
      "Ġtry": 1024,
      "tal": 1025,
      "Ġthem": 1026,
      "Ġinde": 1027,
      "omething": 1028,
      "igin": 1029,
      "Ġpoints": 1030,
      "gy": 1031,
      "Ġorder": 1032,
      "cal": 1033,
      "Ġwhen": 1034,
      "Ġdoes": 1035,
      "âĶĢâĶĢ": 1036,
      "Ġtime": 1037,
      "io": 1038,
      "$,": 1039,
      "Ġcircle": 1040,
      "Ġcheck": 1041,
      "ient": 1042,
      "xed": 1043,
      "}\\": 1044,
      "ency": 1045,
      "yth": 1046,
      "Ġacc": 1047,
      "Ġchild": 1048,
      "Ġbecause": 1049,
      "'t": 1050,
      "^{-": 1051,
      "Ġunder": 1052,
      "ility": 1053,
      "ices": 1054,
      "Ġdiagonal": 1055,
      "Ġlength": 1056,
      "17": 1057,
      "Ġspecific": 1058,
      "200": 1059,
      "ĠUn": 1060,
      "ind": 1061,
      "Ġstate": 1062,
      "owever": 1063,
      ").ĊĊ": 1064,
      "Ġob": 1065,
      "ror": 1066,
      "Ġmight": 1067,
      "ire": 1068,
      "Ġwhat": 1069,
      "Ġangle": 1070,
      "Ġext": 1071,
      "ĠIt": 1072,
      "ics": 1073,
      "Ġag": 1074,
      "dd": 1075,
      "ÃĹ": 1076,
      "ough": 1077,
      "val": 1078,
      "ields": 1079,
      "xim": 1080,
      "__": 1081,
      "Ġthese": 1082,
      "arly": 1083,
      "get": 1084,
      "rit": 1085,
      "reat": 1086,
      "Ġins": 1087,
      "user": 1088,
      "ick": 1089,
      "Ġinterse": 1090,
      "ey": 1091,
      "olog": 1092,
      "ident": 1093,
      "Ġtriangle": 1094,
      "Ġflo": 1095,
      "fore": 1096,
      "Ġgroup": 1097,
      "ner": 1098,
      "Ġed": 1099,
      "Ġnumbers": 1100,
      "stem": 1101,
      "ĠCh": 1102,
      "Ġâī¡": 1103,
      ")ĊĊ": 1104,
      "ish": 1105,
      "ities": 1106,
      "Ġstud": 1107,
      "45": 1108,
      "Ġdet": 1109,
      "Ġden": 1110,
      "ures": 1111,
      "Ġac": 1112,
      "Ġcur": 1113,
      "cture": 1114,
      "sqrt": 1115,
      "Ġab": 1116,
      "Ġwere": 1117,
      "think": 1118,
      "Ġadd": 1119,
      "onent": 1120,
      ".e": 1121,
      "ert": 1122,
      "+y": 1123,
      "Ġass": 1124,
      "sible": 1125,
      "ero": 1126,
      "]Ċ": 1127,
      "Ġem": 1128,
      "Ġfinal": 1129,
      "(t": 1130,
      "ically": 1131,
      "Ġorigin": 1132,
      "self": 1133,
      "ode": 1134,
      "math": 1135,
      "raph": 1136,
      "cul": 1137,
      "Al": 1138,
      "Ġmult": 1139,
      "Ġstep": 1140,
      "iss": 1141,
      "since": 1142,
      "ange": 1143,
      "Ġtangent": 1144,
      "Ġeven": 1145,
      "omin": 1146,
      "Ġvari": 1147,
      "Ġcomple": 1148,
      "hen": 1149,
      "Ġsomething": 1150,
      "Ġside": 1151,
      "velo": 1152,
      "Ġcre": 1153,
      "ython": 1154,
      "Ġafter": 1155,
      "ĠQ": 1156,
      "Ġel": 1157,
      "ature": 1158,
      "ĠAl": 1159,
      "Ġdifferent": 1160,
      "*(": 1161,
      "sin": 1162,
      "Ġuser": 1163,
      "ss": 1164,
      "ĠHowever": 1165,
      "Ġrat": 1166,
      "Ġwho": 1167,
      "Ġhol": 1168,
      "Ġyour": 1169,
      "Ġconsider": 1170,
      "vi": 1171,
      "Ġexpress": 1172,
      "pro": 1173,
      "ude": 1174,
      "_c": 1175,
      "Ġhad": 1176,
      "28": 1177,
      "ume": 1178,
      "Ġnew": 1179,
      "cd": 1180,
      "Ġsquare": 1181,
      "ined": 1182,
      "right": 1183,
      ")^{": 1184,
      "ood": 1185,
      "Ġ(-": 1186,
      "[Ċ": 1187,
      "{\\": 1188,
      "ctions": 1189,
      "Ġmodel": 1190,
      "Ġsat": 1191,
      "formation": 1192,
      "30": 1193,
      "Ġam": 1194,
      "row": 1195,
      "ĠAC": 1196,
      "Ġexist": 1197,
      "âĢĿ": 1198,
      "Ġjust": 1199,
      "Ġnegative": 1200,
      "Ġinv": 1201,
      "Ġinequ": 1202,
      "Ġgener": 1203,
      "mod": 1204,
      "Ġsee": 1205,
      "_t": 1206,
      "Ġhow": 1207,
      "Ġfloor": 1208,
      "ĠWe": 1209,
      "47": 1210,
      "Ġmost": 1211,
      "22": 1212,
      "ĠPro": 1213,
      "Ġinst": 1214,
      ").Ċ": 1215,
      "pon": 1216,
      "ethod": 1217,
      "Ġfe": 1218,
      "26": 1219,
      "arch": 1220,
      "Ġpass": 1221,
      "Ġgiven": 1222,
      "Ġmo": 1223,
      "Ġterms": 1224,
      "Ġknown": 1225,
      "Ġrepresent": 1226,
      "Ġdata": 1227,
      "Ġhis": 1228,
      "Ġ\"\"": 1229,
      "Ġvis": 1230,
      "Ġequation": 1231,
      "Ġclass": 1232,
      "cond": 1233,
      "ention": 1234,
      "ield": 1235,
      "Ġsystem": 1236,
      ")$": 1237,
      "mer": 1238,
      "po": 1239,
      "ower": 1240,
      "(\\": 1241,
      "ef": 1242,
      "isf": 1243,
      "Ġoper": 1244,
      "Ġresult": 1245,
      "Ġinequality": 1246,
      "alcul": 1247,
      "Ġbo": 1248,
      "icular": 1249,
      "Ġused": 1250,
      "ĨĴ": 1251,
      "_B": 1252,
      "istant": 1253,
      "ages": 1254,
      "ĠĠĠĠĠĠĠĠĊ": 1255,
      "Ġend": 1256,
      "Ġsatisf": 1257,
      "itt": 1258,
      "Ġinclud": 1259,
      "rite": 1260,
      "Ġtotal": 1261,
      "ases": 1262,
      "erson": 1263,
      "Ġdirect": 1264,
      "ĠâĦ": 1265,
      "Ġvol": 1266,
      "lic": 1267,
      "Ġwant": 1268,
      "ants": 1269,
      "Ġband": 1270,
      "ased": 1271,
      "Ġquest": 1272,
      "ĠEx": 1273,
      "Ġexact": 1274,
      "ĠÃĹ": 1275,
      "Ġthink": 1276,
      "Ġcase": 1277,
      "Ġvalue": 1278,
      "ved": 1279,
      "Ġconstra": 1280,
      "Ġpe": 1281,
      "ced": 1282,
      "ization": 1283,
      "Ġ|Ċ": 1284,
      "answer": 1285,
      "Ġbeen": 1286,
      "Ġimport": 1287,
      "Ġmany": 1288,
      "33": 1289,
      "rence": 1290,
      "ominator": 1291,
      "plic": 1292,
      "ternative": 1293,
      "(p": 1294,
      "ake": 1295,
      "ffic": 1296,
      "here": 1297,
      "Ġcannot": 1298,
      "Ġpat": 1299,
      "aw": 1300,
      "ĠRe": 1301,
      "24": 1302,
      "Ġtest": 1303,
      "Ġye": 1304,
      "cdot": 1305,
      "ges": 1306,
      "ning": 1307,
      "ĠBC": 1308,
      "Ġproper": 1309,
      "Ġsign": 1310,
      "Ġhand": 1311,
      "60": 1312,
      "ex": 1313,
      "Ġsur": 1314,
      "Ġhel": 1315,
      "read": 1316,
      ".\"": 1317,
      "ism": 1318,
      "HS": 1319,
      "St": 1320,
      "par": 1321,
      "ized": 1322,
      "Ġvalues": 1323,
      "gram": 1324,
      "imal": 1325,
      "Ġinteg": 1326,
      "ib": 1327,
      "boxed": 1328,
      "-b": 1329,
      "Ġdec": 1330,
      "assistant": 1331,
      "Ġfactor": 1332,
      ";Ċ": 1333,
      "ps": 1334,
      "ual": 1335,
      "Ġstr": 1336,
      "urs": 1337,
      "100": 1338,
      "]ĊĊ": 1339,
      "Ġmulti": 1340,
      "(n": 1341,
      "cept": 1342,
      "Ġask": 1343,
      "Ġstru": 1344,
      "ĠâĨĴ": 1345,
      "haps": 1346,
      "Ġident": 1347,
      "Ġcall": 1348,
      "Ġvert": 1349,
      "Ġint": 1350,
      "###": 1351,
      "Ġtyp": 1352,
      "Ġlim": 1353,
      "Ġyields": 1354,
      "Ġprint": 1355,
      "Ġpair": 1356,
      "Ġlarge": 1357,
      "uc": 1358,
      "202": 1359,
      "('": 1360,
      "oc": 1361,
      "Ġanal": 1362,
      "ffect": 1363,
      "yn": 1364,
      "\\[Ċ": 1365,
      "ool": 1366,
      "Ġcar": 1367,
      "lect": 1368,
      "Ġind": 1369,
      "}}": 1370,
      "Ġ->": 1371,
      "Ġreal": 1372,
      "ĠÎ²": 1373,
      "âĢĳ": 1374,
      "86": 1375,
      "pi": 1376,
      "ification": 1377,
      "Ġfol": 1378,
      "ane": 1379,
      "Ġconf": 1380,
      "lock": 1381,
      "Ġodd": 1382,
      "Ġlines": 1383,
      "Ġfl": 1384,
      ")/(": 1385,
      "Ġzero": 1386,
      "Ġder": 1387,
      "tep": 1388,
      "ĠWait": 1389,
      "Ġinf": 1390,
      "Ġoff": 1391,
      "75": 1392,
      "ople": 1393,
      "23": 1394,
      "ater": 1395,
      "Ġet": 1396,
      "ĠÎ³": 1397,
      "ings": 1398,
      "ĠInde": 1399,
      "Ġquestion": 1400,
      "atic": 1401,
      "Ġperson": 1402,
      "uring": 1403,
      "Ġent": 1404,
      "Ġhigh": 1405,
      "\")Ċ": 1406,
      "ross": 1407,
      "Ġcount": 1408,
      "Ġlet": 1409,
      "Ġcenter": 1410,
      "()": 1411,
      "pos": 1412,
      "ret": 1413,
      "olution": 1414,
      "Ġknow": 1415,
      "27": 1416,
      "\\)": 1417,
      "(a": 1418,
      "ness": 1419,
      "Ġpath": 1420,
      "ark": 1421,
      "':": 1422,
      "^n": 1423,
      "Ġmethod": 1424,
      "ural": 1425,
      "ons": 1426,
      "ability": 1427,
      "ĠOr": 1428,
      "Ġincre": 1429,
      "Ġwor": 1430,
      "ĠHe": 1431,
      "Ġer": 1432,
      "40": 1433,
      "Ġconc": 1434,
      "ĠNo": 1435,
      "Ġshow": 1436,
      "ternatively": 1437,
      "ied": 1438,
      "Ġear": 1439,
      "Ġfollow": 1440,
      "ĠâĪĪ": 1441,
      "):": 1442,
      "Ġratio": 1443,
      "velop": 1444,
      "ĠThere": 1445,
      "Ġexample": 1446,
      "ral": 1447,
      "Ġprocess": 1448,
      "Ġcontin": 1449,
      "ĠâĪļ": 1450,
      "Ġelse": 1451,
      "vel": 1452,
      "very": 1453,
      "ually": 1454,
      "Ġdesc": 1455,
      "Ġremain": 1456,
      "Ġless": 1457,
      "ull": 1458,
      "Ġaut": 1459,
      "Ġener": 1460,
      "Ġeffect": 1461,
      "Ġlist": 1462,
      "This": 1463,
      "Ġdown": 1464,
      "Alternatively": 1465,
      "35": 1466,
      "Ġtext": 1467,
      "Ġdenominator": 1468,
      "ctor": 1469,
      "Ġthose": 1470,
      "cles": 1471,
      "-s": 1472,
      "48": 1473,
      "(self": 1474,
      "ax": 1475,
      "ible": 1476,
      "Ġhelp": 1477,
      "ten": 1478,
      "ves": 1479,
      "Ġperhaps": 1480,
      "Ġproduct": 1481,
      "co": 1482,
      "times": 1483,
      "line": 1484,
      "Ġsa": 1485,
      "angu": 1486,
      "Ġenergy": 1487,
      "/p": 1488,
      "Ġmake": 1489,
      "Ġexactly": 1490,
      "Ġpeople": 1491,
      "ask": 1492,
      "Ġsecond": 1493,
      "72": 1494,
      "ĠÏĨ": 1495,
      "ĠWh": 1496,
      "hip": 1497,
      "Ġmon": 1498,
      "meric": 1499,
      "<|/": 1500,
      "90": 1501,
      "ie": 1502,
      "})": 1503,
      "Ġequal": 1504,
      "Ġlook": 1505,
      ":**Ċ": 1506,
      "ale": 1507,
      "Ġfound": 1508,
      "ument": 1509,
      "---": 1510,
      "Ġconstant": 1511,
      "Ġintersection": 1512,
      "old": 1513,
      "Ġwell": 1514,
      "(b": 1515,
      "iqu": 1516,
      "met": 1517,
      "omet": 1518,
      "Ġlog": 1519,
      "ĠâĢľ": 1520,
      "Ġoriginal": 1521,
      "}=": 1522,
      "Ġpossible": 1523,
      "Ġexponent": 1524,
      "```ĊĊ": 1525,
      "Ġprovide": 1526,
      "Ġour": 1527,
      "Ġinformation": 1528,
      "Ġmaxim": 1529,
      "hem": 1530,
      "Ġsl": 1531,
      "rror": 1532,
      "ving": 1533,
      "Ġser": 1534,
      "Ġgra": 1535,
      "Ġwhile": 1536,
      "acter": 1537,
      "mathb": 1538,
      "rix": 1539,
      "Ġleast": 1540,
      "ordin": 1541,
      "Ġvolume": 1542,
      "ration": 1543,
      "abel": 1544,
      "(\"": 1545,
      "93": 1546,
      "Ġcare": 1547,
      "ets": 1548,
      "Ġsides": 1549,
      "199": 1550,
      "uch": 1551,
      "âī": 1552,
      "ids": 1553,
      "Ġagain": 1554,
      "64": 1555,
      "of": 1556,
      "Ġname": 1557,
      "Ġperi": 1558,
      "Ġrequi": 1559,
      "pr": 1560,
      "ug": 1561,
      "ĠAmeric": 1562,
      "Ġdistance": 1563,
      "Ġ\"\"\"Ċ": 1564,
      "Ġref": 1565,
      "Ġarg": 1566,
      "50": 1567,
      "agn": 1568,
      "theta": 1569,
      "-c": 1570,
      "Ġap": 1571,
      "son": 1572,
      "ĠÏĢ": 1573,
      "Ġradi": 1574,
      "Ġarea": 1575,
      "ĠEn": 1576,
      "ompute": 1577,
      "42": 1578,
      "rem": 1579,
      "amet": 1580,
      "\\]ĊĊ": 1581,
      "ting": 1582,
      "Ġbase": 1583,
      "Ġprogram": 1584,
      "Ġapproach": 1585,
      "Ġcorrect": 1586,
      "ĠZ": 1587,
      "Ġact": 1588,
      "Ġinput": 1589,
      "ĠNot": 1590,
      "Ġsolutions": 1591,
      ",b": 1592,
      "ody": 1593,
      "Ġdepend": 1594,
      "Ġdevelop": 1595,
      "pendicular": 1596,
      "Ġholds": 1597,
      "================": 1598,
      "ube": 1599,
      "round": 1600,
      "less": 1601,
      "Ġcy": 1602,
      "Ġcalcul": 1603,
      ".<|": 1604,
      "ilar": 1605,
      "Ġroot": 1606,
      "str": 1607,
      "Ġcontain": 1608,
      "ĠIndeed": 1609,
      "32": 1610,
      "Ġopp": 1611,
      "Ġthree": 1612,
      "Ġ{Ċ": 1613,
      "ĠÎ¸": 1614,
      "Ġsatisfy": 1615,
      "**Ċ": 1616,
      "Ġnumer": 1617,
      "day": 1618,
      "Ġstring": 1619,
      "Ġperpendicular": 1620,
      "py": 1621,
      "Ġbeing": 1622,
      "ples": 1623,
      ")}": 1624,
      "_p": 1625,
      "ĠUs": 1626,
      "ton": 1627,
      "tex": 1628,
      "Ġsupp": 1629,
      "ension": 1630,
      "Ġderiv": 1631,
      "201": 1632,
      "omm": 1633,
      "plement": 1634,
      "Ġsing": 1635,
      "Ġve": 1636,
      "chn": 1637,
      "\",": 1638,
      "ults": 1639,
      "Ġatt": 1640,
      "Ġconstraints": 1641,
      ")).": 1642,
      "ash": 1643,
      "nect": 1644,
      "Ġdig": 1645,
      "Ġsays": 1646,
      "Ġbu": 1647,
      "Ġmem": 1648,
      "ier": 1649,
      "Ġfield": 1650,
      "chool": 1651,
      "Ġperiod": 1652,
      "iding": 1653,
      "()Ċ": 1654,
      "ward": 1655,
      "Ġ~": 1656,
      "Ġallow": 1657,
      "Ġmain": 1658,
      "Ġoutput": 1659,
      "Ġdivis": 1660,
      "Ġpattern": 1661,
      ">Ċ": 1662,
      "omes": 1663,
      "rid": 1664,
      "ven": 1665,
      "}Ċ": 1666,
      "Ġbefore": 1667,
      "iven": 1668,
      "65": 1669,
      "Ġinside": 1670,
      "for": 1671,
      "wh": 1672,
      "left": 1673,
      "Ġlangu": 1674,
      "ems": 1675,
      "Ġchildren": 1676,
      "ior": 1677,
      "ided": 1678,
      "Ġ>=": 1679,
      "Ġappe": 1680,
      "Ġstand": 1681,
      "Ġobject": 1682,
      "âĪŀ": 1683,
      "Ġlinear": 1684,
      "Ġpol": 1685,
      "ology": 1686,
      "\".": 1687,
      "Ġmeas": 1688,
      "Ġsimilar": 1689,
      "Ġstructure": 1690,
      "Ġdeg": 1691,
      "Ġregular": 1692,
      "44": 1693,
      "gor": 1694,
      "ily": 1695,
      "atures": 1696,
      "ormal": 1697,
      "----------------": 1698,
      "|Ċ": 1699,
      "Ġ)": 1700,
      "Ġrequire": 1701,
      "Ġnear": 1702,
      "Ġmid": 1703,
      "Error": 1704,
      "Ġ&": 1705,
      "If": 1706,
      "Ġcode": 1707,
      "Ġhy": 1708,
      "Ġtype": 1709,
      "Ġwithin": 1710,
      "âĶĢâĶĢâĶĢâĶĢ": 1711,
      "Ġsym": 1712,
      "Ġvisited": 1713,
      "ason": 1714,
      "other": 1715,
      "85": 1716,
      "Ġmatrix": 1717,
      ")(": 1718,
      "Ġav": 1719,
      "ĠAnd": 1720,
      "Ġlimit": 1721,
      "39": 1722,
      "ins": 1723,
      "gan": 1724,
      "iew": 1725,
      "cent": 1726,
      "ga": 1727,
      "wn": 1728,
      "Ġdeterm": 1729,
      "(Î": 1730,
      "Ġopt": 1731,
      "Ġrepresentation": 1732,
      "Ġcost": 1733,
      "Â°,": 1734,
      "Ġcurrent": 1735,
      "land": 1736,
      "over": 1737,
      "Ġcommon": 1738,
      "46": 1739,
      "alse": 1740,
      "37": 1741,
      "ches": 1742,
      "alth": 1743,
      "Ġhere": 1744,
      "vent": 1745,
      "ysis": 1746,
      "'Ċ": 1747,
      "_s": 1748,
      "cle": 1749,
      "Ġher": 1750,
      "ĠAr": 1751,
      "ilarly": 1752,
      "ĠĠĠĠĠĠĠĠĠĠĠĠĠĠĠĠĠĠĠ": 1753,
      "Ġwithout": 1754,
      "ade": 1755,
      "Ġcap": 1756,
      "Ġkey": 1757,
      "Ġbounded": 1758,
      "Con": 1759,
      "stand": 1760,
      "osite": 1761,
      "Ġrespon": 1762,
      "Ġearli": 1763,
      "Ġsolve": 1764,
      "Ġdistrib": 1765,
      "bit": 1766,
      "Ġshe": 1767,
      "ances": 1768,
      "Ġback": 1769,
      "ĠĠĠĠĠ": 1770,
      "Ġredu": 1771,
      "Ġyears": 1772,
      "+b": 1773,
      "ining": 1774,
      "Ġsequ": 1775,
      "'ll": 1776,
      "(u": 1777,
      "ĠLi": 1778,
      ".g": 1779,
      "Ġest": 1780,
      "Ġocc": 1781,
      "Ġâľ": 1782,
      "umn": 1783,
      "ists": 1784,
      "essage": 1785,
      "Ġrow": 1786,
      "For": 1787,
      "python": 1788,
      "Ġvertex": 1789,
      "pot": 1790,
      "Ġread": 1791,
      "Ġstatement": 1792,
      "Ġdou": 1793,
      "Ġdisc": 1794,
      "||": 1795,
      "Ġbl": 1796,
      "Ġtrue": 1797,
      "Ġvertices": 1798,
      "Ġmeans": 1799,
      "tem": 1800,
      "name": 1801,
      "ĠDM": 1802,
      "ĠâĪĳ": 1803,
      "Ġsurf": 1804,
      "Ġetc": 1805,
      "31": 1806,
      "}.": 1807,
      "ann": 1808,
      "Ġway": 1809,
      "Ġstart": 1810,
      "cial": 1811,
      "Ġcle": 1812,
      "utes": 1813,
      "ĠRet": 1814,
      "95": 1815,
      "ob": 1816,
      "---ĊĊ": 1817,
      "')": 1818,
      "}(": 1819,
      "imilarly": 1820,
      "ulation": 1821,
      "ately": 1822,
      "+z": 1823,
      "38": 1824,
      ",y": 1825,
      "gs": 1826,
      "Ġtimes": 1827,
      "Ġ==": 1828,
      "Ġcube": 1829,
      "Ġfour": 1830,
      "Ġnecess": 1831,
      "_{\\": 1832,
      "Ġlikely": 1833,
      "Ġearlier": 1834,
      "Ġmed": 1835,
      "etic": 1836,
      "Ġ\\)": 1837,
      "Ġexper": 1838,
      "hedron": 1839,
      "((": 1840,
      "?Ċ": 1841,
      "ared": 1842,
      "led": 1843,
      "ĠĠĊ": 1844,
      "arrow": 1845,
      "ON": 1846,
      "min": 1847,
      "Ġtop": 1848,
      "ĠÎĶ": 1849,
      "Ġvery": 1850,
      "sib": 1851,
      "Ġexpression": 1852,
      "/n": 1853,
      "76": 1854,
      "ified": 1855,
      "att": 1856,
      "Ġfam": 1857,
      "Ġmet": 1858,
      "Ġindex": 1859,
      "29": 1860,
      "='": 1861,
      "point": 1862,
      "Ġtem": 1863,
      "Ġverify": 1864,
      "ran": 1865,
      "ense": 1866,
      "Ġtechn": 1867,
      "ho": 1868,
      "ling": 1869,
      "roup": 1870,
      "rection": 1871,
      "ivity": 1872,
      "mon": 1873,
      "vis": 1874,
      "ample": 1875,
      "Ġrational": 1876,
      "ertain": 1877,
      "ential": 1878,
      "imension": 1879,
      "Ġgreat": 1880,
      "Ġmean": 1881,
      "arily": 1882,
      "ix": 1883,
      "rue": 1884,
      "ern": 1885,
      "ety": 1886,
      "ails": 1887,
      "view": 1888,
      "ĠPython": 1889,
      "Ġpartic": 1890,
      "tain": 1891,
      "Ġconnect": 1892,
      "ters": 1893,
      "Ġexpl": 1894,
      "21": 1895,
      "Ġpub": 1896,
      "Ġwrite": 1897,
      "ards": 1898,
      "**:Ċ": 1899,
      "Ġstudents": 1900,
      "Ġrese": 1901,
      "Ġvia": 1902,
      "Ġdon": 1903,
      "Ġnow": 1904,
      "etra": 1905,
      "ĠAs": 1906,
      "180": 1907,
      "An": 1908,
      "part": 1909,
      "Ġstill": 1910,
      "ĠThey": 1911,
      "ĠRHS": 1912,
      "ique": 1913,
      "Ġsepar": 1914,
      "Ġintersect": 1915,
      "gin": 1916,
      "ither": 1917,
      "Ġduring": 1918,
      "Ġbecomes": 1919,
      "Ġsay": 1920,
      "Ġpent": 1921,
      "iron": 1922,
      ".s": 1923,
      "alle": 1924,
      "Ġpres": 1925,
      "Ġpop": 1926,
      "Ġsize": 1927,
      "Ġdid": 1928,
      "Ġprec": 1929,
      "arth": 1930,
      "ircles": 1931,
      "Ġcho": 1932,
      "ape": 1933,
      "Ġ...": 1934,
      "Ġlower": 1935,
      "Ġanaly": 1936,
      "Step": 1937,
      "_f": 1938,
      "Ġtetra": 1939,
      "ctan": 1940,
      "ograph": 1941,
      "Ġmatch": 1942,
      "Ġindeed": 1943,
      "Ġcomplex": 1944,
      "iply": 1945,
      "Wh": 1946,
      "_d": 1947,
      "vex": 1948,
      "Ġexpect": 1949,
      "Ġcoordin": 1950,
      "Ġ]": 1951,
      "atural": 1952,
      "ĠĠĠĠĠĠĠĠĠĠĠĠĠĠĠĠ": 1953,
      ".c": 1954,
      "apt": 1955,
      "ivers": 1956,
      "Ġsw": 1957,
      "Ġke": 1958,
      "aces": 1959,
      "Ġgives": 1960,
      "Ġcommun": 1961,
      "99": 1962,
      "=\"": 1963,
      "Ġdesign": 1964,
      ",\\": 1965,
      "Ġadj": 1966,
      "Ġworks": 1967,
      "Ġtak": 1968,
      "Ġmass": 1969,
      "verse": 1970,
      "Ġcareful": 1971,
      "$ĊĊ": 1972,
      "']": 1973,
      "any": 1974,
      "Ġproperty": 1975,
      "Ġmaximum": 1976,
      "Ġopposite": 1977,
      "AB": 1978,
      "osed": 1979,
      "elta": 1980,
      "ĠLe": 1981,
      "Ġabove": 1982,
      "Ġdistin": 1983,
      "$Ċ": 1984,
      "Ġdra": 1985,
      "ĠUse": 1986,
      "Ġfunctions": 1987,
      "work": 1988,
      "Ġtan": 1989,
      "Ġblock": 1990,
      "Ġhum": 1991,
      "Ġcomb": 1992,
      "Ġcomput": 1993,
      "Ġcharacter": 1994,
      "Ġedge": 1995,
      "Ġpentagon": 1996,
      "$.": 1997,
      "omb": 1998,
      "Ġpoly": 1999,
      "Ġphys": 2000,
      "Pro": 2001,
      "ict": 2002,
      "pen": 2003,
      "alu": 2004,
      "def": 2005,
      "Ġarctan": 2006,
      "ock": 2007,
      "Ġtreat": 2008,
      "Ġevery": 2009,
      "adr": 2010,
      "sc": 2011,
      "reak": 2012,
      "Ġtheore": 2013,
      "ird": 2014,
      "Ġseg": 2015,
      "âĤ": 2016,
      "Ġart": 2017,
      "Ġoften": 2018,
      "Ġrun": 2019,
      "34": 2020,
      "ference": 2021,
      "Ġformul": 2022,
      "version": 2023,
      "Ġtetrahedron": 2024,
      "['": 2025,
      "where": 2026,
      "Ġserv": 2027,
      "Ġpresent": 2028,
      "Ġ(âĪ": 2029,
      "asing": 2030,
      "ote": 2031,
      "istic": 2032,
      "Ġmak": 2033,
      "-f": 2034,
      "Ġens": 2035,
      "Ġelect": 2036,
      "gra": 2037,
      "rans": 2038,
      "esc": 2039,
      "ĠSy": 2040,
      "ready": 2041,
      "med": 2042,
      "orts": 2043,
      "Ġmy": 2044,
      "Ġge": 2045,
      "ival": 2046,
      "viron": 2047,
      "Ġlong": 2048,
      "ĠAt": 2049,
      "001": 2050,
      "âĢĵ": 2051,
      "Ġinclude": 2052,
      "Ġnet": 2053,
      "ithm": 2054,
      "ĠNew": 2055,
      "ables": 2056,
      "Ġgood": 2057,
      "(c": 2058,
      "Given": 2059,
      "ove": 2060,
      "ĠPl": 2061,
      "Ġinvol": 2062,
      "Ġcontinu": 2063,
      "sum": 2064,
      "Ġlead": 2065,
      "Ġradius": 2066,
      "Ġdouble": 2067,
      "erial": 2068,
      "aybe": 2069,
      "(i": 2070,
      "ery": 2071,
      "Ġpot": 2072,
      "Ġsug": 2073,
      "ĠEarth": 2074,
      "Ġcomplete": 2075,
      "ĠRes": 2076,
      "ĠNone": 2077,
      "|><|": 2078,
      "Ġcreate": 2079,
      "orn": 2080,
      "ĠSe": 2081,
      "âĢĶ": 2082,
      "ccess": 2083,
      "ĠYes": 2084,
      "Ġconsist": 2085,
      "Ġincludes": 2086,
      "Ġsingle": 2087,
      "oid": 2088,
      "ware": 2089,
      "ĠâĪ«": 2090,
      "Ġquadr": 2091,
      "Ġvalid": 2092,
      "Ġcolor": 2093,
      "Ġfollowing": 2094,
      "ze": 2095,
      "Ġpy": 2096,
      "ially": 2097,
      "Ġmagn": 2098,
      "quad": 2099,
      "Ġsmallest": 2100,
      "(z": 2101,
      "big": 2102,
      "inal": 2103,
      "ination": 2104,
      "otal": 2105,
      "Ġschool": 2106,
      "Ġposition": 2107,
      "Ġstandard": 2108,
      "itude": 2109,
      "ives": 2110,
      "ource": 2111,
      "Ġdigit": 2112,
      "ife": 2113,
      "Ġimplement": 2114,
      "Ġphase": 2115,
      "Ġâľĵ": 2116,
      "à®": 2117,
      "itial": 2118,
      "Ġgu": 2119,
      "Ġresults": 2120,
      "</": 2121,
      "ways": 2122,
      "Ġcircles": 2123,
      "70": 2124,
      "Â²": 2125,
      "Ġ%": 2126,
      "Ġgraph": 2127,
      "chan": 2128,
      "Ġcolumn": 2129,
      "Ġdefine": 2130,
      "}^{": 2131,
      "Ġsubt": 2132,
      "_m": 2133,
      "Ġfi": 2134,
      "Ġbased": 2135,
      "ription": 2136,
      "ĠPh": 2137,
      "clus": 2138,
      "Ġaddition": 2139,
      "Us": 2140,
      "Ġformat": 2141,
      "Ġdefined": 2142,
      "ĠâĪĳ_{": 2143,
      "Ġhom": 2144,
      "Ġapproxim": 2145,
      "Ġelement": 2146,
      "Ġdirectly": 2147,
      "-d": 2148,
      "side": 2149,
      "verage": 2150,
      "uration": 2151,
      "Ġmax": 2152,
      "fficient": 2153,
      "Ġsaid": 2154,
      ")\\": 2155,
      "{(": 2156,
      "eta": 2157,
      "Ġrect": 2158,
      "iles": 2159,
      "\":": 2160,
      ")*(": 2161,
      "Ġrest": 2162,
      "ators": 2163,
      "Ġgoing": 2164,
      "mathbf": 2165,
      "me": 2166,
      "Ġday": 2167,
      "-st": 2168,
      "Ġtake": 2169,
      "Ġmade": 2170,
      "Ġlink": 2171,
      "Ġcharge": 2172,
      "Ġbody": 2173,
      "ĠOption": 2174,
      "Ġimp": 2175,
      "Ġplace": 2176,
      "Ġacross": 2177,
      "Ġdistinct": 2178,
      "pret": 2179,
      "ales": 2180,
      "class": 2181,
      "}^": 2182,
      "aring": 2183,
      "ental": 2184,
      "ĠIs": 2185,
      "Ġprote": 2186,
      "Ġboundary": 2187,
      ",i": 2188,
      "So": 2189,
      "lam": 2190,
      "til": 2191,
      "Ġprof": 2192,
      "Key": 2193,
      "_id": 2194,
      "}.ĊĊ": 2195,
      "Ġmention": 2196,
      "Ġmuch": 2197,
      "Ġeither": 2198,
      "Ġthough": 2199,
      "ĠAf": 2200,
      "Ġimage": 2201,
      "Ġplay": 2202,
      "Ġunderstand": 2203,
      "Ġlanguage": 2204,
      "Ġsurface": 2205,
      "group": 2206,
      "way": 2207,
      "uth": 2208,
      "Ġell": 2209,
      "Ġlow": 2210,
      "ift": 2211,
      "rm": 2212,
      "Ġ:": 2213,
      "Ġnormal": 2214,
      "Ġprove": 2215,
      "add": 2216,
      "Ġâīł": 2217,
      "Ġrot": 2218,
      "aving": 2219,
      "Ġimportant": 2220,
      "Ġcalled": 2221,
      "Ġerror": 2222,
      "80": 2223,
      "col": 2224,
      "requ": 2225,
      "acc": 2226,
      "Ġrespect": 2227,
      "pendent": 2228,
      "Ġworld": 2229,
      "ĠCompute": 2230,
      "Ġcontro": 2231,
      "Ġdiff": 2232,
      "Ġnumerator": 2233,
      "ene": 2234,
      "ries": 2235,
      "rict": 2236,
      "ighb": 2237,
      "like": 2238,
      "Ġlarger": 2239,
      "tic": 2240,
      "Ġaround": 2241,
      "anges": 2242,
      "Ġhealth": 2243,
      "allel": 2244,
      "],": 2245,
      "lection": 2246,
      "Ġreason": 2247,
      "144": 2248,
      "Ġflu": 2249,
      "à°": 2250,
      "ĠIm": 2251,
      "ĠDe": 2252,
      "Ġincluding": 2253,
      "gorithm": 2254,
      "`,": 2255,
      "Ġcaus": 2256,
      "Ġflow": 2257,
      "omain": 2258,
      "Ġlast": 2259,
      "ĠAd": 2260,
      "ircle": 2261,
      "Ġ\\(\\": 2262,
      "Ġprovided": 2263,
      "Ġdividing": 2264,
      "set": 2265,
      "Ġmap": 2266,
      "ray": 2267,
      "ivid": 2268,
      "air": 2269,
      "ming": 2270,
      "rate": 2271,
      "}âĪŀ": 2272,
      "ĊĠĠĠĠĊ": 2273,
      "ĠOn": 2274,
      "Ġcases": 2275,
      "Ġalways": 2276,
      "log": 2277,
      "Ġouter": 2278,
      "Ġintegers": 2279,
      "Ġsequence": 2280,
      "ik": 2281,
      "ler": 2282,
      "Ġball": 2283,
      "ĠSh": 2284,
      "Ġhapp": 2285,
      "pty": 2286,
      "Ġmechan": 2287,
      "Ġgrow": 2288,
      "Ġtangents": 2289,
      "ĠAmerican": 2290,
      "Ġpyram": 2291,
      "atus": 2292,
      "Ġpower": 2293,
      "Ġlaw": 2294,
      "vert": 2295,
      "amp": 2296,
      "ively": 2297,
      "ruction": 2298,
      "ission": 2299,
      "arning": 2300,
      "ĠCl": 2301,
      "Ġprime": 2302,
      "$.ĊĊ": 2303,
      "gest": 2304,
      "ients": 2305,
      "Ġpract": 2306,
      "Ġhig": 2307,
      "Ġproject": 2308,
      "Ġuses": 2309,
      "Ġitself": 2310,
      "},": 2311,
      "}{\\": 2312,
      "Ġminimal": 2313,
      "ĠâĦĵ": 2314,
      "Ġseries": 2315,
      "ameter": 2316,
      "')Ċ": 2317,
      ".st": 2318,
      "gl": 2319,
      "}+": 2320,
      "respon": 2321,
      "ĠKL": 2322,
      "Ġconfig": 2323,
      "Ġsymmet": 2324,
      "Ġsk": 2325,
      "ests": 2326,
      "Ġconvex": 2327,
      "Ġdirection": 2328,
      "Ġmaterial": 2329,
      "Ġoptim": 2330,
      "Ex": 2331,
      "ilon": 2332,
      "Ġplane": 2333,
      "const": 2334,
      "431": 2335,
      "ynam": 2336,
      "da": 2337,
      "Ġsince": 2338,
      "oriz": 2339,
      "Ġbc": 2340,
      "Ġevalu": 2341,
      "Ġexists": 2342,
      "Ġcapac": 2343,
      "._": 2344,
      "77": 2345,
      "ks": 2346,
      "ences": 2347,
      "Ġbas": 2348,
      "ception": 2349,
      "amma": 2350,
      "Ġabs": 2351,
      "Ġformula": 2352,
      "Ġgeomet": 2353,
      "vironment": 2354,
      "ER": 2355,
      "arn": 2356,
      "Ġalready": 2357,
      "Ġbecome": 2358,
      "aves": 2359,
      "Ġproduce": 2360,
      "41": 2361,
      "Ġtoo": 2362,
      "osition": 2363,
      "els": 2364,
      "Ġvector": 2365,
      "(q": 2366,
      "Ġwrit": 2367,
      "Ġanother": 2368,
      "ends": 2369,
      "pper": 2370,
      "Ġhead": 2371,
      "Ġrequires": 2372,
      "_k": 2373,
      "Ġfile": 2374,
      "icro": 2375,
      "use": 2376,
      "ĠĠĠĠĠĠĠĠĠĠĠĠ": 2377,
      "Ġheat": 2378,
      "Ġloc": 2379,
      "Ġpasses": 2380,
      "Ġidentity": 2381,
      "ious": 2382,
      "âķ": 2383,
      "Ġhist": 2384,
      "Ġneighb": 2385,
      "ĠNe": 2386,
      "ribed": 2387,
      "Ġmultiple": 2388,
      "Ġsupport": 2389,
      "//": 2390,
      "/âĪļ": 2391,
      "500": 2392,
      "92": 2393,
      "ection": 2394,
      "from": 2395,
      "Ġfull": 2396,
      "Ġstates": 2397,
      "Ġstudy": 2398,
      "Ġcell": 2399,
      "ished": 2400,
      "Ġmitt": 2401,
      "ĠAll": 2402,
      "Ġlevel": 2403,
      "Ġspace": 2404,
      "$$\\": 2405,
      "66": 2406,
      "ov": 2407,
      "ĠStep": 2408,
      "ĠSimilarly": 2409,
      "ruct": 2410,
      "Ġrecurs": 2411,
      "AC": 2412,
      "Ĳâķ": 2413,
      "atch": 2414,
      "lease": 2415,
      "ently": 2416,
      "Ġcomponent": 2417,
      "Ġsimpl": 2418,
      "Ġminim": 2419,
      "Ġyear": 2420,
      ".t": 2421,
      ".get": 2422,
      "Ġinversion": 2423,
      "ript": 2424,
      "ĠMult": 2425,
      "ole": 2426,
      "inite": 2427,
      "Ġfra": 2428,
      "omial": 2429,
      "**ĊĊ": 2430,
      "negative": 2431,
      "_AB": 2432,
      "Ġelements": 2433,
      "orizon": 2434,
      "xes": 2435,
      "reg": 2436,
      "Ġold": 2437,
      "ames": 2438,
      "Ġdoesn": 2439,
      ")_": 2440,
      "vial": 2441,
      "enc": 2442,
      "Ġmodul": 2443,
      "ological": 2444,
      "Ġtemper": 2445,
      "ĲâķĲâķ": 2446,
      "'(": 2447,
      "(ÏĢ": 2448,
      "49": 2449,
      "ook": 2450,
      "ond": 2451,
      "Ġsent": 2452,
      "Ġdistribution": 2453,
      "Actually": 2454,
      "hol": 2455,
      "Ġslo": 2456,
      "Ġexcept": 2457,
      "_count": 2458,
      "Ġkeep": 2459,
      "'re": 2460,
      "oh": 2461,
      "ĠÂ": 2462,
      "Ġaction": 2463,
      "Ġopen": 2464,
      "ands": 2465,
      "Ġsure": 2466,
      "(xy": 2467,
      "Ġprecise": 2468,
      "55": 2469,
      "ium": 2470,
      "Ġcertain": 2471,
      "Ġoption": 2472,
      "ĠLHS": 2473,
      "Ġnote": 2474,
      "abl": 2475,
      "Ġunique": 2476,
      "Ġconditions": 2477,
      "Ġaccess": 2478,
      ">ĊĊ": 2479,
      "ym": 2480,
      "Ġiss": 2481,
      "Ġprob": 2482,
      "ĠMN": 2483,
      "phi": 2484,
      "ĠUnited": 2485,
      "af": 2486,
      "serv": 2487,
      "Ġown": 2488,
      "ilities": 2489,
      "Ġbeh": 2490,
      "ours": 2491,
      "Ġplan": 2492,
      "Ġ}Ċ": 2493,
      "Ġremainder": 2494,
      "which": 2495,
      "Ġcut": 2496,
      "Ġnatural": 2497,
      "Ġchange": 2498,
      "âĢľ": 2499,
      "Ġlocal": 2500,
      "Ġgeneral": 2501,
      "Ġadjac": 2502,
      "Ġperform": 2503,
      "Ġdoc": 2504,
      "Ġsmaller": 2505,
      "Ġlengths": 2506,
      "-in": 2507,
      "_L": 2508,
      "reen": 2509,
      "rest": 2510,
      "ott": 2511,
      "),Ċ": 2512,
      "âĢĻt": 2513,
      "+c": 2514,
      "120": 2515,
      "_x": 2516,
      "by": 2517,
      "ience": 2518,
      "Ġdomain": 2519,
      "Ġrece": 2520,
      "Ġrelations": 2521,
      "rist": 2522,
      "ather": 2523,
      "Ġtheory": 2524,
      "Ġfem": 2525,
      "Ġdimension": 2526,
      "Ġreturns": 2527,
      "Delta": 2528,
      "ateg": 2529,
      "omega": 2530,
      "soci": 2531,
      "Ġcover": 2532,
      "Ġvertical": 2533,
      "Ġrequired": 2534,
      "Ġargument": 2535,
      ".S": 2536,
      "ĠTo": 2537,
      "stract": 2538,
      "urrent": 2539,
      "rie": 2540,
      "ĠÎ£": 2541,
      "Ġformed": 2542,
      "iversity": 2543,
      ",\"": 2544,
      "ison": 2545,
      "icle": 2546,
      "uss": 2547,
      "ots": 2548,
      "Ġcontext": 2549,
      "Ġalong": 2550,
      "ights": 2551,
      "ably": 2552,
      "Ġ//": 2553,
      "Ġmatches": 2554,
      "Ġbetter": 2555,
      "Ġedges": 2556,
      "Ġtypes": 2557,
      "Ġpotential": 2558,
      "87": 2559,
      "|--------": 2560,
      "Ġearly": 2561,
      "rain": 2562,
      "Ġexec": 2563,
      "(d": 2564,
      "He": 2565,
      "itor": 2566,
      "ĠMe": 2567,
      "urns": 2568,
      "Ġtheorem": 2569,
      "lu": 2570,
      "por": 2571,
      "ule": 2572,
      "erification": 2573,
      "imin": 2574,
      "ĠAlso": 2575,
      "Ġbuild": 2576,
      "^k": 2577,
      "Ġcross": 2578,
      "Ġbi": 2579,
      "Ġant": 2580,
      "ources": 2581,
      "Ġresearch": 2582,
      "ES": 2583,
      "To": 2584,
      "light": 2585,
      "pri": 2586,
      "alf": 2587,
      "Ġfil": 2588,
      "Ġpress": 2589,
      "Ġris": 2590,
      "pec": 2591,
      "ĠWhen": 2592,
      "ecause": 2593,
      "Ġexamine": 2594,
      "Ġ(âĪĳ": 2595,
      "/b": 2596,
      "bda": 2597,
      "vention": 2598,
      "onents": 2599,
      "arget": 2600,
      "Ġlabel": 2601,
      "Ġquant": 2602,
      "}$$ĊĊ": 2603,
      "Ġcoordinates": 2604,
      ")]": 2605,
      "nomial": 2606,
      "|^": 2607,
      "Ġid": 2608,
      "Ġide": 2609,
      "orth": 2610,
      "Ġperfect": 2611,
      "Ġcontent": 2612,
      "Ġenc": 2613,
      "Ġhuman": 2614,
      "Re": 2615,
      "omple": 2616,
      "stit": 2617,
      "veral": 2618,
      "play": 2619,
      "Ġparticular": 2620,
      "Ġmethods": 2621,
      "Ġautom": 2622,
      "order": 2623,
      "Ġmaps": 2624,
      "Ġrange": 2625,
      "ĠÎ´": 2626,
      "ensity": 2627,
      "ĠVal": 2628,
      "type": 2629,
      "Ġextrem": 2630,
      "96": 2631,
      "hold": 2632,
      "ĠĠĊĊ": 2633,
      "Ġgas": 2634,
      "rences": 2635,
      "-t": 2636,
      "]{": 2637,
      "Ġpred": 2638,
      "Ġthird": 2639,
      "ĠThese": 2640,
      "ĠGL": 2641,
      "ĠâĢĶ": 2642,
      "Ġdegree": 2643,
      "Ġresponse": 2644,
      "iness": 2645,
      "Ġmark": 2646,
      "aries": 2647,
      "ush": 2648,
      "ĠSum": 2649,
      "Ġgen": 2650,
      "ĠâĦĿ": 2651,
      "Ġrectangle": 2652,
      "(r": 2653,
      "rho": 2654,
      "Ġaverage": 2655,
      "Ġclose": 2656,
      "ording": 2657,
      "Ġsimple": 2658,
      "Ġdifference": 2659,
      "Ġcorrespon": 2660,
      "Ġgroups": 2661,
      "_y": 2662,
      "enef": 2663,
      "Ġdue": 2664,
      "Ġlies": 2665,
      "Ġgive": 2666,
      "ĠComm": 2667,
      "Ġwhy": 2668,
      "ustom": 2669,
      "Ġheight": 2670,
      "Ġinterpret": 2671,
      "Ġloop": 2672,
      "rightarrow": 2673,
      "Ġhigher": 2674,
      "'m": 2675,
      ")!": 2676,
      "ĠMod": 2677,
      "ĠRP": 2678,
      "Ġusually": 2679,
      "Ġarc": 2680,
      "ailed": 2681,
      "Ġparallel": 2682,
      "vious": 2683,
      "ĠWhat": 2684,
      "Ġroots": 2685,
      "81": 2686,
      "ering": 2687,
      "Ġfields": 2688,
      "ank": 2689,
      "Ġvs": 2690,
      "pping": 2691,
      "ĠEach": 2692,
      "Ġimpro": 2693,
      "Ġprim": 2694,
      "Ġanalysis": 2695,
      "Ġquadratic": 2696,
      ".âĢĿ": 2697,
      "tro": 2698,
      "rel": 2699,
      "Ġorgan": 2700,
      "Ġoutside": 2701,
      "appro": 2702,
      "Ġpairs": 2703,
      "Ġmeasure": 2704,
      "Since": 2705,
      "az": 2706,
      "Ġbreak": 2707,
      "osp": 2708,
      "Ġwhether": 2709,
      "duct": 2710,
      "ailable": 2711,
      ",c": 2712,
      "Ġhim": 2713,
      "ĠPer": 2714,
      "plicit": 2715,
      "Î¸": 2716,
      "igma": 2717,
      "),(": 2718,
      "Ġmodels": 2719,
      "Ġoperations": 2720,
      "Ġauth": 2721,
      "Ġellip": 2722,
      ".\"Ċ": 2723,
      "bed": 2724,
      "ners": 2725,
      "rary": 2726,
      "ype": 2727,
      "Ġlife": 2728,
      "Ġcircum": 2729,
      "Ġaffect": 2730,
      "Ġnecessarily": 2731,
      "AR": 2732,
      "ired": 2733,
      "Ġactually": 2734,
      "Ġfa": 2735,
      "Ġbelow": 2736,
      "sequ": 2737,
      "Ġperm": 2738,
      "Ġpossib": 2739,
      "Ġ<=": 2740,
      "Ġfeatures": 2741,
      "97": 2742,
      "ding": 2743,
      "orph": 2744,
      "Ġlight": 2745,
      "Ġsuccess": 2746,
      "There": 2747,
      "Ġvers": 2748,
      "Ġpartner": 2749,
      "ĠYou": 2750,
      "ĠStates": 2751,
      "Ġspecifically": 2752,
      "Ġindivid": 2753,
      "ohn": 2754,
      "<think": 2755,
      "ging": 2756,
      "tt": 2757,
      "yle": 2758,
      "}_": 2759,
      "ories": 2760,
      "Ġbenef": 2761,
      "ĠTe": 2762,
      "olve": 2763,
      "unction": 2764,
      "Ġvariable": 2765,
      "ucle": 2766,
      "()`": 2767,
      "mathbb": 2768,
      "bol": 2769,
      "oes": 2770,
      "rees": 2771,
      "Ġcoun": 2772,
      "Ġfree": 2773,
      "ĠSc": 2774,
      "Ġln": 2775,
      "Ġhorizon": 2776,
      "$$ĊĊ": 2777,
      "ritical": 2778,
      "Ġmove": 2779,
      "Ġlooking": 2780,
      "Ġpublic": 2781,
      "Ġpolynomial": 2782,
      "^m": 2783,
      "Îµ": 2784,
      "reate": 2785,
      "alk": 2786,
      "ĠAP": 2787,
      "Ġprom": 2788,
      "Ġnext": 2789,
      "load": 2790,
      "Ġshort": 2791,
      "Ġintern": 2792,
      "Ġapply": 2793,
      "Ġscal": 2794,
      "ĠABC": 2795,
      "ĠâĢĵ": 2796,
      "max": 2797,
      "-by": 2798,
      "psilon": 2799,
      "AL": 2800,
      "Ġtree": 2801,
      "Ġsit": 2802,
      "Ġview": 2803,
      "Ġseems": 2804,
      "Ġimm": 2805,
      "Ġmessage": 2806,
      "oss": 2807,
      "\"\"Ċ": 2808,
      "Ġ-(": 2809,
      "import": 2810,
      "izer": 2811,
      "Ġshape": 2812,
      "Ġfram": 2813,
      "lev": 2814,
      "Ġenvironment": 2815,
      "Ġphot": 2816,
      "linear": 2817,
      "with": 2818,
      "Ġdel": 2819,
      "radi": 2820,
      "ĠHall": 2821,
      "Ġpost": 2822,
      "ternal": 2823,
      "Ġderived": 2824,
      "lambda": 2825,
      "ĠMultiply": 2826,
      "/d": 2827,
      "Ġ__": 2828,
      "itle": 2829,
      "Ġpur": 2830,
      "Ġpack": 2831,
      "Ġ($": 2832,
      "utation": 2833,
      "Ġreport": 2834,
      "Ġhandle": 2835,
      "ĠTherefore": 2836,
      "Ġsense": 2837,
      "Ġfood": 2838,
      "Ġproduction": 2839,
      "Ġ\"\"\"": 2840,
      "orrect": 2841,
      "Ġfew": 2842,
      "ĠBe": 2843,
      "Ġattem": 2844,
      "ourse": 2845,
      "agement": 2846,
      "pha": 2847,
      "Ġeng": 2848,
      "Ġrequest": 2849,
      "Ġeduc": 2850,
      "Ġbook": 2851,
      "Ġfactorial": 2852,
      "Ġstrong": 2853,
      "Ġdevelopment": 2854,
      "Ġcontrol": 2855,
      "Ġslope": 2856,
      "Ġellipse": 2857,
      "56": 2858,
      "jor": 2859,
      "ye": 2860,
      "Ġwar": 2861,
      "ows": 2862,
      "Ġdep": 2863,
      "oney": 2864,
      "ittle": 2865,
      "Ġadjacent": 2866,
      "?<|": 2867,
      "oint": 2868,
      "Ġfar": 2869,
      "ĠApp": 2870,
      "Ġalgorithm": 2871,
      "ĠDis": 2872,
      "Ġsem": 2873,
      "^{\\": 2874,
      "ctual": 2875,
      "fty": 2876,
      "Ġcoll": 2877,
      "Ġrelative": 2878,
      "iment": 2879,
      "idence": 2880,
      "Ġvacc": 2881,
      "Ġneeded": 2882,
      "Ġgover": 2883,
      "Ġindependent": 2884,
      "action": 2885,
      "case": 2886,
      "atically": 2887,
      "Ġmiss": 2888,
      "ĠÎµ": 2889,
      "ĠAnal": 2890,
      "Ġassum": 2891,
      "Ġappears": 2892,
      "partial": 2893,
      "What": 2894,
      "Ġnetwork": 2895,
      "Ġconfiguration": 2896,
      "400": 2897,
      "infty": 2898,
      "Ġdx": 2899,
      "Ġsuper": 2900,
      "aches": 2901,
      ");Ċ": 2902,
      "Ġir": 2903,
      "Ġlit": 2904,
      "abor": 2905,
      "Ġdise": 2906,
      "Ġtransform": 2907,
      "ocus": 2908,
      "Ġindic": 2909,
      "Ġfamily": 2910,
      "ography": 2911,
      "Ġensure": 2912,
      "Ġfixed": 2913,
      "88": 2914,
      "sp": 2915,
      "Ġwater": 2916,
      "ĠCheck": 2917,
      "Ġproof": 2918,
      "plies": 2919,
      "Ġcontact": 2920,
      "Ġarbit": 2921,
      "Ġproblems": 2922,
      "mathcal": 2923,
      "ĠâĪ«_": 2924,
      "ek": 2925,
      "inary": 2926,
      "ision": 2927,
      "ĠBecause": 2928,
      "',Ċ": 2929,
      "Ġrelationship": 2930,
      "+\\": 2931,
      "au": 2932,
      "write": 2933,
      "Î³": 2934,
      "Ġ```": 2935,
      "head": 2936,
      "Ġeas": 2937,
      "ĠAm": 2938,
      "ended": 2939,
      "Ġunits": 2940,
      "}$,": 2941,
      "Ġmodulo": 2942,
      "'ve": 2943,
      "ured": 2944,
      "wise": 2945,
      "Ġfalse": 2946,
      "let": 2947,
      "Ġinitial": 2948,
      "ĠĠĠĠĠĠĠĠĠĠĠĠĊ": 2949,
      "Ġseveral": 2950,
      "Ġraise": 2951,
      "Ġtraining": 2952,
      "cohol": 2953,
      "Ġcontains": 2954,
      "Ġblack": 2955,
      "Ġprecisely": 2956,
      "SE": 2957,
      "bra": 2958,
      "cing": 2959,
      "Ġbest": 2960,
      "omic": 2961,
      "Ġlater": 2962,
      "ĠâĶ": 2963,
      "chie": 2964,
      "Ġuntil": 2965,
      "Ġangles": 2966,
      "ĠÏĥ": 2967,
      "ync": 2968,
      "visited": 2969,
      "_r": 2970,
      "city": 2971,
      "xtract": 2972,
      "198": 2973,
      "Ġaccount": 2974,
      "Ġadditive": 2975,
      "gests": 2976,
      "Ġgovern": 2977,
      "=b": 2978,
      "SC": 2979,
      "True": 2980,
      "\\theta": 2981,
      "].": 2982,
      "Ġ.": 2983,
      "Ġ--": 2984,
      "ĠCalcul": 2985,
      "urb": 2986,
      "ĠRed": 2987,
      "ĠWith": 2988,
      "...,": 2989,
      "Ġadv": 2990,
      "rices": 2991,
      "Ġextract": 2992,
      "Ġincrease": 2993,
      "User": 2994,
      "irect": 2995,
      "sive": 2996,
      "Ġmatrices": 2997,
      "Ġsyn": 2998,
      "append": 2999,
      "ĠUniversity": 3000,
      "Ġmidpoint": 3001,
      "Ġforce": 3002,
      "Ġgot": 3003,
      "ury": 3004,
      "Ġneeds": 3005,
      "Ġ'_": 3006,
      "Ġvariables": 3007,
      "abelian": 3008,
      "âĶĢâĶĢâĶĢâĶĢâĶĢâĶĢâĶĢâĶĢ": 3009,
      "$.Ċ": 3010,
      "-a": 3011,
      "-m": 3012,
      "ead": 3013,
      "Ġtim": 3014,
      "atin": 3015,
      "Ġbig": 3016,
      "clud": 3017,
      "Ġupd": 3018,
      "âī¥": 3019,
      "(Î±": 3020,
      "Ġpressure": 3021,
      "Compute": 3022,
      "_E": 3023,
      "}}{": 3024,
      "place": 3025,
      "Ġequations": 3026,
      "Ġcoe": 3027,
      "Ġconstraint": 3028,
      "Ġsegment": 3029,
      "Ġcells": 3030,
      "Ġtemperature": 3031,
      "Ġattempt": 3032,
      "\"ĊĊ": 3033,
      "(Ċ": 3034,
      "Ġvelo": 3035,
      "Ġinner": 3036,
      "oms": 3037,
      "Ġhalf": 3038,
      "ĠAdd": 3039,
      "urther": 3040,
      "Ġdev": 3041,
      "Ġequival": 3042,
      "ouse": 3043,
      "ework": 3044,
      "Ġscient": 3045,
      "ĠQu": 3046,
      "clusion": 3047,
      "Ġgeometry": 3048,
      "/q": 3049,
      "ged": 3050,
      "{T": 3051,
      "rehen": 3052,
      "uments": 3053,
      "Ġstack": 3054,
      "196": 3055,
      "Ġ[-": 3056,
      "valid": 3057,
      "Ġaddress": 3058,
      "Ġdescription": 3059,
      "Ġeffects": 3060,
      "Ġconsistent": 3061,
      "/s": 3062,
      "List": 3063,
      "dle": 3064,
      "mu": 3065,
      "Ġmicro": 3066,
      "char": 3067,
      "aced": 3068,
      "efine": 3069,
      "Ġdecre": 3070,
      "Ġcycle": 3071,
      "ĠSyri": 3072,
      "OT": 3073,
      "ister": 3074,
      "itness": 3075,
      "reshold": 3076,
      "Ġalcohol": 3077,
      "Ġinterest": 3078,
      "ression": 3079,
      "$$Ċ": 3080,
      "annel": 3081,
      "Ġmatching": 3082,
      "Ġsuggests": 3083,
      "approx": 3084,
      "OR": 3085,
      "ered": 3086,
      "Ġachie": 3087,
      "Ġcourse": 3088,
      "Ġlittle": 3089,
      "Ġchanges": 3090,
      "acters": 3091,
      "Ġequals": 3092,
      "Ġdistances": 3093,
      "Ġslight": 3094,
      "medi": 3095,
      "From": 3096,
      "sch": 3097,
      "Ġair": 3098,
      "ĠSp": 3099,
      "ession": 3100,
      "Ġshare": 3101,
      "Ġinterior": 3102,
      "Ġrecall": 3103,
      "ĠÏĪ": 3104,
      "Ġassume": 3105,
      "Ġrather": 3106,
      "plication": 3107,
      "================================": 3108,
      "ledge": 3109,
      "_data": 3110,
      ",âĢĿ": 3111,
      "Ġface": 3112,
      "Ġpri": 3113,
      "rop": 3114,
      "Ġonce": 3115,
      "Ġneut": 3116,
      "Ġsoft": 3117,
      "Ġenough": 3118,
      "Ġground": 3119,
      "Ġerr": 3120,
      "Ġcalculate": 3121,
      "-\\": 3122,
      ".p": 3123,
      "71": 3124,
      "?ĊĊ": 3125,
      "As": 3126,
      "SON": 3127,
      "aim": 3128,
      "tri": 3129,
      "Ġsort": 3130,
      "eds": 3131,
      "ropy": 3132,
      "Ġlat": 3133,
      "ĠĠĠĊ": 3134,
      "ĠComp": 3135,
      "Ġassoci": 3136,
      "Ġsearch": 3137,
      "Ġimpos": 3138,
      "print": 3139,
      "Ġavailable": 3140,
      "Ġanalyze": 3141,
      "AP": 3142,
      "man": 3143,
      "most": 3144,
      "une": 3145,
      "hers": 3146,
      "Ġcontrib": 3147,
      "Ġinstance": 3148,
      "Ġexplain": 3149,
      "pecific": 3150,
      "05": 3151,
      "[n": 3152,
      "upp": 3153,
      "Ġtoget": 3154,
      "Ġlay": 3155,
      "Ġexplicit": 3156,
      "iving": 3157,
      "ructure": 3158,
      "Ġevent": 3159,
      "Ġdetermine": 3160,
      "Ġtogether": 3161,
      "ault": 3162,
      "Ġcou": 3163,
      "orld": 3164,
      "arc": 3165,
      "ilt": 3166,
      "loy": 3167,
      "atory": 3168,
      "Ġminutes": 3169,
      "Ġsatisfies": 3170,
      "Ġtypical": 3171,
      "Ġchoose": 3172,
      "Ġmaking": 3173,
      "encies": 3174,
      "ĠÂ±": 3175,
      "Ġfaith": 3176,
      ")?": 3177,
      "len": 3178,
      "Ġ((": 3179,
      "Ġrh": 3180,
      "Ġliqu": 3181,
      "Ġcharacters": 3182,
      "Ġmittens": 3183,
      "Ġhorizontal": 3184,
      "(s": 3185,
      "Ġactual": 3186,
      "alpha": 3187,
      "Ġfocus": 3188,
      "arr": 3189,
      "Ġapplic": 3190,
      "Ġpartition": 3191,
      "Ġsubject": 3192,
      "value": 3193,
      "Ġdiscuss": 3194,
      "Ġcarefully": 3195,
      "=True": 3196,
      "IN": 3197,
      "Un": 3198,
      "\\pi": 3199,
      "ken": 3200,
      "Ġax": 3201,
      "inter": 3202,
      "ords": 3203,
      "icult": 3204,
      "uted": 3205,
      "ounds": 3206,
      "ĠEu": 3207,
      "Ġcomponents": 3208,
      "ĠInd": 3209,
      "Ġamong": 3210,
      "points": 3211,
      "Ġsubtract": 3212,
      "Ġvelocity": 3213,
      "uit": 3214,
      "zero": 3215,
      "Ġfrequ": 3216,
      "idth": 3217,
      "Ġbeli": 3218,
      "Ġchrom": 3219,
      "Ġequality": 3220,
      "ĠJohn": 3221,
      "Ġprevent": 3222,
      "Ġamount": 3223,
      "-based": 3224,
      "potency": 3225,
      "(k": 3226,
      "iol": 3227,
      "ms": 3228,
      "nown": 3229,
      "well": 3230,
      "Ġ!": 3231,
      "ones": 3232,
      "Ġsource": 3233,
      "Ġbus": 3234,
      "ĠCould": 3235,
      "loc": 3236,
      "Ġmajor": 3237,
      "Ġspecies": 3238,
      "Ġtangency": 3239,
      "Ġtypically": 3240,
      "Ġagainst": 3241,
      "ameters": 3242,
      "Ġparticip": 3243,
      "Ġcapacity": 3244,
      ".append": 3245,
      "BC": 3246,
      "bs": 3247,
      "go": 3248,
      "Ġmus": 3249,
      "ĠAL": 3250,
      "othe": 3251,
      "ĠCent": 3252,
      "Ġstore": 3253,
      "Ġempty": 3254,
      "Ġsatisfying": 3255,
      "-l": 3256,
      "oot": 3257,
      "utive": 3258,
      "ĠCol": 3259,
      "though": 3260,
      "Ġselect": 3261,
      "ĠÎ¼": 3262,
      "izing": 3263,
      "illion": 3264,
      "Ġcolors": 3265,
      "Ġsphere": 3266,
      "Ġintegral": 3267,
      "Ġreasoning": 3268,
      ",n": 3269,
      "CD": 3270,
      "ah": 3271,
      "rangle": 3272,
      "Î±": 3273,
      "Ġpay": 3274,
      "Ġwind": 3275,
      "uting": 3276,
      "ĠAK": 3277,
      "Ġstar": 3278,
      "ĠNow": 3279,
      "plit": 3280,
      "Ġshift": 3281,
      "Ġtransl": 3282,
      "Ġacce": 3283,
      ".\"ĊĊ": 3284,
      "ĠRetrie": 3285,
      "gamma": 3286,
      "Ġtarget": 3287,
      "ĠHow": 3288,
      "Ġspecial": 3289,
      "Ġoccur": 3290,
      "Ġdraw": 3291,
      "-step": 3292,
      "))/": 3293,
      "json": 3294,
      "Ġill": 3295,
      "Ġdt": 3296,
      "impl": 3297,
      "Ġorbit": 3298,
      "ĠFind": 3299,
      "ending": 3300,
      "andom": 3301,
      "Ġcomprehen": 3302,
      "rents": 3303,
      "Ġsinh": 3304,
      "Ġarr": 3305,
      "igned": 3306,
      ":**ĊĊ": 3307,
      "Ġsystems": 3308,
      "Ġsignific": 3309,
      "Ġbehav": 3310,
      "84": 3311,
      "How": 3312,
      "\\frac": 3313,
      "ats": 3314,
      "Ġcustom": 3315,
      "Ġbro": 3316,
      "Ġonto": 3317,
      "Ġasks": 3318,
      "axis": 3319,
      "Ġgrav": 3320,
      "Ġconnecting": 3321,
      "(v": 3322,
      "Ch": 3323,
      "\\cos": 3324,
      "_l": 3325,
      "ox": 3326,
      "qquad": 3327,
      "Ġways": 3328,
      "etter": 3329,
      "Ġreach": 3330,
      "omen": 3331,
      "ĠĠĠĠĠĠĠĠĠĠĠĠĠĠĠĠĠĠĠĠĠĠĠ": 3332,
      "istance": 3333,
      "ĠFl": 3334,
      "Ġleg": 3335,
      "Ġrelated": 3336,
      "ĠUnder": 3337,
      "Ġsteps": 3338,
      "Ġrequirements": 3339,
      "Ġtakes": 3340,
      ";ĊĊ": 3341,
      "IT": 3342,
      "br": 3343,
      "ties": 3344,
      "word": 3345,
      "Ġturn": 3346,
      "Ġfails": 3347,
      "Ġappropri": 3348,
      "Ġrelation": 3349,
      "Ġmonth": 3350,
      "ĠUsing": 3351,
      "535": 3352,
      "ID": 3353,
      "fer": 3354,
      "pts": 3355,
      "Ġtask": 3356,
      "erve": 3357,
      "Ġcult": 3358,
      "ital": 3359,
      "ctors": 3360,
      "Ġreview": 3361,
      "Ġhaving": 3362,
      "Ġgave": 3363,
      "Ġrate": 3364,
      "idered": 3365,
      "gebra": 3366,
      "Ġfund": 3367,
      "Ġconsidered": 3368,
      "Ġcarry": 3369,
      "Ġpersonal": 3370,
      "cer": 3371,
      "Ġcause": 3372,
      "oment": 3373,
      "ĠHam": 3374,
      "Ġinterval": 3375,
      "Ġspect": 3376,
      "ĠChar": 3377,
      "ĠâĦļ": 3378,
      "Ġobjects": 3379,
      "Ġestim": 3380,
      "Ġimplementation": 3381,
      "Ġdisease": 3382,
      "Se": 3383,
      "\\Ċ": 3384,
      "bal": 3385,
      "jection": 3386,
      "Ġdivide": 3387,
      "Ġdivides": 3388,
      "Ġhandling": 3389,
      "Ġslightly": 3390,
      "Ġsignificant": 3391,
      "))Ċ": 3392,
      "-con": 3393,
      "67": 3394,
      "LE": 3395,
      "When": 3396,
      "^p": 3397,
      "_h": 3398,
      "den": 3399,
      "Ġaway": 3400,
      "inci": 3401,
      "oman": 3402,
      "Ġhard": 3403,
      "umber": 3404,
      "ĠList": 3405,
      "ived": 3406,
      "Ġchain": 3407,
      "Ġimplies": 3408,
      "Ġsubgroup": 3409,
      "ĠState": 3410,
      "Ġexamples": 3411,
      "Ġobserv": 3412,
      "Ġexpressed": 3413,
      "hemat": 3414,
      "mega": 3415,
      "Ġpyramids": 3416,
      "\\text": 3417,
      "_C": 3418,
      "_\\": 3419,
      "reed": 3420,
      "ici": 3421,
      "Ġnucle": 3422,
      "utput": 3423,
      "Ġever": 3424,
      "Ġcand": 3425,
      "ĠHand": 3426,
      "dex": 3427,
      "Ġunvisited": 3428,
      "ĠInter": 3429,
      "Ġscale": 3430,
      "âīĪ": 3431,
      "Ġgreater": 3432,
      "Ġmakes": 3433,
      "grade": 3434,
      "Ġliquid": 3435,
      "/t": 3436,
      "One": 3437,
      "}\")Ċ": 3438,
      "Ġthings": 3439,
      "Ġhome": 3440,
      "ĠFe": 3441,
      "Ġdem": 3442,
      "anged": 3443,
      "Ġ|ĊĊ": 3444,
      "Ġparts": 3445,
      "Ġcontinue": 3446,
      "Ġlanguages": 3447,
      "ransform": 3448,
      "Ġadditional": 3449,
      "83": 3450,
      "bin": 3451,
      "ores": 3452,
      "ober": 3453,
      "inition": 3454,
      "Ġcapt": 3455,
      "ening": 3456,
      "ams": 3457,
      "Ġunless": 3458,
      "ĠUS": 3459,
      "duction": 3460,
      "Ġfinite": 3461,
      "Ġround": 3462,
      "Ġpaper": 3463,
      "Ġextra": 3464,
      "Ġoperator": 3465,
      "Ġeffective": 3466,
      "Ġdifficult": 3467,
      "Ġminimum": 3468,
      "Ġfaithful": 3469,
      "AT": 3470,
      "Term": 3471,
      "back": 3472,
      "iver": 3473,
      "Ġthus": 3474,
      "ĠTrue": 3475,
      "valu": 3476,
      "Ġcreated": 3477,
      "Ġpassing": 3478,
      "Ġpreserv": 3479,
      "Ġmechanism": 3480,
      "Here": 3481,
      "Ġrisk": 3482,
      ".d": 3483,
      "rum": 3484,
      "Ġess": 3485,
      "Ġdone": 3486,
      "ĠMon": 3487,
      "Ġunit": 3488,
      "ĠGood": 3489,
      "ogn": 3490,
      "Â°.": 3491,
      "Ġmole": 3492,
      "Ġmemory": 3493,
      "Ġappear": 3494,
      "Ġclear": 3495,
      "Ġdocument": 3496,
      "CC": 3497,
      "OA": 3498,
      "Ph": 3499,
      "Â·": 3500,
      "Ġdest": 3501,
      "izes": 3502,
      "Ġregard": 3503,
      "Ġphr": 3504,
      "360": 3505,
      "Ġvarious": 3506,
      "Ġphysical": 3507,
      "Ġsegments": 3508,
      "ategory": 3509,
      "300": 3510,
      "oy": 3511,
      "Ã©": 3512,
      "Ġlen": 3513,
      "Ġgl": 3514,
      "Ġ$(": 3515,
      "194": 3516,
      "Ġtrivial": 3517,
      "Ġembed": 3518,
      "Ġinvolution": 3519,
      "Ġlogic": 3520,
      "Ġdepends": 3521,
      "Ġhypot": 3522,
      "Ġhomothe": 3523,
      "glish": 3524,
      "Ġneighbor": 3525,
      "Ġrecursive": 3526,
      "Ġacceler": 3527,
      "$-": 3528,
      "94": 3529,
      "Sigma": 3530,
      "ln": 3531,
      "maybe": 3532,
      "net": 3533,
      "Ġmot": 3534,
      "lex": 3535,
      "vered": 3536,
      "Ġasking": 3537,
      "Ġinflu": 3538,
      "Ġincreasing": 3539,
      "ĠAfter": 3540,
      "Ġhistory": 3541,
      "ĠModel": 3542,
      "ĠAnalysis": 3543,
      "implify": 3544,
      "-k": 3545,
      "^\\": 3546,
      "div": 3547,
      "inc": 3548,
      "Ġfurther": 3549,
      "Ġ(âĪļ": 3550,
      "Ġexch": 3551,
      "istics": 3552,
      "key": 3553,
      "Ġplus": 3554,
      "Ġprevious": 3555,
      "Ġdidn": 3556,
      "Ġsymmetric": 3557,
      "{n": 3558,
      "à¯": 3559,
      "Ġport": 3560,
      "Ġbar": 3561,
      "Ġla": 3562,
      "stra": 3563,
      "Ġweight": 3564,
      "Ġyes": 3565,
      "ĠFirst": 3566,
      "ĠDen": 3567,
      "ĠEqu": 3568,
      "Ġnonabelian": 3569,
      "oween": 3570,
      "Ġinfinite": 3571,
      "Ġrows": 3572,
      "Ġnecessary": 3573,
      "Ġfamil": 3574,
      "Ġcomprehensive": 3575,
      "Omega": 3576,
      "ae": 3577,
      "Ġcsch": 3578,
      "Ġwants": 3579,
      "Ġconver": 3580,
      "ĠBy": 3581,
      "Ġdeb": 3582,
      "197": 3583,
      "}$.ĊĊ": 3584,
      "Ġdiagonals": 3585,
      "Ġdenote": 3586,
      "Ġderivative": 3587,
      "Ġmaintain": 3588,
      "Ġdivision": 3589,
      "ombus": 3590,
      "EF": 3591,
      "phe": 3592,
      "Ġable": 3593,
      "itch": 3594,
      "Ġdat": 3595,
      "odes": 3596,
      "Ġcontradi": 3597,
      "Ġgoes": 3598,
      "ĠAnswer": 3599,
      "rons": 3600,
      "ometimes": 3601,
      "Ġrefer": 3602,
      "Ġallowed": 3603,
      "Ġdivisible": 3604,
      "Wait": 3605,
      "ted": 3606,
      "wo": 3607,
      "Ġfri": 3608,
      "Ġpast": 3609,
      "entially": 3610,
      "**,": 3611,
      "ĠMan": 3612,
      "Ġcome": 3613,
      "Ġiter": 3614,
      "actor": 3615,
      "ĠGener": 3616,
      "Ġclaim": 3617,
      "Ġupper": 3618,
      "lower": 3619,
      "Ġothers": 3620,
      "Â°.ĊĊ": 3621,
      "Ġactiv": 3622,
      "Ġcommunic": 3623,
      "Ġcontinuous": 3624,
      "Ġbehavior": 3625,
      "=\\": 3626,
      "It": 3627,
      "sim": 3628,
      "isect": 3629,
      "Ġblo": 3630,
      "irs": 3631,
      "ategor": 3632,
      "ĠPr": 3633,
      "Ġpercent": 3634,
      "Ġquot": 3635,
      "Ġpartners": 3636,
      "Ġprovides": 3637,
      "Ġparent": 3638,
      "cale": 3639,
      "Ġpolit": 3640,
      "ĠReturns": 3641,
      "ottom": 3642,
      "ĠCalculate": 3643,
      "-axis": 3644,
      "âģ": 3645,
      "ised": 3646,
      "Ġfore": 3647,
      "ante": 3648,
      "Ġmoment": 3649,
      "Ġdays": 3650,
      "Ġhours": 3651,
      "iling": 3652,
      "Ġvir": 3653,
      "Ġalt": 3654,
      "ĠRec": 3655,
      "dem": 3656,
      "Ġtwice": 3657,
      "Ġforms": 3658,
      "ĠVerification": 3659,
      "ĠXY": 3660,
      "Ġdescribed": 3661,
      "--------------------------------": 3662,
      "Ġcommunity": 3663,
      "ĠOptional": 3664,
      "Ġrhombus": 3665,
      "ĠRetrieved": 3666,
      "+x": 3667,
      "II": 3668,
      "leq": 3669,
      "ĠCal": 3670,
      "clude": 3671,
      "Ġsocial": 3672,
      "ĠJSON": 3673,
      "Ġphone": 3674,
      "Ġincircle": 3675,
      "Ġdiscr": 3676,
      "Ġimprove": 3677,
      "-cy": 3678,
      "QL": 3679,
      "bar": 3680,
      "ched": 3681,
      "mary": 3682,
      "rated": 3683,
      "{a": 3684,
      "ĊĠĠĠĠĠĠĠĠĊ": 3685,
      "Ġage": 3686,
      "atter": 3687,
      "Ġbir": 3688,
      "Ġbisect": 3689,
      "state": 3690,
      "Ġ\\[Ċ": 3691,
      "Ġxy": 3692,
      "âĪĤ": 3693,
      ".\"\"\"Ċ": 3694,
      "aneous": 3695,
      "Ġfemale": 3696,
      "ĠAPI": 3697,
      "Ġbelie": 3698,
      ")-": 3699,
      ",...,": 3700,
      "800": 3701,
      "?\"": 3702,
      "ply": 3703,
      "{x": 3704,
      "Ġ,": 3705,
      "Ġ.Ċ": 3706,
      "Ġwave": 3707,
      "Ġconcept": 3708,
      "result": 3709,
      "Ġkm": 3710,
      "ĠRem": 3711,
      "ĠRock": 3712,
      "Ġdemon": 3713,
      "ĠOver": 3714,
      "ctures": 3715,
      "ills": 3716,
      "Ġresources": 3717,
      "ensions": 3718,
      "Ġexplo": 3719,
      "Ġcycles": 3720,
      "Ġpatterns": 3721,
      "Ġpubl": 3722,
      "().": 3723,
      ")*": 3724,
      "AN": 3725,
      "DE": 3726,
      "Equ": 3727,
      "Im": 3728,
      "Res": 3729,
      "Set": 3730,
      "dent": 3731,
      "file": 3732,
      "langle": 3733,
      "now": 3734,
      "Ġ_": 3735,
      "index": 3736,
      "ĠCan": 3737,
      "193": 3738,
      "Ġquick": 3739,
      "Ġabstract": 3740,
      "Ġpairing": 3741,
      "Ġwords": 3742,
      "ĠEnglish": 3743,
      "Ġprogramming": 3744,
      "Ġregularity": 3745,
      "Ġindividual": 3746,
      "Ġassociated": 3747,
      "04": 3748,
      "View": 3749,
      "[str": 3750,
      "mber": 3751,
      "pes": 3752,
      "}(\\": 3753,
      "ĠFalse": 3754,
      "oung": 3755,
      "ĠWorld": 3756,
      "Ġknowledge": 3757,
      "Ġextreme": 3758,
      ")+": 3759,
      ",z": 3760,
      ";\\": 3761,
      "_F": 3762,
      "off": 3763,
      "uck": 3764,
      "Ġcoth": 3765,
      "Ġhost": 3766,
      "ĠAcc": 3767,
      "Ġyet": 3768,
      "Ġexternal": 3769,
      "Ġwhite": 3770,
      "ache": 3771,
      "111": 3772,
      "Ġload": 3773,
      "ranch": 3774,
      ".com": 3775,
      "Ġarticle": 3776,
      "Ġthought": 3777,
      "Ġquantum": 3778,
      "Ġimpossible": 3779,
      "(m": 3780,
      "PC": 3781,
      "`:": 3782,
      "ises": 3783,
      "Ġwon": 3784,
      "Ġwait": 3785,
      "Ġmale": 3786,
      "Ġdru": 3787,
      "Ġdynam": 3788,
      "omorph": 3789,
      "ĠBrit": 3790,
      "ounts": 3791,
      "ĠYork": 3792,
      "Ġfunctional": 3793,
      "Ġscript": 3794,
      "aking": 3795,
      "Ġtrack": 3796,
      "Ġfeel": 3797,
      "Ġproperties": 3798,
      "Ġidentify": 3799,
      "Ġavoid": 3800,
      "Ġoccurs": 3801,
      "Ġseparate": 3802,
      "Ġservice": 3803,
      "ĠValue": 3804,
      "cluding": 3805,
      "-n": 3806,
      "07": 3807,
      "_b": 3808,
      "rong": 3809,
      "yond": 3810,
      "}-": 3811,
      "anation": 3812,
      "Ġisol": 3813,
      "Ġthing": 3814,
      "olute": 3815,
      "urt": 3816,
      "Ġorth": 3817,
      "Ġlearn": 3818,
      "ferences": 3819,
      "ĠGu": 3820,
      "184": 3821,
      "ĠÏĦ": 3822,
      "Ġarguments": 3823,
      "overrightarrow": 3824,
      "Ġtreatment": 3825,
      "Ġsentence": 3826,
      "-p": 3827,
      "Similarly": 3828,
      "atography": 3829,
      "idue": 3830,
      "igen": 3831,
      "Ġnever": 3832,
      "ĠPos": 3833,
      "redit": 3834,
      "jective": 3835,
      "Ġfactors": 3836,
      "ishing": 3837,
      "Ġrotation": 3838,
      "Ġissues": 3839,
      "Ġarcsin": 3840,
      "Ġappropriate": 3841,
      "Ġhomothety": 3842,
      "IM": 3843,
      "`Ċ": 3844,
      "gence": 3845,
      "no": 3846,
      "time": 3847,
      "Ġtool": 3848,
      "Ġhar": 3849,
      "ilton": 3850,
      "Ġbeyond": 3851,
      "aging": 3852,
      "section": 3853,
      "007": 3854,
      "ĠOne": 3855,
      "pling": 3856,
      "ĠThus": 3857,
      "102": 3858,
      "ĠChrist": 3859,
      "Ġbox": 3860,
      "Ġmembers": 3861,
      "Ġperiodic": 3862,
      "Ġmaterials": 3863,
      "Ġaxis": 3864,
      "Ġfundam": 3865,
      "():Ċ": 3866,
      "600": 3867,
      "war": 3868,
      "{b": 3869,
      "Ġput": 3870,
      "ĠSet": 3871,
      "Ġloss": 3872,
      "chite": 3873,
      "Ġcollect": 3874,
      "icket": 3875,
      "Ġderive": 3876,
      "Ġentire": 3877,
      "Ġoptimal": 3878,
      "Ġestabl": 3879,
      "Ġinterpretation": 3880,
      ".âĢĿĊ": 3881,
      "-S": 3882,
      "First": 3883,
      "OM": 3884,
      "RE": 3885,
      "mb": 3886,
      "Ġfac": 3887,
      "ĠCo": 3888,
      "Ġviol": 3889,
      "agram": 3890,
      "Ġrank": 3891,
      "ĠFinal": 3892,
      "ĠDep": 3893,
      "ĠEF": 3894,
      "ĠOct": 3895,
      "board": 3896,
      "150": 3897,
      "Ġparameter": 3898,
      "nergy": 3899,
      "itted": 3900,
      "Ġservices": 3901,
      "Ġversion": 3902,
      "ĠHalloween": 3903,
      "Ġ!=": 3904,
      "phene": 3905,
      "\\left": 3906,
      "}.Ċ": 3907,
      "ina": 3908,
      "Ġpi": 3909,
      "Ġmi": 3910,
      "ilit": 3911,
      "Ġstra": 3912,
      "ĠNational": 3913,
      "Ġlearning": 3914,
      "duced": 3915,
      "Ġprinci": 3916,
      "Ġtransformation": 3917,
      "ĠCont": 3918,
      "Ġdivisor": 3919,
      "Ġimpact": 3920,
      "Ġgravity": 3921,
      "'.": 3922,
      "\\n": 3923,
      "do": 3924,
      "iency": 3925,
      "sel": 3926,
      "uff": 3927,
      "onal": 3928,
      "Ġdr": 3929,
      "leep": 3930,
      "ĠMin": 3931,
      "hern": 3932,
      "ĠWar": 3933,
      "acy": 3934,
      "195": 3935,
      "Ġclosed": 3936,
      "ĠAny": 3937,
      "output": 3938,
      "Ġcentral": 3939,
      "Input": 3940,
      "Ġassign": 3941,
      "Also": 3942,
      "ĠReg": 3943,
      "Ġcalls": 3944,
      "Ġincreases": 3945,
      "Ġhyper": 3946,
      "Ġunderstanding": 3947,
      "ĲâķĲâķĲâķĲâķ": 3948,
      "ĠSyrian": 3949,
      "ĠHamilton": 3950,
      "AS": 3951,
      "Cl": 3952,
      "hood": 3953,
      "mall": 3954,
      "tical": 3955,
      "yd": 3956,
      "Ġes": 3957,
      "Ġ).": 3958,
      "Ġ)^{": 3959,
      "input": 3960,
      "Ġbul": 3961,
      "lying": 3962,
      "Ġlon": 3963,
      "Ġusage": 3964,
      "lobal": 3965,
      "Ġchall": 3966,
      "top": 3967,
      "ips": 3968,
      "Ġplant": 3969,
      "Ġdefinition": 3970,
      "135": 3971,
      "lied": 3972,
      "Ġparticle": 3973,
      "Ġpyramid": 3974,
      "Ġgovernment": 3975,
      "binom": 3976,
      "Field": 3977,
      "ext": 3978,
      "gen": 3979,
      "known": 3980,
      "{R": 3981,
      "hema": 3982,
      "ĠĠĠĠĠĠ": 3983,
      "irm": 3984,
      "ĠKey": 3985,
      "Ġrecord": 3986,
      "_name": 3987,
      "Ġlargest": 3988,
      "Ġdetails": 3989,
      "ĠExp": 3990,
      "867": 3991,
      "ĠâľĵĊ": 3992,
      "Ġfraction": 3993,
      "Ġpredict": 3994,
      "Ġscaling": 3995,
      "Ġblood": 3996,
      ".add": 3997,
      "fig": 3998,
      "oper": 3999,
      "ĊĠĊ": 4000,
      "Ġsite": 4001,
      "atal": 4002,
      "Ġdensity": 4003,
      "Ġreference": 4004,
      "raw": 4005,
      "Ġbegin": 4006,
      "Ġconj": 4007,
      "âĢ¦": 4008,
      "Ġleaves": 4009,
      "Ġrole": 4010,
      "fficients": 4011,
      "Ġmeaning": 4012,
      "Ġauthor": 4013,
      "levant": 4014,
      "Ġdiscrimin": 4015,
      "ĠHamiltonian": 4016,
      "AM": 4017,
      "IC": 4018,
      "ball": 4019,
      "sider": 4020,
      "uous": 4021,
      "ĠĊĊ": 4022,
      "Ġ)Ċ": 4023,
      "atur": 4024,
      "roid": 4025,
      "Ġeffic": 4026,
      "ĠSub": 4027,
      "eterm": 4028,
      "idate": 4029,
      "ifies": 4030,
      "Ġexce": 4031,
      "ĠPar": 4032,
      "ĠRep": 4033,
      "ublic": 4034,
      "Ġparents": 4035,
      "Ġincluded": 4036,
      "Ġasked": 4037,
      "ĠUsually": 4038,
      "Ġreduce": 4039,
      "Ġseparation": 4040,
      ")}{": 4041,
      "-le": 4042,
      "No": 4043,
      "vature": 4044,
      "inst": 4045,
      "Ġcity": 4046,
      "orpor": 4047,
      "Ġfall": 4048,
      "anced": 4049,
      "Ġmess": 4050,
      "Ġnature": 4051,
      "ĠSome": 4052,
      "ump": 4053,
      "Ġste": 4054,
      "Ġexception": 4055,
      "pped": 4056,
      "ĠDE": 4057,
      "ĠDes": 4058,
      "dered": 4059,
      "acro": 4060,
      "ĠGe": 4061,
      "Ġmeet": 4062,
      "Ġplaced": 4063,
      "Ġconstruct": 4064,
      "Ġhold": 4065,
      "attice": 4066,
      "Ġequivalent": 4067,
      "-A": 4068,
      "01": 4069,
      "dis": 4070,
      "lim": 4071,
      "non": 4072,
      "wards": 4073,
      "{c": 4074,
      "atives": 4075,
      "ising": 4076,
      "Ġpie": 4077,
      "ĠSci": 4078,
      "Ġgr": 4079,
      "que": 4080,
      "Ġcong": 4081,
      "Ġstrict": 4082,
      "Ġrandom": 4083,
      "ĠPart": 4084,
      "Ġitems": 4085,
      "Ġsec": 4086,
      "Ġsimply": 4087,
      "ervation": 4088,
      "Ġobtain": 4089,
      "Ġemp": 4090,
      "Ġshows": 4091,
      "Ġapproximate": 4092,
      "ĠDenominator": 4093,
      "\",Ċ": 4094,
      "my": 4095,
      "xy": 4096,
      "onic": 4097,
      "Ġbit": 4098,
      "Ġmillion": 4099,
      "rope": 4100,
      "Ġecon": 4101,
      "ĠSolution": 4102,
      "ĠSlight": 4103,
      "ĠCar": 4104,
      "estamp": 4105,
      "ĠInc": 4106,
      "Ġexpans": 4107,
      "Ġspeed": 4108,
      "Ġcommute": 4109,
      "Ġabc": 4110,
      "Ġgenerally": 4111,
      "model": 4112,
      "Ġdeveloped": 4113,
      "Ġsuggest": 4114,
      "Ġprotect": 4115,
      "Ġsymmetry": 4116,
      "Ġcoefficients": 4117,
      "Ġmusic": 4118,
      "hematical": 4119,
      "))^": 4120,
      ")$,": 4121,
      "/M": 4122,
      "414": 4123,
      "Maybe": 4124,
      "Simplify": 4125,
      "actions": 4126,
      "vare": 4127,
      "Ġsaw": 4128,
      "arante": 4129,
      "ingu": 4130,
      "etch": 4131,
      "Ġ\\]ĊĊ": 4132,
      "iform": 4133,
      "ules": 4134,
      "ĠBD": 4135,
      "amed": 4136,
      "amples": 4137,
      "Ġ$$$": 4138,
      "abilities": 4139,
      "ibility": 4140,
      "Ġcards": 4141,
      "ĠAmerica": 4142,
      "Ġallows": 4143,
      "Ġsitu": 4144,
      "ĠâĶĤ": 4145,
      "Ġdemonstr": 4146,
      "varepsilon": 4147,
      "+q": 4148,
      "/a": 4149,
      "DM": 4150,
      "sy": 4151,
      "Ġcritical": 4152,
      "enari": 4153,
      "Ġbottom": 4154,
      "Ġinfe": 4155,
      "ĠShe": 4156,
      "Ġland": 4157,
      "ĠLo": 4158,
      "Ġ['": 4159,
      "agonal": 4160,
      "Ġrad": 4161,
      "ront": 4162,
      "}\\)": 4163,
      "Ġoperation": 4164,
      "-check": 4165,
      "Ġphrase": 4166,
      "Ġlonger": 4167,
      "On": 4168,
      "aff": 4169,
      "erc": 4170,
      "Ġchem": 4171,
      "Ġbrain": 4172,
      "Ġmoney": 4173,
      "Ġinher": 4174,
      "Ġtouc": 4175,
      "Ġtoday": 4176,
      "raq": 4177,
      "string": 4178,
      "eline": 4179,
      "Ġyoung": 4180,
      "Ġstat": 4181,
      "Ġ$|": 4182,
      "inear": 4183,
      "Ġcomposition": 4184,
      "192": 4185,
      "Ġjson": 4186,
      "Ġtradition": 4187,
      ".ex": 4188,
      "ĠWhy": 4189,
      "Ġnumeric": 4190,
      "imensional": 4191,
      "Ġpopulation": 4192,
      "Ġcomplexity": 4193,
      "Ġabsolute": 4194,
      "Ġpermutation": 4195,
      "Ġaltitude": 4196,
      "ĠValueError": 4197,
      "down": 4198,
      "mid": 4199,
      "}}$": 4200,
      "Ġaw": 4201,
      "Ġfoot": 4202,
      "ley": 4203,
      "Ġnorm": 4204,
      "Ġnames": 4205,
      "Ġbegan": 4206,
      "ĠIS": 4207,
      "unity": 4208,
      "ama": 4209,
      "odd": 4210,
      "ategy": 4211,
      "sec": 4212,
      "plt": 4213,
      "book": 4214,
      "geq": 4215,
      "ccos": 4216,
      "Ġmatter": 4217,
      "Ġcollection": 4218,
      "ervice": 4219,
      "__(": 4220,
      "Ġaccept": 4221,
      "Ġcalculation": 4222,
      "Ġdigits": 4223,
      "Ġphysics": 4224,
      "Ġpractice": 4225,
      "ĠEurope": 4226,
      "Ġfundamental": 4227,
      "06": 4228,
      "Le": 4229,
      "PO": 4230,
      "{O": 4231,
      "hest": 4232,
      "ream": 4233,
      "Ġ(\\": 4234,
      "Ġmis": 4235,
      "uture": 4236,
      "usion": 4237,
      "ĠSchool": 4238,
      "Ġreally": 4239,
      "Ġlic": 4240,
      "ĠTra": 4241,
      "Ġalgebra": 4242,
      "ĠMo": 4243,
      "begin": 4244,
      "Ġcolle": 4245,
      "Ġdisco": 4246,
      "Ġrelig": 4247,
      "Ġcreates": 4248,
      "Ġinstall": 4249,
      "String": 4250,
      "ĠHere": 4251,
      "Ġreduces": 4252,
      "Ġcolumns": 4253,
      "Ġhappen": 4254,
      "Ġsoftware": 4255,
      "Ġfamilies": 4256,
      "Ġorthog": 4257,
      "Ġcongru": 4258,
      "-res": 4259,
      ".h": 4260,
      "82": 4261,
      "\\).": 4262,
      "{}": 4263,
      "Ġtell": 4264,
      "Ġaff": 4265,
      "Ġsn": 4266,
      "Ġpers": 4267,
      "Ġpush": 4268,
      "Ġdb": 4269,
      "lement": 4270,
      "imate": 4271,
      "unch": 4272,
      "ĠLatin": 4273,
      "istry": 4274,
      "rency": 4275,
      "Ġdiameter": 4276,
      "ourn": 4277,
      "ounded": 4278,
      "Ġteam": 4279,
      "```Ċ": 4280,
      "Ġaccording": 4281,
      "Ġinstead": 4282,
      "Ġmoves": 4283,
      "ierarch": 4284,
      "ĠAfric": 4285,
      "Ġrespectively": 4286,
      "omplete": 4287,
      "ĠRockwell": 4288,
      "'d": 4289,
      "-negative": 4290,
      "89": 4291,
      "_H": 4292,
      "pose": 4293,
      "sh": 4294,
      "uals": 4295,
      "xi": 4296,
      "ÏĦ": 4297,
      "including": 4298,
      "iting": 4299,
      "ĠSolve": 4300,
      "imals": 4301,
      "ĠAb": 4302,
      "ĠPre": 4303,
      "ĠHar": 4304,
      "empotency": 4305,
      "250": 4306,
      "Ġclos": 4307,
      "Ġlie": 4308,
      "Ġbecame": 4309,
      "Ġtriang": 4310,
      "Ġtransition": 4311,
      "ĠIndex": 4312,
      "Ġeducation": 4313,
      "://": 4314,
      "En": 4315,
      "You": 4316,
      "_j": 4317,
      "lor": 4318,
      "ml": 4319,
      "{A": 4320,
      "Ġtable": 4321,
      "Ġfive": 4322,
      "Ġwild": 4323,
      "ĠĠĠĠĠĊ": 4324,
      "ĠMed": 4325,
      "ĠDN": 4326,
      "Ġleaf": 4327,
      "ensive": 4328,
      "Ġrock": 4329,
      "Ġdisj": 4330,
      "Ġdisplay": 4331,
      "Ġdense": 4332,
      "Ġends": 4333,
      "Store": 4334,
      "Ġstrategy": 4335,
      "Ġintro": 4336,
      "Ġlimited": 4337,
      "Ġdetermined": 4338,
      "Ġpositions": 4339,
      "Ġchromatography": 4340,
      "Ġquotient": 4341,
      "(N": 4342,
      "circ": 4343,
      "reated": 4344,
      "error": 4345,
      "Ġsometimes": 4346,
      "Ġcr": 4347,
      "Ġcal": 4348,
      "ĠnÏĢ": 4349,
      "ĠIraq": 4350,
      "Ġareas": 4351,
      "rip": 4352,
      "ĠEnergy": 4353,
      "Ġchannel": 4354,
      "Ġheav": 4355,
      "ached": 4356,
      "Ġadmin": 4357,
      "Ġcentury": 4358,
      "Ġmultiply": 4359,
      "Ġdescrib": 4360,
      "Ġmagnitude": 4361,
      "-w": 4362,
      "[i": 4363,
      "com": 4364,
      "opt": 4365,
      "Ġcm": 4366,
      "Ġword": 4367,
      "utor": 4368,
      "Ġeff": 4369,
      "Ġforces": 4370,
      "ĠPo": 4371,
      "Ġkin": 4372,
      "ĠÎ»": 4373,
      "ogene": 4374,
      "Ġplants": 4375,
      "cont": 4376,
      "Ġarccos": 4377,
      "Ġscenari": 4378,
      "Ġcircuit": 4379,
      "Ġrecent": 4380,
      "Ġhelpful": 4381,
      "Ġcontaining": 4382,
      "Ġclearly": 4383,
      "Ġexperim": 4384,
      "Ġbasic": 4385,
      "Ġissue": 4386,
      "Ġexplore": 4387,
      "Ġdrug": 4388,
      "/âĪĤ": 4389,
      "Better": 4390,
      "GM": 4391,
      "ai": 4392,
      "bc": 4393,
      "ground": 4394,
      "mosp": 4395,
      "{m": 4396,
      "init": 4397,
      "Ġsix": 4398,
      "Ġpain": 4399,
      "Ġpick": 4400,
      "ĠSupp": 4401,
      "ĠType": 4402,
      "ĠAD": 4403,
      "Ġgain": 4404,
      "ĠCount": 4405,
      "ags": 4406,
      "Ġsection": 4407,
      "plain": 4408,
      "Ġimmedi": 4409,
      "Ġliable": 4410,
      "Ġtransport": 4411,
      "Ġremo": 4412,
      "ĠProblem": 4413,
      "Ġconcave": 4414,
      "Ġfollows": 4415,
      "(bn": 4416,
      "Ġmeasures": 4417,
      "stitute": 4418,
      "Ġacceleration": 4419,
      "-cycle": 4420,
      "')^": 4421,
      ")**": 4422,
      "Or": 4423,
      "\\[": 4424,
      "_K": 4425,
      "lap": 4426,
      "Ġtalk": 4427,
      "Ġce": 4428,
      "Ġmar": 4429,
      "Ġrepe": 4430,
      "Ġrelevant": 4431,
      "ĠTrans": 4432,
      "ĠAust": 4433,
      "Ġweek": 4434,
      "Ġstatus": 4435,
      "aged": 4436,
      "Ġshown": 4437,
      "ourd": 4438,
      "Ġpartial": 4439,
      "Ġcenters": 4440,
      "Ġworking": 4441,
      "Ġagree": 4442,
      "Ġinsert": 4443,
      "Ġstudent": 4444,
      "Ġstudies": 4445,
      "Ġinvest": 4446,
      "Ġsaf": 4447,
      "Ġmiddle": 4448,
      "ĠSystem": 4449,
      "Ġneighbors": 4450,
      "Ġdecreasing": 4451,
      "Ġbusiness": 4452,
      "Ġmonths": 4453,
      "Ġisolated": 4454,
      "selves": 4455,
      "(e": 4456,
      "-x": 4457,
      "ST": 4458,
      "]:Ċ": 4459,
      "flo": 4460,
      "mat": 4461,
      "ww": 4462,
      "inical": 4463,
      "enn": 4464,
      "Ġbal": 4465,
      "Ġmiles": 4466,
      "Ġdog": 4467,
      "ĠAss": 4468,
      "olved": 4469,
      "ilater": 4470,
      "Ġ\\),": 4471,
      "Ġconce": 4472,
      "ager": 4473,
      "Ġhex": 4474,
      "Ġunb": 4475,
      "Then": 4476,
      "124": 4477,
      "Ġgiving": 4478,
      "cially": 4479,
      "Ġtravel": 4480,
      "Ġaccur": 4481,
      "ĠUnion": 4482,
      "Ġwhole": 4483,
      "Ġcountry": 4484,
      "lands": 4485,
      "Ġclean": 4486,
      "Ġresearc": 4487,
      "Ġerrors": 4488,
      "Ġstraight": 4489,
      "ourdough": 4490,
      ")`": 4491,
      "vari": 4492,
      "Ġcame": 4493,
      "Ġbranch": 4494,
      "Ġmut": 4495,
      "Ġ+=": 4496,
      "oura": 4497,
      "iforn": 4498,
      "Ġstop": 4499,
      "Ġprojection": 4500,
      "ĠRel": 4501,
      "Ġseen": 4502,
      "Ġmodern": 4503,
      "akes": 4504,
      "hesis": 4505,
      "Ġthemselves": 4506,
      "inding": 4507,
      "Ġcurve": 4508,
      "Ġentropy": 4509,
      "iques": 4510,
      "Ġmedic": 4511,
      "sibly": 4512,
      "Ġbasis": 4513,
      "Ġlevels": 4514,
      "Ġengine": 4515,
      "Ġpublished": 4516,
      "ĠOctober": 4517,
      "\\]Ċ": 4518,
      "ha": 4519,
      "nu": 4520,
      "inity": 4521,
      "oring": 4522,
      "items": 4523,
      "Ġbrid": 4524,
      "Ġmount": 4525,
      "Ġrevers": 4526,
      "ĠTime": 4527,
      "Ġconsequ": 4528,
      "versible": 4529,
      "iral": 4530,
      "Ġcompar": 4531,
      "Ġlegs": 4532,
      "ĠInput": 4533,
      "Ġconstruction": 4534,
      "Ġjo": 4535,
      "164": 4536,
      "rics": 4537,
      "Ġparameters": 4538,
      "iginal": 4539,
      "riter": 4540,
      "mathrm": 4541,
      "Ġquestions": 4542,
      "position": 4543,
      "Ġremaining": 4544,
      "ugust": 4545,
      "ĠAmericans": 4546,
      "Ġexpects": 4547,
      "Ġcomputed": 4548,
      "Ġguarante": 4549,
      "olean": 4550,
      "abla": 4551,
      "Ġtouches": 4552,
      "ifornia": 4553,
      "-to": 4554,
      "243": 4555,
      "][": 4556,
      "_to": 4557,
      "circle": 4558,
      "date": 4559,
      "pag": 4560,
      "vals": 4561,
      "inder": 4562,
      "orough": 4563,
      "itivity": 4564,
      "Ġthreshold": 4565,
      "ĠBO": 4566,
      "Ġrule": 4567,
      "rier": 4568,
      "ried": 4569,
      "Ġwhose": 4570,
      "Ġshared": 4571,
      "Ġverification": 4572,
      "Ġarray": 4573,
      ")))": 4574,
      "Ġupon": 4575,
      "333": 4576,
      "ĠRead": 4577,
      "Ġremains": 4578,
      "Ġestate": 4579,
      "Ġtechnical": 4580,
      "Ġcoordinate": 4581,
      "ĠPlay": 4582,
      "Ġoptimization": 4583,
      "Ġprimary": 4584,
      "Ġframework": 4585,
      "trivial": 4586,
      "Ġpartnership": 4587,
      "Ġefficiency": 4588,
      "785": 4589,
      "AOA": 4590,
      "\\|": 4591,
      "gg": 4592,
      "lies": 4593,
      "sub": 4594,
      "Ġ@": 4595,
      "Ġtax": 4596,
      "Ġcategory": 4597,
      "Ġcategor": 4598,
      "Ġfig": 4599,
      "edge": 4600,
      "Ġda": 4601,
      "Ġ-\\": 4602,
      "uster": 4603,
      "ĠSep": 4604,
      "igration": 4605,
      "umer": 4606,
      "Ġrights": 4607,
      "Ġcancer": 4608,
      "local": 4609,
      "active": 4610,
      "itting": 4611,
      "Ġconcurrent": 4612,
      "655": 4613,
      "Ġsurfaces": 4614,
      "Ġleading": 4615,
      "Ġcorresponds": 4616,
      "Ġliter": 4617,
      "Ġarbitrary": 4618,
      "Ġapplication": 4619,
      "Ġsafety": 4620,
      "+n": 4621,
      "-di": 4622,
      ".b": 4623,
      "625": 4624,
      "AD": 4625,
      "By": 4626,
      "Type": 4627,
      "Verification": 4628,
      "arent": 4629,
      "even": 4630,
      "Ġtrees": 4631,
      "Ġwrong": 4632,
      "Ġann": 4633,
      "Ġdu": 4634,
      "vey": 4635,
      "Ġrates": 4636,
      "Ġrating": 4637,
      "Ġcomes": 4638,
      "ĠRoman": 4639,
      "izable": 4640,
      "ĠGerm": 4641,
      "Ġcreating": 4642,
      "process": 4643,
      "ĠExample": 4644,
      "Ġoffic": 4645,
      "Ġvectors": 4646,
      "Ġbuilt": 4647,
      "Ġpolar": 4648,
      "_file": 4649,
      "Ġelectron": 4650,
      "ĠShow": 4651,
      "491": 4652,
      "Ġdepth": 4653,
      "ĠCalifornia": 4654,
      "ĠPossibly": 4655,
      "Ġorthogonal": 4656,
      "ilateral": 4657,
      ",-": 4658,
      ".f": 4659,
      ".py": 4660,
      "69": 4661,
      "\\sin": 4662,
      "\\boxed": 4663,
      "])Ċ": 4664,
      "fol": 4665,
      "hing": 4666,
      "tan": 4667,
      "{C": 4668,
      "Ġfaces": 4669,
      "Ġpage": 4670,
      "Ġwide": 4671,
      "ĊĊĊ": 4672,
      "Ġepsilon": 4673,
      "Ġren": 4674,
      "abase": 4675,
      "ĠIntern": 4676,
      "acity": 4677,
      "ĠUN": 4678,
      "Ġspread": 4679,
      "Ġrecogn": 4680,
      "direct": 4681,
      "Ġapproaches": 4682,
      "Ġcurvature": 4683,
      "Ġdegrees": 4684,
      "âĤĢ": 4685,
      "ĠImplement": 4686,
      "Ġprobably": 4687,
      "-time": 4688,
      "Ġpolitical": 4689,
      ")_{": 4690,
      "57": 4691,
      "Cons": 4692,
      "UT": 4693,
      "aut": 4694,
      "range": 4695,
      "Ġsus": 4696,
      "Ġtherm": 4697,
      "Ġcore": 4698,
      "Ġefficient": 4699,
      "aster": 4700,
      "Ġlive": 4701,
      "imer": 4702,
      "ĠIdent": 4703,
      "ĠCreate": 4704,
      "resents": 4705,
      "teger": 4706,
      "ĠPres": 4707,
      "pex": 4708,
      "Ġcompare": 4709,
      "Ġ{\\": 4710,
      "ĠStud": 4711,
      "ĠChild": 4712,
      "Ġclasses": 4713,
      "Ġrefers": 4714,
      "ĠArgs": 4715,
      "âĤĤ": 4716,
      "ooking": 4717,
      "Ġinternal": 4718,
      "Ġarbitr": 4719,
      "Ġactivities": 4720,
      "-linear": 4721,
      ".n": 4722,
      "236": 4723,
      "\\sqrt": 4724,
      "cil": 4725,
      "tto": 4726,
      "Â³": 4727,
      "eries": 4728,
      "Ġinit": 4729,
      "Ġnp": 4730,
      "ĠAc": 4731,
      "igr": 4732,
      "Ġ\\\\Ċ": 4733,
      "ulations": 4734,
      "ĠFrom": 4735,
      "ĠForm": 4736,
      "ĠDefine": 4737,
      "ĠHist": 4738,
      "ctured": 4739,
      "empty": 4740,
      "####": 4741,
      "Ġquality": 4742,
      "Ġdetailed": 4743,
      "866": 4744,
      "Ġcountries": 4745,
      "Ġsafe": 4746,
      "Ġsingular": 4747,
      "Ġmedical": 4748,
      "Ġexperience": 4749,
      "Ġchoice": 4750,
      "Ġmagnetic": 4751,
      "-dimensional": 4752,
      "Ġscientists": 4753,
      "ListView": 4754,
      "Ġarbitrarily": 4755,
      "$)": 4756,
      "({": 4757,
      "-y": 4758,
      "Test": 4759,
      "Val": 4760,
      "certain": 4761,
      "flow": 4762,
      "lers": 4763,
      "Ġsun": 4764,
      "Ġbacter": 4765,
      "roy": 4766,
      "Ġhouse": 4767,
      "owers": 4768,
      "Ġconne": 4769,
      "Ġasync": 4770,
      "ĠPat": 4771,
      "anging": 4772,
      "ĠDoes": 4773,
      "Ġcompan": 4774,
      "ĠOK": 4775,
      "ĠOther": 4776,
      "acing": 4777,
      "Ġdefault": 4778,
      "ĠStart": 4779,
      "171": 4780,
      "Ġstrateg": 4781,
      "Ġearth": 4782,
      "Ġlooks": 4783,
      "âīł": 4784,
      "Ġ].ĊĊ": 4785,
      "Ġtaken": 4786,
      "Ġapproximately": 4787,
      "rategy": 4788,
      "Ġwritten": 4789,
      "Therefore": 4790,
      "Ġexplicitly": 4791,
      "Ġtranslation": 4792,
      "(|": 4793,
      "dge": 4794,
      "nabla": 4795,
      "{B": 4796,
      "Ġsleep": 4797,
      "ority": 4798,
      "Ġfuture": 4799,
      "Ġbits": 4800,
      "Ġlattice": 4801,
      "otic": 4802,
      "Ġforward": 4803,
      "Ġconduct": 4804,
      "ung": 4805,
      "Ġord": 4806,
      "Ġdead": 4807,
      "^{(": 4808,
      "antics": 4809,
      "Ġheirs": 4810,
      "utions": 4811,
      "Ġintervals": 4812,
      "Ġformal": 4813,
      "Ġsomeone": 4814,
      "Ġoverall": 4815,
      "Ġrecur": 4816,
      "ything": 4817,
      "exp": 4818,
      "Ġindust": 4819,
      "Ġconcent": 4820,
      "Ġsequences": 4821,
      "Ġexplanation": 4822,
      "Ġrestrict": 4823,
      "Ġgrowth": 4824,
      "Ġrecursion": 4825,
      "Ġsuccessful": 4826,
      "(Z": 4827,
      "Mod": 4828,
      "Pl": 4829,
      "With": 4830,
      "data": 4831,
      "earch": 4832,
      "sis": 4833,
      "uk": 4834,
      "ĊĠĠĠĠĠĠĠĠĠĠĠĠĊ": 4835,
      "Ġapex": 4836,
      "rec": 4837,
      "Ġ('": 4838,
      "cts": 4839,
      "Ġ\\]Ċ": 4840,
      "ĠCoun": 4841,
      "urrency": 4842,
      "Ġstation": 4843,
      "Ġalmost": 4844,
      "ĠMay": 4845,
      "ctionary": 4846,
      "Ġsex": 4847,
      "ĠWrite": 4848,
      "Ġunion": 4849,
      "}$Ċ": 4850,
      "Ġteach": 4851,
      "Ġcorner": 4852,
      "Ġmultiplic": 4853,
      "Ġconcern": 4854,
      "ĠEng": 4855,
      "Ġmagnet": 4856,
      "ĠâľĵĊĊ": 4857,
      "Ġhappens": 4858,
      "Ġlocation": 4859,
      "ournal": 4860,
      "(R": 4861,
      ")^{-": 4862,
      ",a": 4863,
      "/k": 4864,
      "sl": 4865,
      "Ġful": 4866,
      "Ġmacro": 4867,
      "Ġans": 4868,
      "Ġtoward": 4869,
      "etime": 4870,
      "Ġred": 4871,
      "Ġreconst": 4872,
      "ĠRequ": 4873,
      "ĠGet": 4874,
      "Ġsolving": 4875,
      "Ġroom": 4876,
      "ĠâĪł": 4877,
      "Ġ[]Ċ": 4878,
      "Ġoperators": 4879,
      "Ġintersecting": 4880,
      "Ġtaking": 4881,
      "Ġfluctu": 4882,
      "Ġoptions": 4883,
      "Ġprobability": 4884,
      "Ġbuilding": 4885,
      "Ġexchange": 4886,
      "Ġexpansion": 4887,
      "(X": 4888,
      "-like": 4889,
      ".write": 4890,
      "_at": 4891,
      "face": 4892,
      "gress": 4893,
      "how": 4894,
      "mit": 4895,
      "oph": 4896,
      "uild": 4897,
      "eral": 4898,
      "Ġcard": 4899,
      "Ġbr": 4900,
      "Ġment": 4901,
      "Ġmach": 4902,
      "icles": 4903,
      "ĠAct": 4904,
      "Ġglobal": 4905,
      "ulate": 4906,
      "ĠIts": 4907,
      "Ġaspect": 4908,
      "ĠPlease": 4909,
      "pecially": 4910,
      "ĠDiv": 4911,
      "ĠHo": 4912,
      "ĠHigh": 4913,
      "ored": 4914,
      "Ġdiagram": 4915,
      "191": 4916,
      "Ġadapt": 4917,
      "256": 4918,
      "conds": 4919,
      "Ġnoise": 4920,
      "Ġmanagement": 4921,
      "Ġincorpor": 4922,
      "Ġsetting": 4923,
      "State": 4924,
      "positive": 4925,
      "(Î¸": 4926,
      "Ġmitten": 4927,
      "Ġlabeling": 4928,
      "!!": 4929,
      ")|": 4930,
      "/m": 4931,
      "045": 4932,
      "Qu": 4933,
      "Ġbinary": 4934,
      "Ġnode": 4935,
      "Ġeigen": 4936,
      "Ġliving": 4937,
      "Ġconvert": 4938,
      "urity": 4939,
      "Ġones": 4940,
      "ĠMany": 4941,
      "ĠPet": 4942,
      "ĠDi": 4943,
      "ĠData": 4944,
      "ĠOutput": 4945,
      "uple": 4946,
      "âĪĴ": 4947,
      "Ġsolid": 4948,
      "Ġapplied": 4949,
      "Ġprison": 4950,
      "Ġevidence": 4951,
      "156": 4952,
      "Ġelif": 4953,
      "Ġmoving": 4954,
      "Ġdirector": 4955,
      "Ġpatients": 4956,
      "Ġtesting": 4957,
      "Ġlimits": 4958,
      "Ġcircumcircle": 4959,
      "-group": 4960,
      ".**": 4961,
      "DC": 4962,
      "Direct": 4963,
      "_as": 4964,
      "but": 4965,
      "ech": 4966,
      "rast": 4967,
      "ÏĨ": 4968,
      "Ġesc": 4969,
      "Ġsample": 4970,
      "Ġpure": 4971,
      "ional": 4972,
      "Ġmen": 4973,
      "ĠSomething": 4974,
      "Ġreverse": 4975,
      "ribe": 4976,
      "ĠMat": 4977,
      "ĠFram": 4978,
      "ĠEm": 4979,
      "ĠError": 4980,
      "Ġselection": 4981,
      "Ġchord": 4982,
      "ĠWork": 4983,
      "ĠGC": 4984,
      "duc": 4985,
      "Ġscience": 4986,
      "tau": 4987,
      "Ġremove": 4988,
      "357": 4989,
      "Ġmaximize": 4990,
      "Ġstarting": 4991,
      "Ġdesigned": 4992,
      "Ġsimplify": 4993,
      "Ġexecutor": 4994,
      "omplex": 4995,
      "Ġpossibly": 4996,
      "Ġfrequency": 4997,
      "Case": 4998,
      "Data": 4999,
      "Option": 5000,
      "Sc": 5001,
      "uly": 5002,
      "yp": 5003,
      "Ġclock": 5004,
      "ites": 5005,
      "Ġphen": 5006,
      "Ġpages": 5007,
      "Ġwid": 5008,
      "Ġanimals": 5009,
      "omy": 5010,
      "ĠAre": 5011,
      "ilk": 5012,
      "osa": 5013,
      "ĠPost": 5014,
      "ĠPop": 5015,
      "Ġ**\"": 5016,
      "ĠOb": 5017,
      "Ġimages": 5018,
      "Ġteac": 5019,
      "Ġprem": 5020,
      "Ġnontrivial": 5021,
      "Ġrepresents": 5022,
      "Ġadding": 5023,
      "Ġexisting": 5024,
      "Ġmultiplication": 5025,
      "Ġproducts": 5026,
      "ĠWhile": 5027,
      "Ġcycl": 5028,
      "ĠUser": 5029,
      "while": 5030,
      "Ġautomatically": 5031,
      "ttp": 5032,
      "Ġvaccines": 5033,
      "ĠBritish": 5034,
      "Ġresearchers": 5035,
      "-h": 5036,
      "-de": 5037,
      "125": 5038,
      "EN": 5039,
      "\\in": 5040,
      "\\),": 5041,
      "beta": 5042,
      "fort": 5043,
      "ires": 5044,
      "long": 5045,
      "Ġut": 5046,
      "Ġtests": 5047,
      "Ġslow": 5048,
      "Ġfront": 5049,
      "Ġhowever": 5050,
      "idates": 5051,
      "ĠBE": 5052,
      "ĠBl": 5053,
      "Ġatmosp": 5054,
      "ades": 5055,
      "andard": 5056,
      "phab": 5057,
      "188": 5058,
      "ĠYour": 5059,
      "ĠJan": 5060,
      "Ġtrade": 5061,
      "ickets": 5062,
      "ynamic": 5063,
      "Ġevaluate": 5064,
      "Ġfemales": 5065,
      "Ġidea": 5066,
      "Ġ'_'": 5067,
      "Ġbroad": 5068,
      "Ġpicture": 5069,
      "Ġinherit": 5070,
      "ogeneous": 5071,
      "-order": 5072,
      ".r": 5073,
      ".)Ċ": 5074,
      "App": 5075,
      "All": 5076,
      "BN": 5077,
      "Final": 5078,
      "Sub": 5079,
      "Time": 5080,
      "_con": 5081,
      "bon": 5082,
      "ino": 5083,
      "Ġdri": 5084,
      "Ġinform": 5085,
      "etwork": 5086,
      "ĠAg": 5087,
      "ĠAugust": 5088,
      "rade": 5089,
      "oding": 5090,
      "Ġalone": 5091,
      "ĠMore": 5092,
      "Ġdeath": 5093,
      "Ġsup": 5094,
      "ĠNorth": 5095,
      "aby": 5096,
      "Ġuniform": 5097,
      "Ġship": 5098,
      "257": 5099,
      "Ġdetect": 5100,
      "Ġadded": 5101,
      "Ġrepresentative": 5102,
      "pril": 5103,
      "Ġactivity": 5104,
      "ymmet": 5105,
      "Ġbenefici": 5106,
      "Ġimmune": 5107,
      "Ġcollabor": 5108,
      "Ġwindow": 5109,
      "Ġrecurrence": 5110,
      "[(": 5111,
      "[\\": 5112,
      "_P": 5113,
      "ians": 5114,
      "}]": 5115,
      "onia": 5116,
      "Ġbone": 5117,
      "ĠTerm": 5118,
      "ulated": 5119,
      "Ġnothing": 5120,
      "Ġdeck": 5121,
      "ĠDict": 5122,
      "Ġseem": 5123,
      "108": 5124,
      "Ġthroughout": 5125,
      "140": 5126,
      "ubes": 5127,
      "Ġcentered": 5128,
      "Ġapprox": 5129,
      "Ġacqu": 5130,
      "Ġholes": 5131,
      "ĠProv": 5132,
      "Ġdecomp": 5133,
      "Ġreflect": 5134,
      "center": 5135,
      "Ġtechniques": 5136,
      "Ġpopular": 5137,
      "Ġelectric": 5138,
      "Ġanti": 5139,
      "Ġfilm": 5140,
      "Ġquickly": 5141,
      "secutive": 5142,
      "Ġdisjunction": 5143,
      "folio": 5144,
      "-C": 5145,
      "Card": 5146,
      "Is": 5147,
      "Requ": 5148,
      "TE": 5149,
      "ipt": 5150,
      "ux": 5151,
      "Ïµ": 5152,
      "hel": 5153,
      "Ġcamp": 5154,
      "anes": 5155,
      "rote": 5156,
      "raction": 5157,
      "quare": 5158,
      "ĠCorrect": 5159,
      "iry": 5160,
      "illed": 5161,
      "ĠUp": 5162,
      "ÏĢÏµ": 5163,
      "Ġrob": 5164,
      "ava": 5165,
      "Ġsets": 5166,
      "Ġemail": 5167,
      "Ġgeneration": 5168,
      "ĠProcess": 5169,
      "ĠReview": 5170,
      "231": 5171,
      "ĠHealth": 5172,
      "Ġdepending": 5173,
      "');Ċ": 5174,
      "attr": 5175,
      "Ġblocks": 5176,
      "Ġinvolves": 5177,
      "Ġvalidation": 5178,
      "Ġschools": 5179,
      "Ġupdate": 5180,
      "Ġbisector": 5181,
      "Ġmessages": 5182,
      "sych": 5183,
      "ĠFramework": 5184,
      "$:Ċ": 5185,
      "-L": 5186,
      "213": 5187,
      "Check": 5188,
      "ML": 5189,
      "]]": 5190,
      "hib": 5191,
      "uge": 5192,
      "{al": 5193,
      "ÎĶ": 5194,
      "Ġur": 5195,
      "atio": 5196,
      "enge": 5197,
      "isions": 5198,
      "Ġfine": 5199,
      "Ġpowers": 5200,
      "Ġmer": 5201,
      "ĠSim": 5202,
      "ĠTotal": 5203,
      "ĠAE": 5204,
      "rack": 5205,
      "ilter": 5206,
      "ĠCou": 5207,
      "Ġstren": 5208,
      "Ġstory": 5209,
      "ĠMy": 5210,
      "259": 5211,
      "Ġquite": 5212,
      "Ġcool": 5213,
      "Ġuseful": 5214,
      "Ġrecomm": 5215,
      "Ġnonnegative": 5216,
      "ifying": 5217,
      "cient": 5218,
      "ciety": 5219,
      "Ġfeet": 5220,
      "Ġactive": 5221,
      "Ġattrib": 5222,
      "Ġsymbol": 5223,
      "Ġconnected": 5224,
      ".std": 5225,
      "Ġpackages": 5226,
      "Ġassumption": 5227,
      "Ġglass": 5228,
      "Ġmotion": 5229,
      "Ġcongruence": 5230,
      "Ġthermal": 5231,
      "900": 5232,
      "Rec": 5233,
      "\\cdot": 5234,
      "_fe": 5235,
      "delta": 5236,
      "iverse": 5237,
      "list": 5238,
      "var": 5239,
      "âĨĴ": 5240,
      "Ġaud": 5241,
      "enuse": 5242,
      "Ġflex": 5243,
      "Ġmag": 5244,
      "Ġnight": 5245,
      "Ġnational": 5246,
      "asure": 5247,
      "asons": 5248,
      "olic": 5249,
      "olving": 5250,
      "Ġconvention": 5251,
      "osen": 5252,
      "ĠĠĠĠĠĠĠĠĠ": 5253,
      "iring": 5254,
      "ĠMus": 5255,
      "ĠPress": 5256,
      "Ġ\"$": 5257,
      "ĠInformation": 5258,
      "ĠInitial": 5259,
      "Ġresolution": 5260,
      "ductor": 5261,
      "Ġadds": 5262,
      "ller": 5263,
      "Ġtherefore": 5264,
      "Ġrequests": 5265,
      "Ġdifferences": 5266,
      "Ġrepresented": 5267,
      "Ġpatient": 5268,
      "Ġflat": 5269,
      "Ġinfinity": 5270,
      "Ġconcurrency": 5271,
      "metic": 5272,
      "Ġcorrectly": 5273,
      "rank": 5274,
      "Ġcomputation": 5275,
      "Process": 5276,
      "Ġ(âĪĴ": 5277,
      "-free": 5278,
      "Ġensures": 5279,
      "ĠResearch": 5280,
      "ĠAddition": 5281,
      "Ġgrows": 5282,
      "Ġperformance": 5283,
      "Ġparticularly": 5284,
      "ĠPerhaps": 5285,
      "Ġsites": 5286,
      "Ġmissing": 5287,
      "Ġespecially": 5288,
      "Ġadminist": 5289,
      "Ġmentions": 5290,
      "(A": 5291,
      "216": 5292,
      "Sum": 5293,
      "brid": 5294,
      "chem": 5295,
      "ford": 5296,
      "ios": 5297,
      "orous": 5298,
      "Ġpul": 5299,
      "ancy": 5300,
      "Ġwent": 5301,
      "rot": 5302,
      "Ġtook": 5303,
      "Ġnodes": 5304,
      "Ġreq": 5305,
      "vere": 5306,
      "Ġhour": 5307,
      "Ġhosp": 5308,
      "ĠAF": 5309,
      "ĠAut": 5310,
      "ĠCM": 5311,
      "elt": 5312,
      "Ġstd": 5313,
      "ĠMa": 5314,
      "Ġdecl": 5315,
      "ĠDo": 5316,
      "===": 5317,
      "Ġcompet": 5318,
      "Ġleaving": 5319,
      "Ġarchite": 5320,
      "ructions": 5321,
      "Ġcovers": 5322,
      "ĠStructure": 5323,
      "ĠConsider": 5324,
      "Ġinvari": 5325,
      "Ġgenerate": 5326,
      "Ġhandles": 5327,
      "Ġgraphene": 5328,
      "Ġhyd": 5329,
      "Ġmedia": 5330,
      "Ġtechnology": 5331,
      "Ġcombination": 5332,
      "Ġcontinuity": 5333,
      "Ġhistor": 5334,
      "Ġreceive": 5335,
      "Ġeventually": 5336,
      "ilitary": 5337,
      "Ġscenario": 5338,
      "$:": 5339,
      "225": 5340,
      "Define": 5341,
      "link": 5342,
      "ued": 5343,
      "yl": 5344,
      "{k": 5345,
      "})$": 5346,
      "Ġtitle": 5347,
      "height": 5348,
      "Ġpars": 5349,
      "Ġdate": 5350,
      "Ġnull": 5351,
      "uts": 5352,
      "ĠSQL": 5353,
      "rap": 5354,
      "oles": 5355,
      "**.ĊĊ": 5356,
      "elian": 5357,
      "ĠBar": 5358,
      "Ġrules": 5359,
      "Ġaltern": 5360,
      "Ġnotice": 5361,
      "Ġunknown": 5362,
      "..##": 5363,
      "}{(": 5364,
      "ĠâĪ©": 5365,
      "lled": 5366,
      "Ġspeak": 5367,
      "aven": 5368,
      "Ġcommand": 5369,
      "Ġtransm": 5370,
      "Ġoriginally": 5371,
      "Ġexpressions": 5372,
      "rown": 5373,
      "Ġsurv": 5374,
      "Ġprocesses": 5375,
      "anguage": 5376,
      "373": 5377,
      "769": 5378,
      "Ġevaluation": 5379,
      "Ġidempotency": 5380,
      "Ġliters": 5381,
      "Ġachieve": 5382,
      "Ġstarts": 5383,
      "ĠISBN": 5384,
      "Consider": 5385,
      "Ġphenomen": 5386,
      "Ġstreng": 5387,
      "*y": 5388,
      "52": 5389,
      "747": 5390,
      ":||": 5391,
      "PA": 5392,
      "\\big": 5393,
      "`.": 5394,
      "nes": 5395,
      "|----------------": 5396,
      "Â¹": 5397,
      "Ġdro": 5398,
      "Ġdim": 5399,
      "Ġrewrite": 5400,
      "vember": 5401,
      "ĠApril": 5402,
      "Ġgreen": 5403,
      "ils": 5404,
      "osing": 5405,
      "ithmetic": 5406,
      "ĠMar": 5407,
      "adem": 5408,
      "ĠFlo": 5409,
      "ĠDay": 5410,
      "ĠEduc": 5411,
      "ember": 5412,
      "izability": 5413,
      "Ġplaus": 5414,
      "astic": 5415,
      "Ġconservation": 5416,
      "Ġincorrect": 5417,
      "ella": 5418,
      "Ġgets": 5419,
      "Ġabelian": 5420,
      "Ġmob": 5421,
      "Ġvisual": 5422,
      "Ġstructures": 5423,
      "ĠNovember": 5424,
      "Ġshowing": 5425,
      "Answer": 5426,
      "Ġexpected": 5427,
      "}^\\": 5428,
      "Ġprofession": 5429,
      "Ġgeometric": 5430,
      "Ġideas": 5431,
      "ĠDisc": 5432,
      "Ġscientific": 5433,
      "ĠCenter": 5434,
      "Ġillust": 5435,
      "Ġeverything": 5436,
      "Ġessentially": 5437,
      "urtle": 5438,
      "-level": 5439,
      "ĠDesign": 5440,
      "-residue": 5441,
      "Ġplausible": 5442,
      "(w": 5443,
      "-g": 5444,
      "ET": 5445,
      "False": 5446,
      "Id": 5447,
      "Ob": 5448,
      "Row": 5449,
      "\\;": 5450,
      "comm": 5451,
      "|----": 5452,
      "}}\\": 5453,
      "eros": 5454,
      "aly": 5455,
      "Ġ=?": 5456,
      "Ġok": 5457,
      "Ġdf": 5458,
      "Ġtouch": 5459,
      "Ġisn": 5460,
      "asc": 5461,
      "Ġreplace": 5462,
      "oll": 5463,
      "Ġgate": 5464,
      "query": 5465,
      "unc": 5466,
      "ĠPe": 5467,
      "pecial": 5468,
      "angular": 5469,
      "Ġsuff": 5470,
      "Ġsexes": 5471,
      "ĠHis": 5472,
      "ained": 5473,
      "phas": 5474,
      "phone": 5475,
      "128": 5476,
      "Ġmapping": 5477,
      "168": 5478,
      "ĠVer": 5479,
      "ĠView": 5480,
      "Ġconditional": 5481,
      "Ġsett": 5482,
      "cii": 5483,
      "Ġability": 5484,
      "Ġelimin": 5485,
      "222": 5486,
      "Ġboard": 5487,
      "Ġintegr": 5488,
      "Ġattack": 5489,
      "Ġcurrently": 5490,
      "Ġruns": 5491,
      "Ġinvolve": 5492,
      "Ġinvolved": 5493,
      "Ġcaused": 5494,
      "Ġencoura": 5495,
      "Ġpurpose": 5496,
      "Ġsemantics": 5497,
      "Ġselected": 5498,
      "Ġvirus": 5499,
      "Ġbirds": 5500,
      "Ġlicens": 5501,
      "-diagonal": 5502,
      "([": 5503,
      "(âĪļ": 5504,
      "-th": 5505,
      "::": 5506,
      "=c": 5507,
      "Ad": 5508,
      "CT": 5509,
      "De": 5510,
      "\\rangle": 5511,
      "^*": 5512,
      "_type": 5513,
      "cards": 5514,
      "}:": 5515,
      "}_{": 5516,
      "Î²": 5517,
      "Ġsplit": 5518,
      "Ġcru": 5519,
      "Ġbre": 5520,
      "Ġbur": 5521,
      "asm": 5522,
      "Ġho": 5523,
      "ilson": 5524,
      "ĠCF": 5525,
      "ĠĠĠĠĠĠĠĠĠĠĠĠĠĠĠĠĊ": 5526,
      "ĠBase": 5527,
      "Ġexc": 5528,
      "odo": 5529,
      "ĠDef": 5530,
      "Ġuniverse": 5531,
      "apacity": 5532,
      "Ġ[[": 5533,
      "Ġmathematical": 5534,
      "rame": 5535,
      "Ġevolution": 5536,
      "Ġtrials": 5537,
      "Ġdivided": 5538,
      "Ġboundaries": 5539,
      "Inter": 5540,
      "apsis": 5541,
      "apping": 5542,
      "Ġambig": 5543,
      "Ġmonot": 5544,
      "656": 5545,
      "Ġcosts": 5546,
      "Ġdistributed": 5547,
      "Ġstarted": 5548,
      "_fitness": 5549,
      "Ġswitch": 5550,
      "Ġeverywhere": 5551,
      "ĠSecond": 5552,
      "Ġlinks": 5553,
      "Ġcounter": 5554,
      "Ġparticipants": 5555,
      "Ġnuclear": 5556,
      "Ġdestroy": 5557,
      "$\\": 5558,
      "''": 5559,
      "(text": 5560,
      "+(": 5561,
      "525": 5562,
      "TL": 5563,
      "eks": 5564,
      "test": 5565,
      "zing": 5566,
      "}}{\\": 5567,
      "rete": 5568,
      "Ġsources": 5569,
      "estern": 5570,
      "Ġwidth": 5571,
      "Ġwrote": 5572,
      "Ġbring": 5573,
      "using": 5574,
      "oma": 5575,
      "Ġgcd": 5576,
      "vergence": 5577,
      "Ġorient": 5578,
      "009": 5579,
      "ĠPB": 5580,
      "ango": 5581,
      "Ġchars": 5582,
      "190": 5583,
      "Ġdoing": 5584,
      "Ġarithmetic": 5585,
      "ĠKin": 5586,
      "Ġjob": 5587,
      "Ġscales": 5588,
      "ney": 5589,
      "Ġproviding": 5590,
      "Ġproduced": 5591,
      "typ": 5592,
      "Ġregions": 5593,
      "Ġgenerated": 5594,
      "Ġresulting": 5595,
      "Ġboolean": 5596,
      "Ġdirectory": 5597,
      "ĠException": 5598,
      "Ġprograms": 5599,
      "Ġallowing": 5600,
      "Ġpolic": 5601,
      "Ġreading": 5602,
      "Ġdoub": 5603,
      "Ġcomputer": 5604,
      "âĤģ": 5605,
      "tilde": 5606,
      "Ġprofile": 5607,
      "Ġcorrespond": 5608,
      "trol": 5609,
      "Ġsynthe": 5610,
      "Ġtriangles": 5611,
      "Ġcategories": 5612,
      "certainty": 5613,
      "Ġhydro": 5614,
      "\"\"\"Ċ": 5615,
      "-ch": 5616,
      "09": 5617,
      "68": 5618,
      "EL": 5619,
      "IA": 5620,
      "MS": 5621,
      "Sh": 5622,
      "Total": 5623,
      "\\,": 5624,
      "_g": 5625,
      "_line": 5626,
      "current": 5627,
      "na": 5628,
      "Ġtail": 5629,
      "itation": 5630,
      "Ġpip": 5631,
      "Ġep": 5632,
      "ĠSch": 5633,
      "Ġthorough": 5634,
      "Ġrecon": 5635,
      "ĠTwo": 5636,
      "ĠLib": 5637,
      "ague": 5638,
      "adec": 5639,
      "anger": 5640,
      "artment": 5641,
      "ĠHence": 5642,
      "ĠWest": 5643,
      "Ġimplication": 5644,
      "Ġrough": 5645,
      "ĠâĪĤ": 5646,
      "Ġclinical": 5647,
      "avor": 5648,
      "oryListView": 5649,
      "arsh": 5650,
      "Ġfloat": 5651,
      "Ġfeature": 5652,
      "267": 5653,
      "ibration": 5654,
      "(nÏĢ": 5655,
      "Ġletters": 5656,
      "Ġattention": 5657,
      "Ġmidpoints": 5658,
      "+bc": 5659,
      "Ġprecision": 5660,
      "Ġanalytic": 5661,
      "Ġtheoretical": 5662,
      "oidal": 5663,
      ")*(âĪĴ": 5664,
      "Ġellipt": 5665,
      "Ġexecution": 5666,
      "urbul": 5667,
      "Ġtimestamp": 5668,
      "Ġdevices": 5669,
      "Ġcommunication": 5670,
      "Ġchemical": 5671,
      "Ġdimensions": 5672,
      ");": 5673,
      ",Î³": 5674,
      "576": 5675,
      "922": 5676,
      "At": 5677,
      "Ps": 5678,
      "ih": 5679,
      "}ĊĊ": 5680,
      "req": 5681,
      "reet": 5682,
      "ename": 5683,
      "iture": 5684,
      "Ġdy": 5685,
      "Ġlack": 5686,
      "Ġhot": 5687,
      "Ġ\\,": 5688,
      "Ġweak": 5689,
      "iffe": 5690,
      "Ġstay": 5691,
      "Ġpropag": 5692,
      "istent": 5693,
      "Ġcance": 5694,
      "ĠFin": 5695,
      "Ġusers": 5696,
      "ĠExtract": 5697,
      "tocol": 5698,
      "Ġcontest": 5699,
      "Ġconsum": 5700,
      "_string": 5701,
      "Ġsys": 5702,
      "uesday": 5703,
      "Ġparity": 5704,
      "Ġproperly": 5705,
      "Ġenter": 5706,
      "Ġhighly": 5707,
      "riday": 5708,
      "Ġparticles": 5709,
      "Ġintersects": 5710,
      "Ġprotection": 5711,
      ".txt": 5712,
      "Ġcuts": 5713,
      "Ġdomains": 5714,
      "Ġcovering": 5715,
      "stitution": 5716,
      "related": 5717,
      "Ġpossibility": 5718,
      "Ġvaccine": 5719,
      "Ġlayer": 5720,
      "Ġspectrum": 5721,
      "Ġstrictly": 5722,
      "Ġdescribes": 5723,
      "ĠCouncil": 5724,
      "_ascii": 5725,
      "(B": 5726,
      "(cos": 5727,
      "+âĪļ": 5728,
      ".m": 5729,
      "/c": 5730,
      "110": 5731,
      "Add": 5732,
      "Find": 5733,
      "IV": 5734,
      "mar": 5735,
      "{v": 5736,
      "org": 5737,
      "Ġfast": 5738,
      "Ġfire": 5739,
      "Ġmant": 5740,
      "Ġmales": 5741,
      "Ġdomin": 5742,
      "lem": 5743,
      "Ġthread": 5744,
      "Ġconclusion": 5745,
      "Ġconsecutive": 5746,
      "ĠID": 5747,
      "istical": 5748,
      "ĠMost": 5749,
      "ĠGiven": 5750,
      "ogen": 5751,
      "Ġtrig": 5752,
      "duce": 5753,
      "186": 5754,
      "Ġsubst": 5755,
      "dian": 5756,
      "elling": 5757,
      "apped": 5758,
      "170": 5759,
      "Ġstatements": 5760,
      "values": 5761,
      "ĠAlab": 5762,
      "Ġvolt": 5763,
      "licer": 5764,
      "Ġintensity": 5765,
      "Ġslot": 5766,
      "Ġserver": 5767,
      "âī¡": 5768,
      "standing": 5769,
      "tember": 5770,
      "Ġwriting": 5771,
      "ĠMean": 5772,
      "Ġ```Ċ": 5773,
      "Ġeasier": 5774,
      "à¯į": 5775,
      "aneously": 5776,
      "Ġextremely": 5777,
      "Ġreversed": 5778,
      "ifferent": 5779,
      ")[": 5780,
      "-M": 5781,
      "-type": 5782,
      ".id": 5783,
      "73": 5784,
      "78": 5785,
      "BM": 5786,
      "come": 5787,
      "ls": 5788,
      "sigma": 5789,
      "total": 5790,
      "volution": 5791,
      "}/": 5792,
      "Ġult": 5793,
      "ref": 5794,
      "Ġsil": 5795,
      "Ġsens": 5796,
      "Ġsound": 5797,
      "Ġmm": 5798,
      "Ġants": 5799,
      "roke": 5800,
      "Ġnamed": 5801,
      "Ġeight": 5802,
      "Ġlost": 5803,
      "Ġgap": 5804,
      "chron": 5805,
      "ampling": 5806,
      "Ġxi": 5807,
      "Ġdeep": 5808,
      "ĠDr": 5809,
      "Ġsufficient": 5810,
      "ĠNOT": 5811,
      "ĠWed": 5812,
      "plate": 5813,
      "Ġdiagn": 5814,
      "Ġtwe": 5815,
      "ifications": 5816,
      "Ġquery": 5817,
      "Ġexpand": 5818,
      "187": 5819,
      "169": 5820,
      "Ġspent": 5821,
      "âĶģ": 5822,
      "neum": 5823,
      "energy": 5824,
      "ĠâĢĺ": 5825,
      "Ġtransfer": 5826,
      "Ġfinalizer": 5827,
      "Ġvariance": 5828,
      "hipment": 5829,
      "Ġmonitor": 5830,
      "ordination": 5831,
      "Ġinputs": 5832,
      "Ġderivation": 5833,
      "Ġexperiment": 5834,
      "Ġcombined": 5835,
      "Ġdigital": 5836,
      "Using": 5837,
      "Ġfluid": 5838,
      "Ġsimpler": 5839,
      "Ġreceived": 5840,
      "Ġcoefficient": 5841,
      "Ġhypotenuse": 5842,
      "Ġbelieve": 5843,
      "ĠScience": 5844,
      "Ġaccurate": 5845,
      "Ġofficial": 5846,
      "\":Ċ": 5847,
      "(T": 5848,
      "->": 5849,
      "-se": 5850,
      "-pro": 5851,
      "-zero": 5852,
      "Not": 5853,
      "_R": 5854,
      "can": 5855,
      "des": 5856,
      "iable": 5857,
      "size": 5858,
      "Ġcredit": 5859,
      "alo": 5860,
      "Ġbounds": 5861,
      "Ġop": 5862,
      "edia": 5863,
      "Ġdry": 5864,
      "rab": 5865,
      "ĠCa": 5866,
      "ĠBoth": 5867,
      "Ġvide": 5868,
      "teg": 5869,
      "Ġalloc": 5870,
      "rial": 5871,
      "ĠMr": 5872,
      "ĠMethod": 5873,
      "threshold": 5874,
      "ĠRo": 5875,
      "ĠInst": 5876,
      "api": 5877,
      "Ġresid": 5878,
      "eps": 5879,
      "Ġcluster": 5880,
      "Ġconsists": 5881,
      "ĠJap": 5882,
      "ysical": 5883,
      "Ġmanip": 5884,
      "Ġ}\\": 5885,
      "opy": 5886,
      "Ġassets": 5887,
      "Ġemer": 5888,
      "Ġemphas": 5889,
      "isms": 5890,
      "}}.ĊĊ": 5891,
      "remove": 5892,
      "ĠNeed": 5893,
      "Ġfilter": 5894,
      "Ġpriv": 5895,
      "Ġinfluence": 5896,
      "Ġmixt": 5897,
      "Ġheavy": 5898,
      "Ġimmediately": 5899,
      "Ġmobile": 5900,
      "\"**": 5901,
      "-e": 5902,
      ".)": 5903,
      "025": 5904,
      "037": 5905,
      "Comp": 5906,
      "ION": 5907,
      "Looking": 5908,
      "Output": 5909,
      "WW": 5910,
      "Yes": 5911,
      "_N": 5912,
      "iate": 5913,
      "jango": 5914,
      "option": 5915,
      "some": 5916,
      "tes": 5917,
      "upper": 5918,
      "zhe": 5919,
      "{d": 5920,
      "ena": 5921,
      "isen": 5922,
      "alax": 5923,
      "Ġanimal": 5924,
      "omal": 5925,
      "Ġled": 5926,
      "Ġlate": 5927,
      "ĠTry": 5928,
      "ols": 5929,
      "ĠCatal": 5930,
      "ĠĠĠĠĠĠĠĠĠĠ": 5931,
      "Ġvary": 5932,
      "004": 5933,
      "adow": 5934,
      "ustand": 5935,
      "Ġimag": 5936,
      "Ġqueries": 5937,
      "Ġotherwise": 5938,
      "Ġcovered": 5939,
      "then": 5940,
      "133": 5941,
      "Ġminus": 5942,
      "ĠConstra": 5943,
      "Ġextension": 5944,
      "Ġextended": 5945,
      "283": 5946,
      "Ġintegration": 5947,
      "Ġprocessing": 5948,
      "-scale": 5949,
      "Ġopport": 5950,
      "force": 5951,
      "ĠReturn": 5952,
      "Why": 5953,
      "999": 5954,
      "Ġhumans": 5955,
      "Ġmechanics": 5956,
      "Ġmarket": 5957,
      "ĠSummary": 5958,
      "Ġindividuals": 5959,
      "Ġ($\\": 5960,
      "ĠAppro": 5961,
      "Ġalgorithms": 5962,
      "Ġneutrons": 5963,
      "Ġhypothesis": 5964,
      "ĠRemove": 5965,
      "Equation": 5966,
      "Ġhyperbol": 5967,
      "instance": 5968,
      "Ġeconomic": 5969,
      "Ġsituation": 5970,
      "ĠMoon": 5971,
      "Ġreligious": 5972,
      "ĠAustral": 5973,
      "Ġstrategies": 5974,
      "ĠAlabama": 5975,
      "âĶģâĶģ": 5976,
      "zheimer": 5977,
      "\">Ċ": 5978,
      "-W": 5979,
      ".C": 5980,
      ".\\": 5981,
      ".j": 5982,
      "US": 5983,
      "ba": 5984,
      "king": 5985,
      "length": 5986,
      "mble": 5987,
      "|\\": 5988,
      "}_{\\": 5989,
      "Ġter": 5990,
      "Ġsal": 5991,
      "Ġcache": 5992,
      "iter": 5993,
      "itors": 5994,
      "ĠSal": 5995,
      "Ġlip": 5996,
      "oto": 5997,
      "oted": 5998,
      "Ġconductor": 5999,
      "chars": 6000,
      "ĠCode": 6001,
      "ĠSouth": 6002,
      "ĠBo": 6003,
      "Ġstability": 6004,
      "istrib": 6005,
      "002": 6006,
      "Ġcomments": 6007,
      "Ġkids": 6008,
      "essor": 6009,
      "Ġsuit": 6010,
      "âĢ¯": 6011,
      "ĠOper": 6012,
      "Ġ||": 6013,
      "Ġpoor": 6014,
      "...Ċ": 6015,
      "Ġsolved": 6016,
      "Ġsomewhere": 6017,
      "Ġevents": 6018,
      "cession": 6019,
      "lict": 6020,
      "Ġparam": 6021,
      "172": 6022,
      "____": 6023,
      "issa": 6024,
      "âĢĿĊ": 6025,
      "Ġpassed": 6026,
      "except": 6027,
      "Ġpersonally": 6028,
      "uchy": 6029,
      "Ġrespond": 6030,
      "Ġoccup": 6031,
      "And": 6032,
      "Ġadjust": 6033,
      "Ġdrawn": 6034,
      "Ġfrag": 6035,
      "regular": 6036,
      "ĠTechn": 6037,
      "Ġmovement": 6038,
      "Ġphoton": 6039,
      "ĠRedis": 6040,
      "âĶĢâĶĢâĶĢâĶĢâĶĢâĶĢâĶĢâĶĢâĶĢâĶĢâĶĢâĶĢâĶĢâĶĢâĶĢâĶĢ": 6041,
      "loyed": 6042,
      "ĠIndia": 6043,
      "Ġmomentum": 6044,
      "omorphic": 6045,
      "Ġestablished": 6046,
      "Ġdrink": 6047,
      "Ġchalleng": 6048,
      "Ġbeginning": 6049,
      "Ġunbounded": 6050,
      "ĠImplementation": 6051,
      "Ġescape": 6052,
      "ĠMuslim": 6053,
      "neumonia": 6054,
      ")s": 6055,
      "+t": 6056,
      "-P": 6057,
      "014": 6058,
      "])": 6059,
      "_value": 6060,
      "cribed": 6061,
      "ike": 6062,
      "lt": 6063,
      "uce": 6064,
      "width": 6065,
      "{u": 6066,
      "Ġtend": 6067,
      "Ġticket": 6068,
      "inations": 6069,
      "Ġswe": 6070,
      "Ġmilitary": 6071,
      "Ġded": 6072,
      "ctural": 6073,
      "Ġeth": 6074,
      "Ġthous": 6075,
      "Ġlives": 6076,
      "Ġhuge": 6077,
      "ida": 6078,
      "idden": 6079,
      "ellow": 6080,
      "urch": 6081,
      "Ġstyle": 6082,
      "Ġproced": 6083,
      "ĠLand": 6084,
      "ĠLog": 6085,
      "Ġexerc": 6086,
      "Ġriver": 6087,
      "ĠMass": 6088,
      "Ġkind": 6089,
      "ĠEven": 6090,
      "Ġseconds": 6091,
      "ptim": 6092,
      "Ġcompany": 6093,
      "uper": 6094,
      "Ġhash": 6095,
      "121": 6096,
      "sian": 6097,
      "Ġcentroid": 6098,
      "Button": 6099,
      "Ġsimult": 6100,
      "Ġtraffic": 6101,
      "pected": 6102,
      "Ġago": 6103,
      "Ġcurves": 6104,
      "Ġentries": 6105,
      "409": 6106,
      "Ġeffectively": 6107,
      "ographic": 6108,
      "escription": 6109,
      "Ġplanning": 6110,
      "Ġmeasurement": 6111,
      "Ġbenefit": 6112,
      "Ġeducational": 6113,
      "Ġrelationships": 6114,
      "Ġextractor": 6115,
      "ĠHandle": 6116,
      "ĠAccording": 6117,
      "Ġtracking": 6118,
      "Ġprinciples": 6119,
      "ĠSuppose": 6120,
      "Ġrepeated": 6121,
      "Ġconcepts": 6122,
      "Model": 6123,
      "ĠPopulation": 6124,
      "(log": 6125,
      "Hence": 6126,
      "PT": 6127,
      "VM": 6128,
      "_D": 6129,
      "lin": 6130,
      "rust": 6131,
      "sv": 6132,
      "sort": 6133,
      "ura": 6134,
      "Ġturbul": 6135,
      "rections": 6136,
      "Ġbright": 6137,
      "Ġnorth": 6138,
      "usive": 6139,
      "enter": 6140,
      "entence": 6141,
      "Ġhierarch": 6142,
      "ste": 6143,
      "igorous": 6144,
      "ĠĠĠĠĠĠĠĠĠĊ": 6145,
      "odies": 6146,
      "003": 6147,
      "ĠPC": 6148,
      "Ġitem": 6149,
      "ĠDirect": 6150,
      "ĠNetwork": 6151,
      "ĠWind": 6152,
      "ĠIndian": 6153,
      "Ġmode": 6154,
      "185": 6155,
      "Ġcopy": 6156,
      "Ġscreen": 6157,
      "ĠVir": 6158,
      "_str": 6159,
      "Ġmanif": 6160,
      "Ġworked": 6161,
      "Ġchecking": 6162,
      "username": 6163,
      "cules": 6164,
      "288": 6165,
      "Ġmultiples": 6166,
      "Ġidentified": 6167,
      "Ġdetermin": 6168,
      "Cont": 6169,
      "Ġexperi": 6170,
      "Ġchoices": 6171,
      "Ġdrag": 6172,
      "Ġleads": 6173,
      "Ġconsistency": 6174,
      "Ġnormalization": 6175,
      "Ġaffects": 6176,
      "aboratory": 6177,
      "Ġinteresting": 6178,
      "ĠEquation": 6179,
      "ĠManagement": 6180,
      "ĠAfrican": 6181,
      "Ġcompanion": 6182,
      "Ġatmosphere": 6183,
      "radeable": 6184,
      "Ġokay": 6185,
      "-off": 6186,
      "700": 6187,
      "=-": 6188,
      "CM": 6189,
      "ED": 6190,
      "Gener": 6191,
      "However": 6192,
      "My": 6193,
      "OK": 6194,
      "PS": 6195,
      "fall": 6196,
      "hyd": 6197,
      "kes": 6198,
      "ooth": 6199,
      "Ã¶": 6200,
      "à±": 6201,
      "Ġice": 6202,
      "erver": 6203,
      "itter": 6204,
      "Ġwomen": 6205,
      "Ġbn": 6206,
      "Ġbaby": 6207,
      "Ġeat": 6208,
      "ĠSec": 6209,
      "ĠAI": 6210,
      "ilinear": 6211,
      "Ġbelong": 6212,
      "oses": 6213,
      "unic": 6214,
      "ayer": 6215,
      "ada": 6216,
      "Ġdict": 6217,
      "101": 6218,
      "Ġplate": 6219,
      "114": 6220,
      "Ġconstants": 6221,
      "}$.": 6222,
      "Ġsubordination": 6223,
      "Ġincomplete": 6224,
      "hedul": 6225,
      "Ġordering": 6226,
      "Ġfeed": 6227,
      "Ġhelper": 6228,
      "Ġidentical": 6229,
      "Ġintend": 6230,
      "Ġincrement": 6231,
      "Ġdescribe": 6232,
      "ometric": 6233,
      "Ġexponential": 6234,
      "attle": 6235,
      "Ġrectangular": 6236,
      "Ġflux": 6237,
      "ikes": 6238,
      "Ġpractices": 6239,
      "Ġabsor": 6240,
      "Ġwrites": 6241,
      "ESS": 6242,
      "Ġreported": 6243,
      "Ġmechanisms": 6244,
      "Ġforest": 6245,
      "ĠChristian": 6246,
      "Ġconjug": 6247,
      "Ġmountain": 6248,
      "Ġconnection": 6249,
      "Ġmachine": 6250,
      "Ġrobust": 6251,
      ".stdout": 6252,
      "\"?": 6253,
      "+v": 6254,
      "-point": 6255,
      "415": 6256,
      "692": 6257,
      "731": 6258,
      "=False": 6259,
      "AG": 6260,
      "Be": 6261,
      "Ne": 6262,
      "\\le": 6263,
      "\\end": 6264,
      "aren": 6265,
      "ris": 6266,
      "{E": 6267,
      "âĮ": 6268,
      "Ġ?": 6269,
      "Ġturtle": 6270,
      "Ġcubes": 6271,
      "oration": 6272,
      "Ġfit": 6273,
      "Ġfab": 6274,
      "Ġpneumonia": 6275,
      "Ġmist": 6276,
      "lets": 6277,
      "raft": 6278,
      "status": 6279,
      "Ġgram": 6280,
      "ula": 6281,
      "ĠBi": 6282,
      "Ġstroke": 6283,
      "Ġring": 6284,
      "Ġalphab": 6285,
      "ĠMaybe": 6286,
      "Ġdeal": 6287,
      "Ġdepart": 6288,
      "ender": 6289,
      "ĠEM": 6290,
      "Ġseason": 6291,
      "assword": 6292,
      "box": 6293,
      "Ġ{'": 6294,
      "Ġcolon": 6295,
      "Ġzeros": 6296,
      "ĠAng": 6297,
      "Ġnonzero": 6298,
      "Ġgetting": 6299,
      "}\\).": 6300,
      "Ġaccum": 6301,
      "Ġcreation": 6302,
      "Ġnews": 6303,
      "rows": 6304,
      "Ġexistence": 6305,
      "_time": 6306,
      "Ġinstit": 6307,
      "Ġclassical": 6308,
      "Ġdecimal": 6309,
      "Ġsympt": 6310,
      "Ġreduction": 6311,
      "Ġreduced": 6312,
      "ĠLeg": 6313,
      "Ġcombine": 6314,
      "clusive": 6315,
      "Ġwarm": 6316,
      "Ġculture": 6317,
      ")-(": 6318,
      "Ġprinciple": 6319,
      "Ġdiscriminants": 6320,
      "Ġcomparison": 6321,
      "ĠGerman": 6322,
      "Ġstationary": 6323,
      "Ġfully": 6324,
      "(ÏĦ": 6325,
      ".items": 6326,
      "327": 6327,
      "54": 6328,
      "693": 6329,
      "739": 6330,
      "Big": 6331,
      "Create": 6332,
      "HD": 6333,
      "RL": 6334,
      "\\).ĊĊ": 6335,
      "comp": 6336,
      "hog": 6337,
      "sor": 6338,
      "uccess": 6339,
      "Ġast": 6340,
      "Ġsave": 6341,
      "Ġsong": 6342,
      "Ġcred": 6343,
      "enal": 6344,
      "Ġfiles": 6345,
      "Ġ=================================": 6346,
      "Ġwall": 6347,
      "Ġbid": 6348,
      "ingle": 6349,
      "Ġtold": 6350,
      "Ġtoken": 6351,
      "Ġlot": 6352,
      "Ġhaven": 6353,
      "ĠTur": 6354,
      "olvent": 6355,
      "Ġ\\).": 6356,
      "Ġweeks": 6357,
      "ĠIter": 6358,
      "agraph": 6359,
      "005": 6360,
      "ĠPA": 6361,
      "ĠPa": 6362,
      "ĠRa": 6363,
      "ĠFriday": 6364,
      "ĠHer": 6365,
      "ĠOur": 6366,
      "izers": 6367,
      "izations": 6368,
      "Ġclar": 6369,
      "Ġlib": 6370,
      "ught": 6371,
      "sia": 6372,
      "132": 6373,
      "Ġspecified": 6374,
      "$$$": 6375,
      "Ġraised": 6376,
      "Ġprep": 6377,
      "neq": 6378,
      "ĠConf": 6379,
      "Ġcomplement": 6380,
      "ĠAlzheimer": 6381,
      "profile": 6382,
      "472": 6383,
      "Ġinstant": 6384,
      "ĠExplain": 6385,
      "Ġimportance": 6386,
      "Ġcontinues": 6387,
      "Ġgradi": 6388,
      "agnetic": 6389,
      "Ġmemrist": 6390,
      "forward": 6391,
      "Ġlinearizability": 6392,
      "Ġcommonly": 6393,
      "ĠAssoci": 6394,
      "ivalent": 6395,
      "ĠPhase": 6396,
      "Ġpractical": 6397,
      "Ġprojects": 6398,
      "Ġlocated": 6399,
      "Ġsupported": 6400,
      "|------------": 6401,
      "Ġgenetic": 6402,
      "Ġeasily": 6403,
      "ĠQuant": 6404,
      "pecifically": 6405,
      "ING": 6406,
      "Ġregarding": 6407,
      "Ġdebts": 6408,
      "Ġcontradict": 6409,
      "dempotency": 6410,
      "Ġexceed": 6411,
      "ĠâĶĤĊ": 6412,
      "Ġawait": 6413,
      "ĠAbstract": 6414,
      "Ġexperimental": 6415,
      "Ġdaily": 6416,
      "Ġvoltage": 6417,
      "!Ċ": 6418,
      "\")": 6419,
      "']Ċ": 6420,
      "(C": 6421,
      ".D": 6422,
      "59": 6423,
      "QAOA": 6424,
      "UN": 6425,
      "Write": 6426,
      "[-": 6427,
      "\\]": 6428,
      "\\begin": 6429,
      "dfrac": 6430,
      "gers": 6431,
      "ham": 6432,
      "main": 6433,
      "pite": 6434,
      "ses": 6435,
      "tx": 6436,
      "title": 6437,
      "tml": 6438,
      "Ġpp": 6439,
      "Ġwalk": 6440,
      "Ġ(`": 6441,
      "Ġmath": 6442,
      "Ġdanger": 6443,
      "used": 6444,
      "ĠSw": 6445,
      "Ġreversible": 6446,
      "oming": 6447,
      "ĠTw": 6448,
      "ĠTest": 6449,
      "oln": 6450,
      "ĠComplex": 6451,
      "eli": 6452,
      "ĠBook": 6453,
      "Ġsto": 6454,
      "ĠLWW": 6455,
      "ĠMicro": 6456,
      "ĠDeterm": 6457,
      "Ġchiral": 6458,
      "assert": 6459,
      "idean": 6460,
      "closed": 6461,
      "osecond": 6462,
      "Ġconstit": 6463,
      "Ġphases": 6464,
      "Ġincome": 6465,
      "outh": 6466,
      "Ġextends": 6467,
      "Ġgradu": 6468,
      "Ġcalculated": 6469,
      "Ġtechnique": 6470,
      "Ġblocked": 6471,
      "Ġmentioned": 6472,
      "ĠOnly": 6473,
      "Example": 6474,
      "Ġfractions": 6475,
      "register": 6476,
      "Ġantib": 6477,
      "Ġprimitive": 6478,
      "Ġauthors": 6479,
      "Ġpossibilities": 6480,
      "Ġprompt": 6481,
      "Ġirr": 6482,
      "_rating": 6483,
      "Ġdevice": 6484,
      "Ġalcohols": 6485,
      "Ġlegal": 6486,
      "Ġestimates": 6487,
      "ĠDepartment": 6488,
      "Ġpiece": 6489,
      "Ġinfection": 6490,
      "Ġcele": 6491,
      "floor": 6492,
      "Ġbacteria": 6493,
      "Ġpremise": 6494,
      "Ġmonotonic": 6495,
      "Ġsimultaneously": 6496,
      ",...": 6497,
      "-and": 6498,
      "230": 6499,
      "548": 6500,
      "632": 6501,
      "720": 6502,
      "Extract": 6503,
      "Fe": 6504,
      "RB": 6505,
      "Take": 6506,
      "airc": 6507,
      "ki": 6508,
      "uci": 6509,
      "Ġaxes": 6510,
      "herent": 6511,
      "ont": 6512,
      "enced": 6513,
      "Ġpull": 6514,
      "Ġmother": 6515,
      "leg": 6516,
      "ica": 6517,
      "Ġnation": 6518,
      "Ġhttp": 6519,
      "ĠTuesday": 6520,
      "idation": 6521,
      "iddle": 6522,
      "Ġyz": 6523,
      "amps": 6524,
      "semb": 6525,
      "ĠPol": 6526,
      "ĠDuring": 6527,
      "ĠOtto": 6528,
      "rench": 6529,
      "abit": 6530,
      "ĠIns": 6531,
      "ĠGo": 6532,
      "clidean": 6533,
      "Ġdictionary": 6534,
      "Ġplaces": 6535,
      "Ġprimes": 6536,
      "130": 6537,
      "Ġcircular": 6538,
      "equiv": 6539,
      "Ġreports": 6540,
      "Ġdetection": 6541,
      "+yz": 6542,
      "Ġjustice": 6543,
      "ĠProper": 6544,
      "Ġsatisfied": 6545,
      "Strategy": 6546,
      "Ġfollowed": 6547,
      "ĠNote": 6548,
      "Ġdependent": 6549,
      "_path": 6550,
      "Ġcompletely": 6551,
      "707": 6552,
      "Ġcausal": 6553,
      "Ġcauses": 6554,
      "sequently": 6555,
      "Ġinternational": 6556,
      "Ġobserved": 6557,
      "Ġmolecules": 6558,
      "ĲâķĲâķĲâķĲâķĲâķĲâķĲâķĲâķ": 6559,
      "Ġdiscriminant": 6560,
      "Ġsnake": 6561,
      "Ġbalance": 6562,
      "Ġconsequence": 6563,
      "Ġguarantee": 6564,
      "ĠPresident": 6565,
      "ĠProvide": 6566,
      "ĠCatalan": 6567,
      "aircase": 6568,
      "-B": 6569,
      "-H": 6570,
      "Att": 6571,
      "EM": 6572,
      "Sp": 6573,
      "cription": 6574,
      "host": 6575,
      "tod": 6576,
      "tically": 6577,
      "tons": 6578,
      "vents": 6579,
      "hex": 6580,
      "atform": 6581,
      "Ġcart": 6582,
      "Ġctx": 6583,
      "ancial": 6584,
      "Ġoil": 6585,
      "Ġ({": 6586,
      "Ġmental": 6587,
      "ĠSte": 6588,
      "asic": 6589,
      "Ġweap": 6590,
      "umb": 6591,
      "ĠChem": 6592,
      "ĠComb": 6593,
      "amin": 6594,
      "ament": 6595,
      "ĠLa": 6596,
      "Ġ$-": 6597,
      "Ġ$=": 6598,
      "see": 6599,
      "ĠMight": 6600,
      "ĠMount": 6601,
      "ads": 6602,
      "ĠEd": 6603,
      "ĠNon": 6604,
      "Ġchosen": 6605,
      "Ġcompared": 6606,
      "ipal": 6607,
      "ensen": 6608,
      "Ġmodule": 6609,
      "Ġdoctor": 6610,
      "123": 6611,
      "ĠKe": 6612,
      "155": 6613,
      "Ġtrial": 6614,
      "Â°)": 6615,
      "Ġprepar": 6616,
      "Ġrecords": 6617,
      "ĠChina": 6618,
      "ĠAlice": 6619,
      "vie": 6620,
      "_total": 6621,
      "plicate": 6622,
      "grammer": 6623,
      "Ġdependency": 6624,
      "ĠArmy": 6625,
      "Ġsaying": 6626,
      ".set": 6627,
      "scill": 6628,
      "scribed": 6629,
      "Ġrunning": 6630,
      "Ġinvolving": 6631,
      "Ġprotein": 6632,
      "uthor": 6633,
      "Ġgrowing": 6634,
      "Ġskin": 6635,
      ".transform": 6636,
      "Ġtemperatures": 6637,
      "Reg": 6638,
      "/dx": 6639,
      "SCII": 6640,
      "Ġadvanced": 6641,
      "ropic": 6642,
      "Ġsubtracted": 6643,
      "-convex": 6644,
      "ĠGeneral": 6645,
      "warz": 6646,
      "Ġchallenge": 6647,
      "ĠExpand": 6648,
      "ĠPlaying": 6649,
      "ĠIdentify": 6650,
      "Ġfluctuations": 6651,
      "ĠInitialize": 6652,
      "Ġelliptic": 6653,
      "epsilon": 6654,
      "ĠWindows": 6655,
      "())": 6656,
      "++": 6657,
      ".assert": 6658,
      "/O": 6659,
      "/AL": 6660,
      "63": 6661,
      "?)": 6662,
      "Calcul": 6663,
      "Does": 6664,
      "EC": 6665,
      "LP": 6666,
      "Mult": 6667,
      "TER": 6668,
      "_T": 6669,
      "bi": 6670,
      "break": 6671,
      "mas": 6672,
      "pid": 6673,
      "rance": 6674,
      "tag": 6675,
      "words": 6676,
      "{y": 6677,
      "}\"": 6678,
      "Ġtiss": 6679,
      "only": 6680,
      "orf": 6681,
      "ishes": 6682,
      "Ġox": 6683,
      "Ġoscill": 6684,
      "Ġeating": 6685,
      "Ġrepl": 6686,
      "Ġreferences": 6687,
      "ĠTP": 6688,
      "Ġgalax": 6689,
      "iff": 6690,
      "ĠCom": 6691,
      "Ġprover": 6692,
      "Ġprogress": 6693,
      "Ġalternative": 6694,
      "Ġalthough": 6695,
      "006": 6696,
      "thing": 6697,
      "ĠDet": 6698,
      "ĠEast": 6699,
      "Ġleave": 6700,
      "Ġheart": 6701,
      "Ġpole": 6702,
      "ĠGod": 6703,
      "orthern": 6704,
      "Ġtrick": 6705,
      "Ġanything": 6706,
      "122": 6707,
      "Ġclick": 6708,
      "Ġformer": 6709,
      "ĠJT": 6710,
      "Ġspikes": 6711,
      "Ġincident": 6712,
      "Ġrecip": 6713,
      "Ġremin": 6714,
      "223": 6715,
      "Ġinstr": 6716,
      "Ġpassage": 6717,
      "Ġsigns": 6718,
      "Ġcarbon": 6719,
      "869": 6720,
      "Ġconfirm": 6721,
      "Ġlists": 6722,
      "(\"\\": 6723,
      "prime": 6724,
      "Ġacts": 6725,
      "Ġbuy": 6726,
      "Ġblue": 6727,
      "Ġpreserve": 6728,
      "Ġkeys": 6729,
      ",\\;": 6730,
      "à°¿": 6731,
      "Ġcausing": 6732,
      "airs": 6733,
      "Ġcutting": 6734,
      "Ġencoun": 6735,
      "Ġframes": 6736,
      "Ġrelatively": 6737,
      "ĠEuclidean": 6738,
      "bsite": 6739,
      "Ġdatabase": 6740,
      "ĠSlightly": 6741,
      "ĠSeptember": 6742,
      "ĠInternational": 6743,
      "slant": 6744,
      "ĠHoover": 6745,
      "Ġincorporate": 6746,
      "Processor": 6747,
      "Ġcrucial": 6748,
      "\".Ċ": 6749,
      "'^": 6750,
      "-of": 6751,
      ".is": 6752,
      ":.": 6753,
      "?:": 6754,
      "Can": 6755,
      "Frame": 6756,
      "IG": 6757,
      "Part": 6758,
      "Ret": 6759,
      "Text": 6760,
      "]{(": 6761,
      "_a": 6762,
      "_char": 6763,
      "_lower": 6764,
      "bor": 6765,
      "ius": 6766,
      "oe": 6767,
      "pm": 6768,
      "turb": 6769,
      "}/(": 6770,
      "Ã¼": 6771,
      "Î»": 6772,
      "Ġ```ĊĊ": 6773,
      "rew": 6774,
      "Ġferm": 6775,
      "itative": 6776,
      "Ġmask": 6777,
      "ederal": 6778,
      "Ġinj": 6779,
      "Ġinn": 6780,
      "Ġinverse": 6781,
      "Ġtown": 6782,
      "usi": 6783,
      "ĠCath": 6784,
      "ĠCDC": 6785,
      "Ġstress": 6786,
      "Ġstores": 6787,
      "seud": 6788,
      "ĠDec": 6789,
      "ĠEffect": 6790,
      "aint": 6791,
      "That": 6792,
      "abalu": 6793,
      "ĠGM": 6794,
      "ĠGroup": 6795,
      "ĠGreen": 6796,
      "orman": 6797,
      "Ġ`__": 6798,
      "129": 6799,
      "Ġapplies": 6800,
      "Ġfunds": 6801,
      "Ġprice": 6802,
      "ĠStandard": 6803,
      "Ġpref": 6804,
      "ubl": 6805,
      "Ġtraject": 6806,
      "hentic": 6807,
      "sinh": 6808,
      "Ġinstances": 6809,
      ")$.": 6810,
      "Ġserious": 6811,
      "Ġformulas": 6812,
      "ĠDev": 6813,
      "ikov": 6814,
      "Ġskills": 6815,
      "Ġbehind": 6816,
      "Ġcounts": 6817,
      "Ġindicate": 6818,
      "Ġproofs": 6819,
      "reedom": 6820,
      "Ġmeeting": 6821,
      "{}.<|": 6822,
      "Ġinvestig": 6823,
      "Ġstraightforward": 6824,
      "Ġdecomposition": 6825,
      "_features": 6826,
      "ĠEducation": 6827,
      "Ġprofessional": 6828,
      "Ġambiguous": 6829,
      "ĠCauchy": 6830,
      "(M": 6831,
      "(...": 6832,
      ")\\)": 6833,
      "033": 6834,
      "LS": 6835,
      "Please": 6836,
      "gon": 6837,
      "hand": 6838,
      "lation": 6839,
      "lice": 6840,
      "more": 6841,
      "pip": 6842,
      "rd": 6843,
      "rors": 6844,
      "sg": 6845,
      "{p": 6846,
      "},Ċ": 6847,
      "ľâĶĢâĶĢ": 6848,
      "iny": 6849,
      "inet": 6850,
      "isot": 6851,
      "iscent": 6852,
      "Ġfat": 6853,
      "Ġfail": 6854,
      "Ġpet": 6855,
      "Ġplease": 6856,
      "Ġ(\"": 6857,
      "Ġ()": 6858,
      "array": 6859,
      "Ġdam": 6860,
      "Ġnice": 6861,
      "Ġnarrow": 6862,
      "uthern": 6863,
      "Ġreli": 6864,
      "Ġweb": 6865,
      "uman": 6866,
      "ĠCost": 6867,
      "ĠCIA": 6868,
      "ĠBr": 6869,
      "Ġprotocol": 6870,
      "Ġordered": 6871,
      "Ġvo": 6872,
      "agrange": 6873,
      "ĠRus": 6874,
      "ĠWilson": 6875,
      "Ġuncertainty": 6876,
      "ialog": 6877,
      "ĠInstitute": 6878,
      "aph": 6879,
      "illi": 6880,
      "104": 6881,
      "Ġinteractions": 6882,
      "berg": 6883,
      "Ġenh": 6884,
      "Ġsums": 6885,
      "ĠJournal": 6886,
      "Ġ</": 6887,
      "âĶĤ": 6888,
      "enerate": 6889,
      "Ġcorrel": 6890,
      "ĠCondition": 6891,
      "Ġaccounts": 6892,
      "Ġagencies": 6893,
      "Ġoffer": 6894,
      "Ġcounting": 6895,
      "Ġincreased": 6896,
      "askoln": 6897,
      "Ġstrings": 6898,
      "Ġstandards": 6899,
      "Ġmeasured": 6900,
      "Ġseparated": 6901,
      "779": 6902,
      "Ġheader": 6903,
      "useum": 6904,
      "Ġolder": 6905,
      "Ġdistributions": 6906,
      "Ġcorresponding": 6907,
      "mediate": 6908,
      "Ġsorted": 6909,
      "Ġapplications": 6910,
      "Ġcontradiction": 6911,
      "Ġdiscovered": 6912,
      "Ġkinetic": 6913,
      "Ġconcentration": 6914,
      "Ġaspects": 6915,
      "Ġtweet": 6916,
      "Ġvideo": 6917,
      "Ġfiltering": 6918,
      "ĠConstraints": 6919,
      "Ġ=================================================================": 6920,
      "Ġlibrary": 6921,
      "Ġirrational": 6922,
      "askolnikov": 6923,
      "+a": 6924,
      ".org": 6925,
      "016": 6926,
      "58": 6927,
      "74": 6928,
      "Gamma": 6929,
      "UL": 6930,
      "_e": 6931,
      "_val": 6932,
      "dots": 6933,
      "iers": 6934,
      "oin": 6935,
      "ql": 6936,
      "rs": 6937,
      "tract": 6938,
      "{M": 6939,
      "Ġtro": 6940,
      "rex": 6941,
      "Ġsou": 6942,
      "Ġfailed": 6943,
      "item": 6944,
      "ancing": 6945,
      "Ġwood": 6946,
      "Ġnest": 6947,
      "Ġisinstance": 6948,
      "entropy": 6949,
      "ĠSun": 6950,
      "ĠSur": 6951,
      "ĠService": 6952,
      "Ġthreat": 6953,
      "Ġreached": 6954,
      "imum": 6955,
      "Ġhoney": 6956,
      "ĠAN": 6957,
      "ĠASCII": 6958,
      "olumn": 6959,
      "ado": 6960,
      "ĠFN": 6961,
      "Ġnotation": 6962,
      "Ġchanged": 6963,
      "Ġcomplic": 6964,
      "ĠOf": 6965,
      "ĠGra": 6966,
      "apse": 6967,
      "racy": 6968,
      "These": 6969,
      "Ġresur": 6970,
      "Ġresource": 6971,
      "arest": 6972,
      "ÏĢi": 6973,
      "Ġverb": 6974,
      "ancel": 6975,
      "117": 6976,
      "Ġcooper": 6977,
      "ĠJensen": 6978,
      "cyc": 6979,
      "Ġrecover": 6980,
      "dict": 6981,
      "Ġdivid": 6982,
      "Ġcorners": 6983,
      "Ġgetattr": 6984,
      "calo": 6985,
      "Ġinsight": 6986,
      "Ġassess": 6987,
      "cdots": 6988,
      "exic": 6989,
      "Ġstructured": 6990,
      "Ġshowed": 6991,
      "Ġhelped": 6992,
      "Ġperiapsis": 6993,
      "Ġpoles": 6994,
      "_size": 6995,
      "Ġbackground": 6996,
      "Ġswim": 6997,
      "Ġcommunities": 6998,
      "defined": 6999,
      "bigr": 7000,
      "Ġlaws": 7001,
      "Ġreceives": 7002,
      "ĠPerform": 7003,
      "Ġcontacts": 7004,
      "Ġmajority": 7005,
      "Ġdemand": 7006,
      "Ġessential": 7007,
      "Ġregardless": 7008,
      "Ġlaunch": 7009,
      "Ġalgebraic": 7010,
      "Ġteaching": 7011,
      "Ġteachers": 7012,
      "anese": 7013,
      "Ġinvariant": 7014,
      "Ġstrength": 7015,
      "Ġfabric": 7016,
      "Ġgradient": 7017,
      "\"\\": 7018,
      "-ex": 7019,
      ".String": 7020,
      "RO": 7021,
      "SS": 7022,
      "cular": 7023,
      "function": 7024,
      "ij": 7025,
      "ride": 7026,
      "wers": 7027,
      "Ġ)^": 7028,
      "Ġcat": 7029,
      "Ġpiv": 7030,
      "Ġoct": 7031,
      "Ġmor": 7032,
      "Ġdark": 7033,
      "inger": 7034,
      "Ġtodo": 7035,
      "uscalo": 7036,
      "ĠSourdough": 7037,
      "imet": 7038,
      "ĠArab": 7039,
      "olar": 7040,
      "Ġforced": 7041,
      "Ġgame": 7042,
      "Ġgrid": 7043,
      "owel": 7044,
      "Ġ\\{": 7045,
      "uming": 7046,
      "osure": 7047,
      "ĠII": 7048,
      "amer": 7049,
      "Ġpropos": 7050,
      "ĠLine": 7051,
      "allow": 7052,
      "ĠOut": 7053,
      "Ġsharing": 7054,
      "Ġfinish": 7055,
      "Ġadult": 7056,
      "Ġmodes": 7057,
      "253": 7058,
      "Ġcolour": 7059,
      "Ġcollinear": 7060,
      "Ġgoal": 7061,
      "ĠString": 7062,
      "Â°).": 7063,
      "Ġproduces": 7064,
      "Ġcharges": 7065,
      "Ġchecks": 7066,
      "issance": 7067,
      "Ġvariations": 7068,
      "models": 7069,
      "Ġmoved": 7070,
      "ursive": 7071,
      "235": 7072,
      "404": 7073,
      "Ġprocessed": 7074,
      "-specific": 7075,
      "Ġperiods": 7076,
      "Ġappearing": 7077,
      "Ġshell": 7078,
      "Ġtopology": 7079,
      "atted": 7080,
      "monella": 7081,
      "Ġguide": 7082,
      "ĠDevelop": 7083,
      "-integer": 7084,
      "ĠCommission": 7085,
      "troller": 7086,
      "Ġbooks": 7087,
      "Ġcollapse": 7088,
      "space": 7089,
      "APT": 7090,
      "loyment": 7091,
      "Ġdynamics": 7092,
      "ĠPattern": 7093,
      "Ġanswers": 7094,
      "Ġroughly": 7095,
      "Ġhyperbolic": 7096,
      "orfiry": 7097,
      "Ġreminiscent": 7098,
      "uscaloosa": 7099,
      ")**Ċ": 7100,
      "-r": 7101,
      "012": 7102,
      "220": 7103,
      "420": 7104,
      "62": 7105,
      "732": 7106,
      "BO": 7107,
      "IF": 7108,
      "Service": 7109,
      "\\qquad": 7110,
      "bn": 7111,
      "both": 7112,
      "born": 7113,
      "count": 7114,
      "gu": 7115,
      "mitted": 7116,
      "pmod": 7117,
      "Ġtends": 7118,
      "Ġsamples": 7119,
      "Ġsampling": 7120,
      "orter": 7121,
      "arg": 7122,
      "arts": 7123,
      "Ġnut": 7124,
      "entiment": 7125,
      "Ġhund": 7126,
      "oured": 7127,
      "Ġweather": 7128,
      "Ġweights": 7129,
      "url": 7130,
      "Ġexcess": 7131,
      "istan": 7132,
      "terex": 7133,
      "rief": 7134,
      "ĠPort": 7135,
      "ĠFound": 7136,
      "ĠFood": 7137,
      "ersion": 7138,
      "ĠEcon": 7139,
      "ĠNumber": 7140,
      "Ġseven": 7141,
      "ĠHT": 7142,
      "ĠHy": 7143,
      "acts": 7144,
      "appe": 7145,
      "ermet": 7146,
      "Ġresidue": 7147,
      "Ġsoon": 7148,
      "udes": 7149,
      "Ġequilateral": 7150,
      "Ġarm": 7151,
      "Ġclient": 7152,
      "Ġclimate": 7153,
      "Ġappoint": 7154,
      "Ġenable": 7155,
      "Ġenumer": 7156,
      "ffff": 7157,
      "ĠJust": 7158,
      "Ġlock": 7159,
      "Ġdistingu": 7160,
      "432": 7161,
      "Ġdisp": 7162,
      "Ġdiss": 7163,
      "avg": 7164,
      "Ġspecify": 7165,
      "ĠuseUser": 7166,
      "Ġ},Ċ": 7167,
      "Int": 7168,
      "Ġparagraph": 7169,
      "ĠConvert": 7170,
      "pective": 7171,
      "Ġconsiderations": 7172,
      "ĠWeb": 7173,
      "ĠProgram": 7174,
      "Ġvisit": 7175,
      "ibri": 7176,
      "ocation": 7177,
      "ocument": 7178,
      "Ġindices": 7179,
      "Ġletter": 7180,
      "Ġlogical": 7181,
      "vision": 7182,
      "Ġhighest": 7183,
      "Exp": 7184,
      "EST": 7185,
      "Ġautomorph": 7186,
      "Ġmeasurements": 7187,
      "Ġenvironmental": 7188,
      "Ġdelay": 7189,
      "Ġassuming": 7190,
      "Ġupdates": 7191,
      "ĠSpace": 7192,
      "Ġprior": 7193,
      "Ġneutron": 7194,
      "Ġlatent": 7195,
      "_CM": 7196,
      "Ġcandidate": 7197,
      "Ġinfections": 7198,
      "nesday": 7199,
      "ĠKinabalu": 7200,
      "ĠMeanwhile": 7201,
      "\\]<|": 7202,
      ")),": 7203,
      "):ĊĊ": 7204,
      ")]Ċ": 7205,
      "143": 7206,
      "980": 7207,
      "Dis": 7208,
      "IR": 7209,
      "Name": 7210,
      "QU": 7211,
      "Red": 7212,
      "\\(": 7213,
      "\\mathbb": 7214,
      "_ex": 7215,
      "bf": 7216,
      "lig": 7217,
      "rmod": 7218,
      "yes": 7219,
      "Ġtrac": 7220,
      "eness": 7221,
      "Ġbin": 7222,
      "Ġbad": 7223,
      "ĠSquare": 7224,
      "asion": 7225,
      "Ġrelease": 7226,
      "rag": 7227,
      "igher": 7228,
      "osis": 7229,
      "ulk": 7230,
      "under": 7231,
      "Ġstars": 7232,
      "Ġrigorous": 7233,
      "ĠMc": 7234,
      "ĠMary": 7235,
      "ĠMIT": 7236,
      "ĠExt": 7237,
      "aped": 7238,
      "reduci": 7239,
      "ensities": 7240,
      "ĠKB": 7241,
      "Ġsummer": 7242,
      "Ġschedul": 7243,
      "Ġdefinite": 7244,
      "142": 7245,
      "Ġrare": 7246,
      "Ġrapid": 7247,
      "Ġcharged": 7248,
      "===========": 7249,
      "Ġcursor": 7250,
      "Ġassert": 7251,
      "ĠâĪļ(": 7252,
      "what": 7253,
      "anned": 7254,
      "Ġcharacteristic": 7255,
      "Ġensuring": 7256,
      "Ġminimize": 7257,
      "ĠMeV": 7258,
      "Ġbijective": 7259,
      "Ġpredi": 7260,
      "Ġhimself": 7261,
      "Ġdiscussion": 7262,
      "icians": 7263,
      "Ġreferring": 7264,
      "Ġtools": 7265,
      "{cases": 7266,
      "Ġpieces": 7267,
      "ĠEuropean": 7268,
      "Ġefforts": 7269,
      "Ġagreement": 7270,
      ".body": 7271,
      "Ġsingularities": 7272,
      "ĠDivide": 7273,
      "{aligned": 7274,
      "ĠAssociation": 7275,
      ")**:": 7276,
      "))/(": 7277,
      "-empty": 7278,
      "923": 7279,
      "?).": 7280,
      "CH": 7281,
      "Lo": 7282,
      "label": 7283,
      "something": 7284,
      "uel": 7285,
      "vest": 7286,
      "})^": 7287,
      "Ġ^": 7288,
      "Ġign": 7289,
      "Ġtum": 7290,
      "Ġsav": 7291,
      "Ġcrit": 7292,
      "ened": 7293,
      "Ġfru": 7294,
      "Ġoy": 7295,
      "Ġmix": 7296,
      "Ġdot": 7297,
      "Ġtowards": 7298,
      "asts": 7299,
      "Ġreaches": 7300,
      "omon": 7301,
      "ĠTyp": 7302,
      "ĠAv": 7303,
      "otes": 7304,
      "ster": 7305,
      "Ġwebsite": 7306,
      "osomal": 7307,
      "ĠBel": 7308,
      "Ġstaff": 7309,
      "rian": 7310,
      "ĠRena": 7311,
      "ĠDem": 7312,
      "ĠElev": 7313,
      "login": 7314,
      "Ġsevere": 7315,
      "ĠHard": 7316,
      "antic": 7317,
      "keys": 7318,
      "Ġdiet": 7319,
      "redict": 7320,
      "Ġsouth": 7321,
      "udd": 7322,
      "Ġregul": 7323,
      "160": 7324,
      "Ġschema": 7325,
      "orders": 7326,
      "aks": 7327,
      "Ġupward": 7328,
      "Ġspring": 7329,
      "pendence": 7330,
      "Ġsubstitution": 7331,
      "ĠStreet": 7332,
      "Ġ}.": 7333,
      "Ġinclusive": 7334,
      "fully": 7335,
      "ologies": 7336,
      "Ġvariety": 7337,
      "Ġclassification": 7338,
      "240": 7339,
      "-bit": 7340,
      "Ġmultipl": 7341,
      "Ġanalog": 7342,
      "olden": 7343,
      "Ġrefine": 7344,
      "Ġdependencies": 7345,
      "object": 7346,
      "etyl": 7347,
      "Ġpresence": 7348,
      "vironments": 7349,
      "_message": 7350,
      "Ġelementary": 7351,
      "ĠIslam": 7352,
      "vertical": 7353,
      "666": 7354,
      "Ġcounterex": 7355,
      "Ġapplying": 7356,
      "Ġframe": 7357,
      "year": 7358,
      "ĠFlor": 7359,
      "Ġturned": 7360,
      "Ġcultural": 7361,
      "Ġcapture": 7362,
      "Ġpreserves": 7363,
      "Ġfriends": 7364,
      "Ġiteration": 7365,
      "actorial": 7366,
      "attery": 7367,
      "Ġbirth": 7368,
      "Equal": 7369,
      "Ġtraditional": 7370,
      "ĠHarlem": 7371,
      "ĠHistory": 7372,
      "Ġearthqu": 7373,
      "rastructure": 7374,
      "Ġwidening": 7375,
      "ĠAdditionally": 7376,
      "adecimal": 7377,
      "Ġcreditors": 7378,
      "optional": 7379,
      "ĠSalmonella": 7380,
      "Ġexercise": 7381,
      "Attention": 7382,
      "Ġdividend": 7383,
      "Ġpivot": 7384,
      "ĠRenaissance": 7385,
      "(j": 7386,
      "()ĊĊ": 7387,
      "*(-": 7388,
      ",v": 7389,
      "-T": 7390,
      "/v": 7391,
      "08": 7392,
      "083": 7393,
      "872": 7394,
      "896": 7395,
      "Gradeable": 7396,
      "Note": 7397,
      "Rem": 7398,
      "[Î": 7399,
      "_class": 7400,
      "bl": 7401,
      "car": 7402,
      "core": 7403,
      "ded": 7404,
      "fter": 7405,
      "first": 7406,
      "ipp": 7407,
      "nel": 7408,
      "pre": 7409,
      "tim": 7410,
      "|,": 7411,
      "Ä±": 7412,
      "Ġ).ĊĊ": 7413,
      "Ġà®": 7414,
      "Ġtren": 7415,
      "Ġaim": 7416,
      "Ġcit": 7417,
      "Ġbon": 7418,
      "Ġbinding": 7419,
      "Ġmutation": 7420,
      "Ġancient": 7421,
      "ctx": 7422,
      "aser": 7423,
      "Ġrele": 7424,
      "Ġreaction": 7425,
      "ĠTimes": 7426,
      "cean": 7427,
      "cember": 7428,
      "ĠâĬ": 7429,
      "ĠIN": 7430,
      "Ġonline": 7431,
      "Ġstaircase": 7432,
      "ĠTheir": 7433,
      "Ġ$[": 7434,
      "Ġvon": 7435,
      "Ġneg": 7436,
      "ĠMiss": 7437,
      "ĠMessage": 7438,
      "ĠMexic": 7439,
      "ĠPublic": 7440,
      "ĠRow": 7441,
      "ĠRun": 7442,
      "rome": 7443,
      "ĠFrench": 7444,
      "ldots": 7445,
      "alled": 7446,
      "ĠOR": 7447,
      "Ġsolar": 7448,
      "Ġinteractive": 7449,
      "Ġ>>": 7450,
      "127": 7451,
      "Ġregist": 7452,
      "Ġliability": 7453,
      "ĠKing": 7454,
      "Ġ\\((": 7455,
      "189": 7456,
      "Ġjump": 7457,
      "Ġschem": 7458,
      "Ġtrip": 7459,
      "Ġmanner": 7460,
      "Ġremember": 7461,
      "175": 7462,
      "Ġinstruction": 7463,
      ")$.ĊĊ": 7464,
      "Ġwanted": 7465,
      "Ġthinking": 7466,
      "Ġhelps": 7467,
      "Ġconfir": 7468,
      "Ġconcrete": 7469,
      "Ġserve": 7470,
      "Ġdeveloping": 7471,
      "Ġcyl": 7472,
      "ventions": 7473,
      "Conclusion": 7474,
      "median": 7475,
      "Ġpotentially": 7476,
      "Ġgraphs": 7477,
      "mean": 7478,
      "Ġflows": 7479,
      "Ġoptimum": 7480,
      "777": 7481,
      "Ġslopes": 7482,
      "Ġoptional": 7483,
      "Ġperformed": 7484,
      "Ġorganization": 7485,
      "Ġcircumscribed": 7486,
      "Ġposts": 7487,
      "Ġpackage": 7488,
      "Ġindicates": 7489,
      "spring": 7490,
      "SCOM": 7491,
      "ĠWithout": 7492,
      "Under": 7493,
      "Ġhardware": 7494,
      "ĠMonday": 7495,
      "Ġpreviously": 7496,
      "Ġstatistical": 7497,
      "Ġbridge": 7498,
      "Ġreconstruction": 7499,
      "-dependent": 7500,
      "Ġbeneficiary": 7501,
      "Ġpulse": 7502,
      "Ġhope": 7503,
      "Ġsymptoms": 7504,
      "[Î¶": 7505,
      "(&": 7506,
      ",?": 7507,
      ",ÏĢ": 7508,
      "-be": 7509,
      ".json": 7510,
      "/B": 7511,
      "233": 7512,
      "322": 7513,
      "617": 7514,
      "716": 7515,
      "ASE": 7516,
      "Hel": 7517,
      "Long": 7518,
      "RS": 7519,
      "Right": 7520,
      "TP": 7521,
      "]]Ċ": 7522,
      "_by": 7523,
      "_index": 7524,
      "_model": 7525,
      "aught": 7526,
      "iat": 7527,
      "iation": 7528,
      "just": 7529,
      "ky": 7530,
      "mal": 7531,
      "pic": 7532,
      "uity": 7533,
      "uary": 7534,
      "{F": 7535,
      "}|": 7536,
      "}\"Ċ": 7537,
      "Ġft": 7538,
      "Ġfill": 7539,
      "anish": 7540,
      "Ġos": 7541,
      "arm": 7542,
      "aration": 7543,
      "Ġdates": 7544,
      "Ġinduced": 7545,
      "Ġreasons": 7546,
      "ĠAEF": 7547,
      "rad": 7548,
      "igit": 7549,
      "osome": 7550,
      "ĠBP": 7551,
      "Ġstri": 7552,
      "Ġnearest": 7553,
      "ĠMem": 7554,
      "ĠMarch": 7555,
      "ĠPorfiry": 7556,
      "adata": 7557,
      "Ġ\"__": 7558,
      "angent": 7559,
      "lder": 7560,
      "estion": 7561,
      "Ġ**$": 7562,
      "plot": 7563,
      "Ġheld": 7564,
      "Ġhearing": 7565,
      "Ġunw": 7566,
      "Ġmeant": 7567,
      "Ġadults": 7568,
      "Ġroi": 7569,
      "Ġplatform": 7570,
      "Ġcold": 7571,
      "Ġsummary": 7572,
      "Ġjud": 7573,
      "ĠJune": 7574,
      "avity": 7575,
      "141": 7576,
      "Ġoverlap": 7577,
      "Ġdesired": 7578,
      "Ġparad": 7579,
      "Ġrelate": 7580,
      "Ġacid": 7581,
      "ĠAlgorithm": 7582,
      "Ġusername": 7583,
      "Ġrepresenting": 7584,
      "Ġsystematically": 7585,
      "effect": 7586,
      "Ġdecide": 7587,
      "Ġinfo": 7588,
      "Ġinfrastructure": 7589,
      "401": 7590,
      "Ġlooked": 7591,
      "Ġgrade": 7592,
      "504": 7593,
      "texts": 7594,
      "Ġâľħ": 7595,
      "sibility": 7596,
      "Ġtempor": 7597,
      "Analy": 7598,
      "escript": 7599,
      "Ġvalidate": 7600,
      "_idx": 7601,
      "Ġ::": 7602,
      "ĠImp": 7603,
      "Ġsimplifies": 7604,
      "ympt": 7605,
      "Ġbenefits": 7606,
      "Ġscalar": 7607,
      "Ġirreduci": 7608,
      "auer": 7609,
      "Ġgrounded": 7610,
      "Ġexplaining": 7611,
      "Ġcouple": 7612,
      "Ġestimate": 7613,
      "Ġcaptured": 7614,
      "Ġconvergence": 7615,
      "Ġfriction": 7616,
      "Ġfriend": 7617,
      "Ġclaims": 7618,
      "Ġentirely": 7619,
      "aturally": 7620,
      "Ġexperiments": 7621,
      "ĠChildren": 7622,
      "Ġmacrostate": 7623,
      "Ġcyclic": 7624,
      "ymmetry": 7625,
      "ĠWednesday": 7626,
      "Ġprivate": 7627,
      "ĠPlayingCard": 7628,
      "Ġfermions": 7629,
      "ĠElevator": 7630,
      "\"{": 7631,
      "(result": 7632,
      ")n": 7633,
      ");ĊĊ": 7634,
      "/\\": 7635,
      "/h": 7636,
      "044": 7637,
      "61": 7638,
      "Edge": 7639,
      "Go": 7640,
      "Our": 7641,
      "Per": 7642,
      "Section": 7643,
      "Slice": 7644,
      "VC": 7645,
      "\\langle": 7646,
      "_M": 7647,
      "`.ĊĊ": 7648,
      "bes": 7649,
      "dat": 7650,
      "ecture": 7651,
      "free": 7652,
      "iar": 7653,
      "iber": 7654,
      "lines": 7655,
      "{N": 7656,
      "{t": 7657,
      "alities": 7658,
      "Ġfight": 7659,
      "Ġfair": 7660,
      "Ġpal": 7661,
      "Ġpsych": 7662,
      "anol": 7663,
      "anning": 7664,
      "Ġmir": 7665,
      "ara": 7666,
      "Ġnil": 7667,
      "ĠAge": 7668,
      "igible": 7669,
      "Ġbeg": 7670,
      "Ġbeaut": 7671,
      "umes": 7672,
      "uler": 7673,
      "ulating": 7674,
      "ĠCor": 7675,
      "unds": 7676,
      "ayout": 7677,
      "agger": 7678,
      "Ġnearly": 7679,
      "ĠPri": 7680,
      "ĠPract": 7681,
      "ivation": 7682,
      "Ġdement": 7683,
      "ĠEarly": 7684,
      "ĠEvery": 7685,
      "Ġchance": 7686,
      "abet": 7687,
      "abermet": 7688,
      "Ġunch": 7689,
      "ĠInt": 7690,
      "Ġdivergence": 7691,
      "Ġtrunc": 7692,
      "Ġmodify": 7693,
      "252": 7694,
      "Ġexposed": 7695,
      "Ġformation": 7696,
      "}$.Ċ": 7697,
      "Ġgoals": 7698,
      "Ġdisappe": 7699,
      "Ġtermin": 7700,
      "Ġsmooth": 7701,
      "ysics": 7702,
      "ops": 7703,
      "Ġmind": 7704,
      "Ġaccom": 7705,
      "Ġobst": 7706,
      "Ġobvious": 7707,
      "Ġinscribed": 7708,
      "Ġinsolvent": 7709,
      "ĠCho": 7710,
      "velope": 7711,
      "Ġdifferential": 7712,
      "Ġbool": 7713,
      "Ġboxes": 7714,
      "Ġintegrate": 7715,
      "Ġintended": 7716,
      "Ġcarried": 7717,
      "Ġradiation": 7718,
      "ashAttention": 7719,
      "763": 7720,
      "Ġdistinction": 7721,
      "Profile": 7722,
      "default": 7723,
      "ĠNews": 7724,
      "Ġleaders": 7725,
      "Ġproteins": 7726,
      ".style": 7727,
      "Ġplanet": 7728,
      "Ġadjacency": 7729,
      "stituting": 7730,
      "ĠApply": 7731,
      "Ġcoupling": 7732,
      "Ġpartitions": 7733,
      "Ġillness": 7734,
      "brane": 7735,
      "ĠIntersection": 7736,
      "Ġdifficulty": 7737,
      "OAA": 7738,
      "Phase": 7739,
      "----------------------------------------------------------------": 7740,
      "Ġstatistics": 7741,
      "062": 7742,
      "Ġhexadecimal": 7743,
      "Ġengineering": 7744,
      "haust": 7745,
      "Ġjoining": 7746,
      "Ġliterature": 7747,
      "ĠAcadem": 7748,
      "ophy": 7749,
      "âĨĴâĪŀ": 7750,
      "Ġhospital": 7751,
      "Ġturbulence": 7752,
      "Extractor": 7753,
      "Ġweapons": 7754,
      "ĠCatholic": 7755,
      "Ġcounterexample": 7756,
      "Ġdementia": 7757,
      "(sqrt": 7758,
      "(arr": 7759,
      ",t": 7760,
      ",Î²": 7761,
      "-ter": 7762,
      "-year": 7763,
      "011": 7764,
      "086": 7765,
      "795": 7766,
      "Pre": 7767,
      "aa": 7768,
      "aign": 7769,
      "field": 7770,
      "iated": 7771,
      "ka": 7772,
      "rc": 7773,
      "rical": 7774,
      "ua": 7775,
      "uf": 7776,
      "uits": 7777,
      "xic": 7778,
      "ypes": 7779,
      "},\\": 7780,
      "ĠÃ": 7781,
      "Ġtre": 7782,
      "erts": 7783,
      "Ġsd": 7784,
      "alg": 7785,
      "Ġfreedom": 7786,
      "itance": 7787,
      "Ġmill": 7788,
      "arge": 7789,
      "Ġdp": 7790,
      "Ġinm": 7791,
      "Ġinvert": 7792,
      "Ġeye": 7793,
      "Ġhit": 7794,
      "ĠTransform": 7795,
      "ĠAM": 7796,
      "ola": 7797,
      "ilibri": 7798,
      "Ġyield": 7799,
      "ĠSovi": 7800,
      "ĠĠĠĠĠĠĠĠĠĠĠĠĠĠĠĠĠĠĠĠĠĠĠĠĠĠĠ": 7801,
      "ĠBro": 7802,
      "ĠBob": 7803,
      "Ġstage": 7804,
      "resh": 7805,
      "tered": 7806,
      "Ġalign": 7807,
      "semble": 7808,
      "ĠMich": 7809,
      "ĠPath": 7810,
      "ĠRE": 7811,
      "ĠRatio": 7812,
      "ĠRaskolnikov": 7813,
      "ĠEl": 7814,
      "Ġsections": 7815,
      "Ġchlor": 7816,
      "Ġcompil": 7817,
      "ĠOpen": 7818,
      "acu": 7819,
      "10âģ": 7820,
      "Ġintervention": 7821,
      "Ġinteraction": 7822,
      "Ġinterface": 7823,
      "Ġmodified": 7824,
      "Ġmodifications": 7825,
      "oundary": 7826,
      "Ġarms": 7827,
      "ĠYe": 7828,
      "}$ĊĊ": 7829,
      "Ġloaves": 7830,
      "Ġdisk": 7831,
      "Ġdefines": 7832,
      "rought": 7833,
      "```<|": 7834,
      "Ġraw": 7835,
      "Ġoverhead": 7836,
      "Ġmanage": 7837,
      "Ġincircles": 7838,
      "Ġproven": 7839,
      "Ġfinding": 7840,
      "inese": 7841,
      "Ġtrace": 7842,
      "Ġparse": 7843,
      "heses": 7844,
      "ĠConvention": 7845,
      "Ġchildhood": 7846,
      "irement": 7847,
      "Ġdirected": 7848,
      "Ġconstrained": 7849,
      ".\")Ċ": 7850,
      "Ġconfidence": 7851,
      "487": 7852,
      "Ġavo": 7853,
      "overn": 7854,
      "Context": 7855,
      "ĠâľĹ": 7856,
      "Ġready": 7857,
      "Ġmeters": 7858,
      "ĠĠĠĠĠĠĠĠĠĠĠĠĠĠĠĠĠĠĠĠ": 7859,
      "ĠLearning": 7860,
      "Ġcontinued": 7861,
      "atching": 7862,
      "Ġopened": 7863,
      "(data": 7864,
      "Ġideal": 7865,
      "Ġmarks": 7866,
      "Ġversions": 7867,
      "ĠBeat": 7868,
      "ĠAnaly": 7869,
      "Select": 7870,
      "valued": 7871,
      "Ġbulk": 7872,
      "Ġdemonstrate": 7873,
      "Ġinstalled": 7874,
      "Ġeffort": 7875,
      "ĠADHD": 7876,
      "matrix": 7877,
      "riteria": 7878,
      "ĠEngland": 7879,
      "Ġflexible": 7880,
      "Ġtransmission": 7881,
      "ĠLegend": 7882,
      "ĠTurk": 7883,
      ".assertEqual": 7884,
      "ĠFlorida": 7885,
      "!/(": 7886,
      "$),": 7887,
      "'),Ċ": 7888,
      ")x": 7889,
      "+Î³": 7890,
      "-up": 7891,
      "-ac": 7892,
      "-QAOA": 7893,
      "/AC": 7894,
      "02": 7895,
      "048": 7896,
      "324": 7897,
      "442": 7898,
      "744": 7899,
      "91": 7900,
      "965": 7901,
      ":<|": 7902,
      "Acc": 7903,
      "Box": 7904,
      "Dep": 7905,
      "SQL": 7906,
      "_ch": 7907,
      "aver": 7908,
      "band": 7909,
      "bash": 7910,
      "gency": 7911,
      "hy": 7912,
      "mm": 7913,
      "mark": 7914,
      "rl": 7915,
      "Ġtag": 7916,
      "Ġtall": 7917,
      "ony": 7918,
      "Ġcot": 7919,
      "alysis": 7920,
      "Ġfederal": 7921,
      "Ġwin": 7922,
      "Ġmism": 7923,
      "arp": 7924,
      "arithm": 7925,
      "Ġnine": 7926,
      "Ġnative": 7927,
      "Ġisland": 7928,
      "uses": 7929,
      "enth": 7930,
      "ĠSort": 7931,
      "ĠSto": 7932,
      "Ġreve": 7933,
      "Ġreals": 7934,
      "Ġhon": 7935,
      "Ġhair": 7936,
      "rays": 7937,
      "stat": 7938,
      "strip": 7939,
      "celes": 7940,
      "Ġbee": 7941,
      "umbers": 7942,
      "uls": 7943,
      "ĠIll": 7944,
      "ĠBuild": 7945,
      "Ġstated": 7946,
      "Ġstick": 7947,
      "ĠLanguage": 7948,
      "Ġexhib": 7949,
      "ĠPark": 7950,
      "ĠPosition": 7951,
      "Ġcomet": 7952,
      "ivil": 7953,
      "Ġkg": 7954,
      "ĠRight": 7955,
      "ĠNorman": 7956,
      "aints": 7957,
      "Ġcompound": 7958,
      "abil": 7959,
      "ĠInteg": 7960,
      "apter": 7961,
      "apers": 7962,
      "Ġequip": 7963,
      "Ġroof": 7964,
      "textbf": 7965,
      "weight": 7966,
      "ĠJuly": 7967,
      "Ġfunctionality": 7968,
      "Ġlove": 7969,
      "Ġsubset": 7970,
      "Ġpreced": 7971,
      "Ġbounding": 7972,
      "versity": 7973,
      "ĠâĢ¢": 7974,
      "Ġtransp": 7975,
      "ĠConst": 7976,
      "olograph": 7977,
      "Ġemot": 7978,
      "Ġvariation": 7979,
      "ĠAlthough": 7980,
      "Ġvisits": 7981,
      "Ġclassic": 7982,
      "Ġoperands": 7983,
      "Ġdirectories": 7984,
      "ĠExec": 7985,
      "Ġsignage": 7986,
      "export": 7987,
      "ursor": 7988,
      "ursday": 7989,
      "Ġoffspring": 7990,
      "Ġworst": 7991,
      "Ġlesson": 7992,
      "ĠWhich": 7993,
      "Ġargue": 7994,
      "Ġargued": 7995,
      "Ġradii": 7996,
      "Ġmember": 7997,
      "Ġmainly": 7998,
      "398": 7999,
      "Ġgreatest": 8000,
      "Any": 8001,
      "Ġpopulations": 8002,
      "Ġelectrons": 8003,
      "Ġgoods": 8004,
      "Ġprofessor": 8005,
      "Ġrotate": 8006,
      "Ġrotated": 8007,
      "Ġdiffer": 8008,
      "ondon": 8009,
      "Ġsentiment": 8010,
      "ttps": 8011,
      "uclear": 8012,
      "Ġpromote": 8013,
      "Ġfoods": 8014,
      "Ġrequested": 8015,
      "Ġmicrolocal": 8016,
      "Ġbarrier": 8017,
      "Ġdatetime": 8018,
      "Ġbelieved": 8019,
      "nowledge": 8020,
      "IME": 8021,
      "Ġexceptions": 8022,
      "ĠAfrica": 8023,
      "Ġfigure": 8024,
      "Ġinitially": 8025,
      "Value": 8026,
      "Plug": 8027,
      "Ġassumptions": 8028,
      "typescript": 8029,
      "à¯įà®": 8030,
      "Ġmixture": 8031,
      "Ġthousands": 8032,
      "à°¿à°": 8033,
      "Ġirreducible": 8034,
      "abetes": 8035,
      "Ġsdram": 8036,
      "ĠLegendre": 8037,
      "(S": 8038,
      "(input": 8039,
      "-i": 8040,
      "-or": 8041,
      ".ro": 8042,
      "AF": 8043,
      "Act": 8044,
      "After": 8045,
      "CON": 8046,
      "Form": 8047,
      "IS": 8048,
      "Link": 8049,
      "Where": 8050,
      "\\_": 8051,
      "].ĊĊ": 8052,
      "_query": 8053,
      "bage": 8054,
      "ders": 8055,
      "hat": 8056,
      "pir": 8057,
      "tion": 8058,
      "two": 8059,
      "yles": 8060,
      "zen": 8061,
      "})^{": 8062,
      "inos": 8063,
      "heres": 8064,
      "rea": 8065,
      "rement": 8066,
      "Ġsourdough": 8067,
      "orage": 8068,
      "isor": 8069,
      "Ġwaves": 8070,
      "Ġbird": 8071,
      "Ġmel": 8072,
      "args": 8073,
      "room": 8074,
      "ĠST": 8075,
      "Ġhole": 8076,
      "idel": 8077,
      "style": 8078,
      "ceed": 8079,
      "**.": 8080,
      "ĠâĤ": 8081,
      "ĠSociety": 8082,
      "Ġstatic": 8083,
      "amate": 8084,
      "amily": 8085,
      "agination": 8086,
      "Ġalb": 8087,
      "ĠMet": 8088,
      "ĠMeta": 8089,
      "ĠPers": 8090,
      "ĠPell": 8091,
      "Ġkill": 8092,
      "ĠDer": 8093,
      "ĠÎĵ": 8094,
      "Ġunity": 8095,
      "duces": 8096,
      "Ġrod": 8097,
      "ĠsinÎ¸": 8098,
      "Ġexpensive": 8099,
      "Ġenvironments": 8100,
      "Ġspeech": 8101,
      "ressed": 8102,
      "113": 8103,
      "Ġcosh": 8104,
      "Ġphil": 8105,
      "ĠStack": 8106,
      "Ġrecently": 8107,
      "versal": 8108,
      "Ġobs": 8109,
      "_col": 8110,
      "477": 8111,
      "Ġinstructions": 8112,
      "Ġrepresentations": 8113,
      "Ġendpoint": 8114,
      "Ġsignal": 8115,
      "Ġdecision": 8116,
      "}}Ċ": 8117,
      "Ġoffice": 8118,
      "())Ċ": 8119,
      "Ġdenominators": 8120,
      "906": 8121,
      "ĠUses": 8122,
      "ashing": 8123,
      "Ġ&=": 8124,
      "Ġresponsible": 8125,
      "Ġcharacteristics": 8126,
      "Proof": 8127,
      "Ġeveryone": 8128,
      "pretation": 8129,
      "Ġhealthy": 8130,
      "ĠImport": 8131,
      "Ġmechanical": 8132,
      "Ġkeeping": 8133,
      "Ġowners": 8134,
      "Ġpolynomials": 8135,
      "Ġirre": 8136,
      "Ġpriority": 8137,
      "ĠIndones": 8138,
      "going": 8139,
      "Ġstored": 8140,
      "Ġdrawing": 8141,
      "ĠFlask": 8142,
      "Ġspectral": 8143,
      "Ġsignificantly": 8144,
      "Ġcandidates": 8145,
      "Ġdemands": 8146,
      "Ġmaintaining": 8147,
      "Ġuppercase": 8148,
      "Ġpercentage": 8149,
      "demand": 8150,
      "Ġconjecture": 8151,
      "aturday": 8152,
      "ĠLoad": 8153,
      "Ġaccepted": 8154,
      "Ġcollections": 8155,
      "Ġwidely": 8156,
      "ĠJanuary": 8157,
      "Ġuniformly": 8158,
      "Ġattributes": 8159,
      "Ġphenomenon": 8160,
      "Ġswitching": 8161,
      "Ġcancel": 8162,
      "ĠComplexity": 8163,
      "ĠuseUserStore": 8164,
      "\".ĊĊ": 8165,
      "(ctx": 8166,
      "*b": 8167,
      "+d": 8168,
      ",q": 8169,
      "-re": 8170,
      "-per": 8171,
      "-energy": 8172,
      "/or": 8173,
      "?),": 8174,
      "Based": 8175,
      "Comb": 8176,
      "Div": 8177,
      "PU": 8178,
      "Par": 8179,
      "Some": 8180,
      "\\right": 8181,
      "coth": 8182,
      "ief": 8183,
      "iability": 8184,
      "joy": 8185,
      "kin": 8186,
      "nÏĢ": 8187,
      "rition": 8188,
      "}'": 8189,
      "Ġion": 8190,
      "Ġ),": 8191,
      "Ġrac": 8192,
      "Ġà°": 8193,
      "Ġten": 8194,
      "Ġspl": 8195,
      "attern": 8196,
      "Ġfix": 8197,
      "Ġfitness": 8198,
      "Ġfelt": 8199,
      "itational": 8200,
      "Ġbio": 8201,
      "Ġborn": 8202,
      "Ġinh": 8203,
      "ros": 8204,
      "Ġnaturally": 8205,
      "ĠSam": 8206,
      "Ġlun": 8207,
      "ĠTim": 8208,
      "ĠTuscaloosa": 8209,
      "Ġgir": 8210,
      "ĠâĨ": 8211,
      "Ġconven": 8212,
      "umih": 8213,
      "ulf": 8214,
      "ĠMag": 8215,
      "Ġatom": 8216,
      "ĠPal": 8217,
      "ĠRye": 8218,
      "ĠFran": 8219,
      "ĠFrance": 8220,
      "ĠHLS": 8221,
      "Ġcompounds": 8222,
      "Ġunivers": 8223,
      "update": 8224,
      "Ġbutton": 8225,
      "Ġtruth": 8226,
      "Ġreserv": 8227,
      "Ġfinancial": 8228,
      "Ġintermediate": 8229,
      "connect": 8230,
      "Ġprints": 8231,
      "Ġcoast": 8232,
      "153": 8233,
      "Ġdisorder": 8234,
      "aked": 8235,
      "Ġspaces": 8236,
      "Ġ<<": 8237,
      "Ġrain": 8238,
      "Ġmanuf": 8239,
      "opic": 8240,
      "Ġcommer": 8241,
      "ellig": 8242,
      "Ġfacts": 8243,
      "tax": 8244,
      "unday": 8245,
      "__\":Ċ": 8246,
      "ologist": 8247,
      "Ġcompleted": 8248,
      "prov": 8249,
      "Ġvision": 8250,
      "Ġsystematic": 8251,
      ")$Ċ": 8252,
      "Ġsigned": 8253,
      "Ġtyping": 8254,
      "Ġworth": 8255,
      "Ġauthentic": 8256,
      "Ġmonad": 8257,
      "ĠEns": 8258,
      "ĠZustand": 8259,
      "Ġcalculates": 8260,
      "Ġcalculating": 8261,
      "Ġdegus": 8262,
      "371": 8263,
      "ĠArchite": 8264,
      "Ġboundedness": 8265,
      "Ġsheet": 8266,
      "Ġlowercase": 8267,
      "While": 8268,
      "Ġsubtle": 8269,
      "ĠPhil": 8270,
      "ĠClass": 8271,
      "glut": 8272,
      "response": 8273,
      "ĠNext": 8274,
      "879": 8275,
      "Ġloops": 8276,
      "azumih": 8277,
      "ART": 8278,
      "ĠHallows": 8279,
      "/dp": 8280,
      "562": 8281,
      "letter": 8282,
      "Ġupdated": 8283,
      "Ġaddresses": 8284,
      "Ġcontributions": 8285,
      "Ġchromatin": 8286,
      "674": 8287,
      "omorphism": 8288,
      "Ġsecurity": 8289,
      "xygen": 8290,
      ".html": 8291,
      "Ġperspective": 8292,
      "optim": 8293,
      "Ġpartnerships": 8294,
      "Ġsuspect": 8295,
      "Ġconcerns": 8296,
      "Ġreconstruct": 8297,
      "Ġclocks": 8298,
      "Request": 8299,
      "varphi": 8300,
      "Ġarchitecture": 8301,
      "\\bigl": 8302,
      "Ġincorrectly": 8303,
      "ĠVerify": 8304,
      "ĠFinally": 8305,
      "Ġmonitoring": 8306,
      "Ġopportunity": 8307,
      "Ġchallenges": 8308,
      "Ġalphabetic": 8309,
      "todos": 8310,
      "Ġinstrument": 8311,
      "Ġ============================================================================": 8312,
      "ilibrium": 8313,
      "azumihin": 8314,
      "&=": 8315,
      "-entropy": 8316,
      ".*": 8317,
      ".|Ċ": 8318,
      ".log": 8319,
      ".direct": 8320,
      "/D": 8321,
      "/r": 8322,
      "03": 8323,
      "019": 8324,
      "017": 8325,
      "53": 8326,
      "98": 8327,
      "Because": 8328,
      "New": 8329,
      "OL": 8330,
      "RI": 8331,
      "[int": 8332,
      "^âĪŀ": 8333,
      "_pro": 8334,
      "_json": 8335,
      "_grade": 8336,
      "care": 8337,
      "cast": 8338,
      "db": 8339,
      "gent": 8340,
      "https": 8341,
      "ii": 8342,
      "ivery": 8343,
      "ji": 8344,
      "method": 8345,
      "vm": 8346,
      "when": 8347,
      "{L": 8348,
      "}x": 8349,
      "ÃŃ": 8350,
      "Ġturns": 8351,
      "Ġtiling": 8352,
      "Ġtreated": 8353,
      "Ġtickets": 8354,
      "erate": 8355,
      "atches": 8356,
      "Ġche": 8357,
      "isation": 8358,
      "esian": 8359,
      "Ġpus": 8360,
      "anks": 8361,
      "Ġwinter": 8362,
      "Ġwoman": 8363,
      "Ġbrief": 8364,
      "Ġow": 8365,
      "lete": 8366,
      "Ġinvalid": 8367,
      "Ġnu": 8368,
      "Ġnests": 8369,
      "Ġnorthern": 8370,
      "ĠSCC": 8371,
      "Ġlab": 8372,
      "oud": 8373,
      "ĠTex": 8374,
      "ĠAccess": 8375,
      "oting": 8376,
      "otland": 8377,
      "osceles": 8378,
      "ĠBal": 8379,
      "Ġexhaust": 8380,
      "Ġvill": 8381,
      "Ġasc": 8382,
      "istence": 8383,
      "riers": 8384,
      "ĠRich": 8385,
      "ĠRiver": 8386,
      "ĠEve": 8387,
      "ĠName": 8388,
      "ĠNAS": 8389,
      "ĠHave": 8390,
      "ĠHuman": 8391,
      "ĠWall": 8392,
      "pled": 8393,
      "Ġmeets": 8394,
      "Ġadopt": 8395,
      "Ġregime": 8396,
      "Ġclim": 8397,
      "183": 8398,
      "}$$Ċ": 8399,
      "âĢĻre": 8400,
      "Ġspheres": 8401,
      "Ġreturned": 8402,
      "ĠAnt": 8403,
      "Ġrequiring": 8404,
      "Ġcentre": 8405,
      "ĠConfig": 8406,
      "ĠControl": 8407,
      "Ġremark": 8408,
      "Ġindependence": 8409,
      "Ġundergra": 8410,
      "ĠChurch": 8411,
      "ĠChinese": 8412,
      "ĠQAOA": 8413,
      "305": 8414,
      "ĠProf": 8415,
      "Ġsurpr": 8416,
      "Ġsurround": 8417,
      "Structure": 8418,
      "Ġoffset": 8419,
      "();Ċ": 8420,
      "-sh": 8421,
      "Ġsecondary": 8422,
      "ĠEnd": 8423,
      "ĠEnvironment": 8424,
      "Ġsupports": 8425,
      "Ġmembrane": 8426,
      "iveness": 8427,
      "Ġsimilarity": 8428,
      "396": 8429,
      "annels": 8430,
      "mond": 8431,
      "scape": 8432,
      "Ġelectro": 8433,
      "ĠResult": 8434,
      "Ġplayed": 8435,
      "Ġ:=": 8436,
      "Ġpowerful": 8437,
      "ynamics": 8438,
      "667": 8439,
      "Ġcertainly": 8440,
      "|----------": 8441,
      "troduction": 8442,
      "Ġbreaking": 8443,
      "Ġaffected": 8444,
      "Ġdelivery": 8445,
      "Ġpurch": 8446,
      "Ġsuperadd": 8447,
      "Ġeasy": 8448,
      "Ġ'_',": 8449,
      "Ġdecrease": 8450,
      "Ġachieved": 8451,
      "Ġcontribution": 8452,
      "ĠFeatures": 8453,
      "Ġrounded": 8454,
      "Ġimprovement": 8455,
      "ĠBritain": 8456,
      "Ġlearned": 8457,
      "Ġsteering": 8458,
      "Ġobtained": 8459,
      "Ġsituations": 8460,
      "Ġindustry": 8461,
      "ĠUpdate": 8462,
      "Ġadministr": 8463,
      "ĠPeople": 8464,
      "Ġencourage": 8465,
      "Ġpolicy": 8466,
      "ĠDetermine": 8467,
      "Ġunchanged": 8468,
      "ĠSoviet": 8469,
      "Ġequipment": 8470,
      "ĠâĤ¬": 8471,
      "glutamate": 8472,
      ")Îµ": 8473,
      "-F": 8474,
      "-left": 8475,
      ".to": 8476,
      "026": 8477,
      "745": 8478,
      "Comm": 8479,
      "None": 8480,
      "Over": 8481,
      "Sy": 8482,
      "Solution": 8483,
      "Supp": 8484,
      "Top": 8485,
      "Tool": 8486,
      "\\mathbf": 8487,
      "_user": 8488,
      "`ĊĊ": 8489,
      "ahedron": 8490,
      "bru": 8491,
      "cis": 8492,
      "gn": 8493,
      "mount": 8494,
      "overy": 8495,
      "uracy": 8496,
      "Ã¨": 8497,
      "Ø§": 8498,
      "Ø¯": 8499,
      "Ġtor": 8500,
      "Ġtit": 8501,
      "oned": 8502,
      "rep": 8503,
      "erry": 8504,
      "erior": 8505,
      "Ġcamer": 8506,
      "orge": 8507,
      "Ġfool": 8508,
      "itis": 8509,
      "Ġpix": 8510,
      "Ġpseud": 8511,
      "Ġbes": 8512,
      "Ġdil": 8513,
      "lean": 8514,
      "Ġisosceles": 8515,
      "usiness": 8516,
      "Ġeg": 8517,
      "ĠSN": 8518,
      "ĠSaf": 8519,
      "ĠSaturday": 8520,
      "Ġthin": 8521,
      "Ġlose": 8522,
      "Ġhous": 8523,
      "Ġhints": 8524,
      "ĠTop": 8525,
      "ĠTask": 8526,
      "ĠArt": 8527,
      "cell": 8528,
      "Ġbees": 8529,
      "iful": 8530,
      "ĠCong": 8531,
      "ĠBio": 8532,
      "Ġstable": 8533,
      "ĠTheore": 8534,
      "ambo": 8535,
      "Ġexclude": 8536,
      "Ġnegl": 8537,
      "ĠMuseum": 8538,
      "008": 8539,
      "Ġatoms": 8540,
      "ĠRub": 8541,
      "ĠRazumihin": 8542,
      "Ġdeque": 8543,
      "heric": 8544,
      "andidates": 8545,
      "ĠNatural": 8546,
      "dec": 8547,
      "ĠOptim": 8548,
      "planation": 8549,
      "email": 8550,
      "106": 8551,
      "ensus": 8552,
      "lling": 8553,
      "ostic": 8554,
      "Ġexponents": 8555,
      "Ġenforce": 8556,
      "Ġenvelope": 8557,
      "ausal": 8558,
      "Ġformatted": 8559,
      "ackage": 8560,
      "Ġjz": 8561,
      "Ġjoint": 8562,
      "ffice": 8563,
      "Ġscore": 8564,
      "ĠVi": 8565,
      "137": 8566,
      "rypt": 8567,
      "oken": 8568,
      "146": 8569,
      "Ġsubspace": 8570,
      "Ġrace": 8571,
      "Ġmanager": 8572,
      "Ġfindings": 8573,
      "outs": 8574,
      "Ġ}ĊĊ": 8575,
      "ronger": 8576,
      "Ġeleph": 8577,
      "179": 8578,
      "irements": 8579,
      "Ġextensions": 8580,
      "idential": 8581,
      "455": 8582,
      "Ġcurved": 8583,
      "proper": 8584,
      "302": 8585,
      "Ġamounts": 8586,
      "ĠProject": 8587,
      "Ġidentif": 8588,
      "('/": 8589,
      "Ġconflict": 8590,
      "return": 8591,
      "ĠHead": 8592,
      "askell": 8593,
      "ugment": 8594,
      "(ÎĶ": 8595,
      "ĠArn": 8596,
      "Ġtopic": 8597,
      "ernet": 8598,
      "Ġmassive": 8599,
      "Ġpolygon": 8600,
      "Ġhomogeneous": 8601,
      "Ġplayer": 8602,
      "Ġcontrolled": 8603,
      "likely": 8604,
      "Ġinterpreted": 8605,
      "ĠScott": 8606,
      "Ġsemi": 8607,
      "Ġdiseases": 8608,
      "ĠRedux": 8609,
      "_list": 8610,
      "Ġestimated": 8611,
      "hematics": 8612,
      "âģ´": 8613,
      "âģ»": 8614,
      "Ġbisectors": 8615,
      "AND": 8616,
      "_FI": 8617,
      "subset": 8618,
      "ĠInternet": 8619,
      "ĠCourt": 8620,
      "Ġspeakers": 8621,
      "Ġreconsider": 8622,
      "ĠInstead": 8623,
      "ĠAustralia": 8624,
      ".js": 8625,
      "Ġprocedure": 8626,
      "âĮĭ": 8627,
      "Ġtissue": 8628,
      "Ġrecipro": 8629,
      "Ġoctahedron": 8630,
      "Ġautomorphism": 8631,
      "-term": 8632,
      "algam": 8633,
      "bruary": 8634,
      "\"Error": 8635,
      ")|Ċ": 8636,
      "-part": 8637,
      "-gra": 8638,
      ".par": 8639,
      "915": 8640,
      "John": 8641,
      "JSON": 8642,
      "LO": 8643,
      "OD": 8644,
      "Tra": 8645,
      "];": 8646,
      "_phone": 8647,
      "det": 8648,
      "graph": 8649,
      "ipping": 8650,
      "message": 8651,
      "nd": 8652,
      "spect": 8653,
      "Ġ...,": 8654,
      "Ġtags": 8655,
      "Ġtuple": 8656,
      "inct": 8657,
      "Ġsend": 8658,
      "Ġsession": 8659,
      "Ġthera": 8660,
      "Ġthermod": 8661,
      "original": 8662,
      "aled": 8663,
      "Ġfavor": 8664,
      "itte": 8665,
      "Ġoxygen": 8666,
      "Ġmsg": 8667,
      "Ġinse": 8668,
      "Ġnone": 8669,
      "ĠSentence": 8670,
      "ashes": 8671,
      "vector": 8672,
      "omer": 8673,
      "Ġlingu": 8674,
      "Ġhidden": 8675,
      "ouble": 8676,
      "iders": 8677,
      "olf": 8678,
      "ĠCAL": 8679,
      "Ġstronger": 8680,
      "Ġexclusive": 8681,
      "Ġvess": 8682,
      "isted": 8683,
      "ĠMari": 8684,
      "ĠMove": 8685,
      "ĠMarsh": 8686,
      "ĠMiddle": 8687,
      "Ġcomfort": 8688,
      "essions": 8689,
      "ĠDraw": 8690,
      "estamps": 8691,
      "Ġsea": 8692,
      "Ġseeds": 8693,
      "ĠHel": 8694,
      "Ġchanging": 8695,
      "abatic": 8696,
      "aching": 8697,
      "fered": 8698,
      "ĠGW": 8699,
      "Ġdiabetes": 8700,
      "107": 8701,
      "Ġresistance": 8702,
      "Ġsociety": 8703,
      "Ġadvis": 8704,
      "255": 8705,
      "ĠâĪŀ": 8706,
      "Ġplans": 8707,
      "Ġplates": 8708,
      "Ġsquared": 8709,
      "format": 8710,
      "Ġcook": 8711,
      "âĢĻve": 8712,
      "136": 8713,
      "penditure": 8714,
      "ĠStore": 8715,
      "Ġray": 8716,
      "ĠAnother": 8717,
      "366": 8718,
      "cio": 8719,
      "Inst": 8720,
      "Ġdesk": 8721,
      "Ġtrailing": 8722,
      "Ġtranscription": 8723,
      "ĠÏī": 8724,
      "Ġrepro": 8725,
      "177": 8726,
      "ÃĹc": 8727,
      "__`": 8728,
      "Ġacids": 8729,
      "Ġdifferently": 8730,
      "304": 8731,
      "Ġamb": 8732,
      "Ġgenerates": 8733,
      "Ġfewer": 8734,
      "plications": 8735,
      "ĠReason": 8736,
      "Ġhandlers": 8737,
      "parated": 8738,
      "ynthe": 8739,
      "}}(": 8740,
      "Ġpaths": 8741,
      "Ġearn": 8742,
      "aska": 8743,
      "Ġserial": 8744,
      "Ġ&&": 8745,
      "Ġhybrid": 8746,
      "Ġdetermines": 8747,
      "Ġreducing": 8748,
      "Ġmedium": 8749,
      "ĠLeague": 8750,
      "Ġcombinations": 8751,
      "Ġinvolutive": 8752,
      "Ġquadrilateral": 8753,
      "Ġapproximation": 8754,
      "-style": 8755,
      "Ġlinked": 8756,
      "ĠMulti": 8757,
      "Ġdepression": 8758,
      "Ġsorting": 8759,
      "Ġlayers": 8760,
      "ĠFlashAttention": 8761,
      "valuate": 8762,
      "Ġpreserving": 8763,
      "à¯ģ": 8764,
      "ĠGuide": 8765,
      "wargs": 8766,
      "Ġmixed": 8767,
      "Ġmeaningful": 8768,
      "display": 8769,
      "downarrow": 8770,
      "ĠPoints": 8771,
      "Ġimmediate": 8772,
      "Ġremoving": 8773,
      "www": 8774,
      "\\|_{": 8775,
      "ĠUNSCOM": 8776,
      "ĠFormat": 8777,
      "Ġconducted": 8778,
      "Ġindustrial": 8779,
      "Ġsexual": 8780,
      "ĠEngine": 8781,
      "Ġdiagrams": 8782,
      "Ġsuprem": 8783,
      "ymmetric": 8784,
      "Ġrecommend": 8785,
      "Ġdrops": 8786,
      "Ġorientation": 8787,
      "Ġopin": 8788,
      "Ġresidues": 8789,
      "Ġclustergrammer": 8790,
      "ĠLandauer": 8791,
      "ĠTwitter": 8792,
      "Ġenumerate": 8793,
      "Ġreleased": 8794,
      "ĠAcademy": 8795,
      "10âģ¶": 8796,
      "ĠTexas": 8797,
      "ĠNASA": 8798,
      "\">": 8799,
      "').": 8800,
      "'..": 8801,
      "(st": 8802,
      ")\"": 8803,
      "-Step": 8804,
      ".read": 8805,
      ".load": 8806,
      ".model": 8807,
      "/Ċ": 8808,
      "/PO": 8809,
      "336": 8810,
      ":\")Ċ": 8811,
      "Ar": 8812,
      "DAT": 8813,
      "KA": 8814,
      "Meta": 8815,
      "[\"": 8816,
      "[f": 8817,
      "\\}": 8818,
      "]^": 8819,
      "dom": 8820,
      "description": 8821,
      "gr": 8822,
      "high": 8823,
      "mult": 8824,
      "new": 8825,
      "pace": 8826,
      "small": 8827,
      "}m": 8828,
      "Ġtube": 8829,
      "Ġtiles": 8830,
      "inf": 8831,
      "Ġsizes": 8832,
      "Ġpd": 8833,
      "Ġphe": 8834,
      "Ġbed": 8835,
      "roph": 8836,
      "Ġnav": 8837,
      "aste": 8838,
      "Ġthrow": 8839,
      "omers": 8840,
      "iments": 8841,
      "idx": 8842,
      "ille": 8843,
      "ĠCS": 8844,
      "ĠCity": 8845,
      "urations": 8846,
      "ĠBudd": 8847,
      "Ġproport": 8848,
      "ĠMic": 8849,
      "ĠROT": 8850,
      "ĠRober": 8851,
      "Ġnotes": 8852,
      "endment": 8853,
      "ĠEuler": 8854,
      "aining": 8855,
      "ĠWhere": 8856,
      "ĠOx": 8857,
      "achment": 8858,
      "ĠThursday": 8859,
      "acific": 8860,
      "apes": 8861,
      "Ġimpl": 8862,
      "109": 8863,
      "Ġtruly": 8864,
      "âĪĳ": 8865,
      "Ġnumpy": 8866,
      "Ġfinishing": 8867,
      "Ġarri": 8868,
      "Ġque": 8869,
      "ditional": 8870,
      "Ġexposure": 8871,
      "Ġspeaking": 8872,
      "Ġcoprime": 8873,
      "ĠJames": 8874,
      "152": 8875,
      "Ġspot": 8876,
      "Ġprefer": 8877,
      "Ġdespite": 8878,
      "ĠConnect": 8879,
      "ĠConsequently": 8880,
      "Ġtrying": 8881,
      "Ġaccuracy": 8882,
      "Ġspecifications": 8883,
      "Ġdetail": 8884,
      "Ġacute": 8885,
      "_cards": 8886,
      "262": 8887,
      "Ġendpoints": 8888,
      "Ġsignals": 8889,
      "example": 8890,
      "Stack": 8891,
      "Ġdecisions": 8892,
      "Ġprinted": 8893,
      "Ġconfusion": 8894,
      "poses": 8895,
      "possible": 8896,
      "coordin": 8897,
      "429": 8898,
      "382": 8899,
      "294": 8900,
      "Ġconnects": 8901,
      "scopic": 8902,
      "Ġartists": 8903,
      "Ġruntime": 8904,
      "ĠAtt": 8905,
      "ĠOnce": 8906,
      "azine": 8907,
      "Ġassumed": 8908,
      "cludes": 8909,
      "Ġlatency": 8910,
      "Ġfrequently": 8911,
      "-length": 8912,
      "ĠColle": 8913,
      "Ġtasks": 8914,
      "_CF": 8915,
      "Ġrounding": 8916,
      "Ġpreserved": 8917,
      "Phi": 8918,
      "Implement": 8919,
      "Ġfacilities": 8920,
      "ĠRepresent": 8921,
      "ĠRepublic": 8922,
      "ĠLocal": 8923,
      "Ġcollege": 8924,
      "Ġhappened": 8925,
      "Ġdescribing": 8926,
      "Ġremoved": 8927,
      "float": 8928,
      ".filter": 8929,
      "Ġsunlight": 8930,
      "Ġconverted": 8931,
      "ĠBlack": 8932,
      "Ġbeneficiaries": 8933,
      "|------": 8934,
      "Ġlicensing": 8935,
      "Ġmantissa": 8936,
      "-separated": 8937,
      "ĠJapanese": 8938,
      "Ġterrit": 8939,
      "urable": 8940,
      "areness": 8941,
      "Ġdepartment": 8942,
      "Ġcontradictory": 8943,
      "Feature": 8944,
      "Calculate": 8945,
      "{pmatrix": 8946,
      "ĠDevelopment": 8947,
      "Ġalbum": 8948,
      ".directoryListView": 8949,
      "Suppose": 8950,
      "';Ċ": 8951,
      "(P": 8952,
      "(chars": 8953,
      ")S": 8954,
      ")}\\": 8955,
      "-glutamate": 8956,
      ".name": 8957,
      "386": 8958,
      "520": 8959,
      "572": 8960,
      "946": 8961,
      "=x": 8962,
      "Count": 8963,
      "Each": 8964,
      "Fl": 8965,
      "MB": 8966,
      "_output": 8967,
      "afe": 8968,
      "cm": 8969,
      "dynamic": 8970,
      "men": 8971,
      "oon": 8972,
      "path": 8973,
      "sf": 8974,
      "wide": 8975,
      "{-": 8976,
      "Ġactions": 8977,
      "ini": 8978,
      "hedu": 8979,
      "hether": 8980,
      "Ġsand": 8981,
      "Ġsabermet": 8982,
      "ativity": 8983,
      "isons": 8984,
      "itals": 8985,
      "Ġbars": 8986,
      "Ġbillion": 8987,
      "Ġbrought": 8988,
      "Ġmit": 8989,
      "Ġmam": 8990,
      "lements": 8991,
      "ĠSan": 8992,
      "ĠSpecific": 8993,
      "ĠSuper": 8994,
      "Ġlaboratory": 8995,
      "Ġgar": 8996,
      "Ġgerm": 8997,
      "Ġ\\).ĊĊ": 8998,
      "Ġ\\).Ċ": 8999,
      "ifts": 9000,
      "cho": 9001,
      "ĠCre": 9002,
      "unt": 9003,
      "ĠLaw": 9004,
      "Ġ$$": 9005,
      "Ġvict": 9006,
      "Ġrul": 9007,
      "ĠMO": 9008,
      "ĠPO": 9009,
      "that": 9010,
      "ĠFace": 9011,
      "essages": 9012,
      "cket": 9013,
      "ĠEdge": 9014,
      "anted": 9015,
      "ĠWell": 9016,
      "Ġlem": 9017,
      "Ġhear": 9018,
      "Ġshorter": 9019,
      "ĠThose": 9020,
      "ĠGreat": 9021,
      "Ġdirections": 9022,
      "ulty": 9023,
      "10Â²": 9024,
      "Ġsouthern": 9025,
      "Ġequally": 9026,
      "Ġroute": 9027,
      ")).ĊĊ": 9028,
      "Ġcoli": 9029,
      "Ġevolved": 9030,
      "ĠJava": 9031,
      "ĠVis": 9032,
      "aker": 9033,
      "Ġspro": 9034,
      "Ġspac": 9035,
      "138": 9036,
      "Ġtriple": 9037,
      "ĠĊĠĠĊ": 9038,
      "Ġcircuits": 9039,
      "147": 9040,
      "Ġprevents": 9041,
      "Ġsetup": 9042,
      "Ġ});Ċ": 9043,
      "cience": 9044,
      "Ġpaid": 9045,
      "icked": 9046,
      "Ġemb": 9047,
      "Ġfinalization": 9048,
      "Ġconsidering": 9049,
      "vially": 9050,
      "289": 9051,
      "_test": 9052,
      "ĠProof": 9053,
      "ĠProduct": 9054,
      "licity": 9055,
      "604": 9056,
      "ocr": 9057,
      "ynchron": 9058,
      "Ġentry": 9059,
      "retary": 9060,
      "Ġdownload": 9061,
      "729": 9062,
      "ĠWhite": 9063,
      "Ġmonoidal": 9064,
      "Ġslides": 9065,
      "ugal": 9066,
      "467": 9067,
      "Ġcapital": 9068,
      "Ġfourth": 9069,
      "Ġmetric": 9070,
      "Ġswapping": 9071,
      "ĠSelect": 9072,
      "Ġguess": 9073,
      "Ġrestri": 9074,
      "Ġplayers": 9075,
      "ĠDecember": 9076,
      "Ġflowers": 9077,
      "Ġconvexity": 9078,
      "Ġevaluated": 9079,
      "orizontal": 9080,
      "Ġaccessible": 9081,
      "|---------": 9082,
      "ĠValidation": 9083,
      "ĠCommunity": 9084,
      "Ġimproving": 9085,
      "azz": 9086,
      "ARS": 9087,
      "ĠAPB": 9088,
      "Ġinternally": 9089,
      "Ġphotograph": 9090,
      "Ġfarm": 9091,
      "Ġequivalently": 9092,
      "triangle": 9093,
      "Ġpaying": 9094,
      "Ġorbital": 9095,
      "Ġbroken": 9096,
      "ĠHandling": 9097,
      "ĠContin": 9098,
      "ĠCounty": 9099,
      "lapse": 9100,
      "Ġmultiplicities": 9101,
[...]
